{
  "version": "1.0",
  "truncation": null,
  "padding": null,
  "added_tokens": [
    {
      "id": 0,
      "content": "<unk>",
      "single_word": false,
      "lstrip": false,
      "rstrip": false,
      "normalized": false,
      "special": true
    },
    {
      "id": 1,
      "content": "<pad>",
      "single_word": false,
      "lstrip": false,
      "rstrip": false,
      "normalized": false,
      "special": true
    },
    {
      "id": 2,
      "content": "<bos>",
      "single_word": false,
      "lstrip": false,
      "rstrip": false,
      "normalized": false,
      "special": true
    },
    {
      "id": 3,
      "content": "<eos>",
      "single_word": false,
      "lstrip": false,
      "rstrip": false,
      "normalized": false,
      "special": true
    }
  ],
  "normalizer": null,
  "pre_tokenizer": {
    "type": "ByteLevel",
    "add_prefix_space": false,
    "trim_offsets": true,
    "use_regex": true
  },
  "post_processor": null,
  "decoder": null,
  "model": {
    "type": "BPE",
    "dropout": null,
    "unk_token": "<unk>",
    "continuing_subword_prefix": null,
    "end_of_word_suffix": null,
    "fuse_unk": false,
    "byte_fallback": false,
    "ignore_merges": false,
    "vocab": {
      "<unk>": 0,
      "<pad>": 1,
      "<bos>": 2,
      "<eos>": 3,
      "!": 4,
      "\"": 5,
      "#": 6,
      "$": 7,
      "%": 8,
      "&": 9,
      "'": 10,
      "(": 11,
      ")": 12,
      "*": 13,
      "+": 14,
      ",": 15,
      "-": 16,
      ".": 17,
      "/": 18,
      "0": 19,
      "1": 20,
      "2": 21,
      "3": 22,
      "4": 23,
      "5": 24,
      "6": 25,
      "7": 26,
      "8": 27,
      "9": 28,
      ":": 29,
      ";": 30,
      "<": 31,
      "=": 32,
      ">": 33,
      "?": 34,
      "@": 35,
      "A": 36,
      "B": 37,
      "C": 38,
      "D": 39,
      "E": 40,
      "F": 41,
      "G": 42,
      "H": 43,
      "I": 44,
      "J": 45,
      "K": 46,
      "L": 47,
      "M": 48,
      "N": 49,
      "O": 50,
      "P": 51,
      "Q": 52,
      "R": 53,
      "S": 54,
      "T": 55,
      "U": 56,
      "V": 57,
      "W": 58,
      "X": 59,
      "Y": 60,
      "Z": 61,
      "[": 62,
      "\\": 63,
      "]": 64,
      "^": 65,
      "_": 66,
      "`": 67,
      "a": 68,
      "b": 69,
      "c": 70,
      "d": 71,
      "e": 72,
      "f": 73,
      "g": 74,
      "h": 75,
      "i": 76,
      "j": 77,
      "k": 78,
      "l": 79,
      "m": 80,
      "n": 81,
      "o": 82,
      "p": 83,
      "q": 84,
      "r": 85,
      "s": 86,
      "t": 87,
      "u": 88,
      "v": 89,
      "w": 90,
      "x": 91,
      "y": 92,
      "z": 93,
      "{": 94,
      "|": 95,
      "}": 96,
      "~": 97,
      "¡": 98,
      "¢": 99,
      "£": 100,
      "¤": 101,
      "¥": 102,
      "¦": 103,
      "§": 104,
      "¨": 105,
      "©": 106,
      "ª": 107,
      "«": 108,
      "¬": 109,
      "®": 110,
      "¯": 111,
      "°": 112,
      "±": 113,
      "²": 114,
      "³": 115,
      "´": 116,
      "µ": 117,
      "¶": 118,
      "·": 119,
      "¸": 120,
      "¹": 121,
      "º": 122,
      "»": 123,
      "¼": 124,
      "½": 125,
      "¾": 126,
      "¿": 127,
      "Â": 128,
      "Ã": 129,
      "Ä": 130,
      "Å": 131,
      "Æ": 132,
      "Ç": 133,
      "È": 134,
      "É": 135,
      "Ê": 136,
      "Ë": 137,
      "Ì": 138,
      "Í": 139,
      "Î": 140,
      "Ï": 141,
      "Ð": 142,
      "Ñ": 143,
      "Ò": 144,
      "Ó": 145,
      "Ô": 146,
      "Õ": 147,
      "Ö": 148,
      "×": 149,
      "Ø": 150,
      "Ù": 151,
      "Ú": 152,
      "Û": 153,
      "Ü": 154,
      "Ý": 155,
      "Þ": 156,
      "ß": 157,
      "à": 158,
      "á": 159,
      "â": 160,
      "ã": 161,
      "ä": 162,
      "å": 163,
      "æ": 164,
      "ç": 165,
      "è": 166,
      "é": 167,
      "ê": 168,
      "ë": 169,
      "ì": 170,
      "í": 171,
      "î": 172,
      "ï": 173,
      "ð": 174,
      "ó": 175,
      "ô": 176,
      "ā": 177,
      "Ă": 178,
      "ă": 179,
      "Ą": 180,
      "ą": 181,
      "Ć": 182,
      "Ĉ": 183,
      "ĉ": 184,
      "Ċ": 185,
      "Č": 186,
      "č": 187,
      "Ď": 188,
      "ď": 189,
      "Đ": 190,
      "đ": 191,
      "Ē": 192,
      "ē": 193,
      "Ĕ": 194,
      "ĕ": 195,
      "Ė": 196,
      "ė": 197,
      "Ę": 198,
      "ę": 199,
      "Ě": 200,
      "ě": 201,
      "ğ": 202,
      "Ġ": 203,
      "ġ": 204,
      "Ģ": 205,
      "ģ": 206,
      "Ĥ": 207,
      "ĥ": 208,
      "Ħ": 209,
      "ħ": 210,
      "Ĩ": 211,
      "ĩ": 212,
      "Ī": 213,
      "ī": 214,
      "Ĭ": 215,
      "ĭ": 216,
      "Į": 217,
      "į": 218,
      "İ": 219,
      "ı": 220,
      "Ĳ": 221,
      "ĳ": 222,
      "Ĵ": 223,
      "ĵ": 224,
      "Ķ": 225,
      "ķ": 226,
      "ĸ": 227,
      "Ĺ": 228,
      "ĺ": 229,
      "Ļ": 230,
      "ļ": 231,
      "Ľ": 232,
      "ľ": 233,
      "Ŀ": 234,
      "ŀ": 235,
      "Ł": 236,
      "ł": 237,
      "Ń": 238,
      "Ġt": 239,
      "he": 240,
      "Ġa": 241,
      "in": 242,
      "ĠĠ": 243,
      "Ġthe": 244,
      "re": 245,
      "on": 246,
      "čĊ": 247,
      "er": 248,
      "at": 249,
      "Ġs": 250,
      "Ġo": 251,
      "Ġc": 252,
      "en": 253,
      "es": 254,
      "Ġw": 255,
      "is": 256,
      "nd": 257,
      "or": 258,
      "it": 259,
      "al": 260,
      "Ġp": 261,
      "Ġf": 262,
      "Ġof": 263,
      "an": 264,
      "ed": 265,
      "Ġb": 266,
      "ing": 267,
      "Ġin": 268,
      "ar": 269,
      "ion": 270,
      "Ġm": 271,
      "Ġand": 272,
      "Ġto": 273,
      "Ġd": 274,
      "ou": 275,
      "ic": 276,
      "le": 277,
      "ĠĠĠĠ": 278,
      "ro": 279,
      "as": 280,
      "ent": 281,
      "Ġe": 282,
      "Ġh": 283,
      "ct": 284,
      "Ġth": 285,
      "Ġn": 286,
      "Ġre": 287,
      "Ġl": 288,
      "st": 289,
      "ve": 290,
      "il": 291,
      "ĠĠĠ": 292,
      "om": 293,
      "et": 294,
      "Ġis": 295,
      "ĠT": 296,
      "im": 297,
      "ol": 298,
      "ra": 299,
      "el": 300,
      "ation": 301,
      "Ġg": 302,
      "ce": 303,
      "ur": 304,
      "id": 305,
      "âĢ": 306,
      "ut": 307,
      "ot": 308,
      "us": 309,
      "ly": 310,
      "Ġfor": 311,
      "Ġbe": 312,
      "ig": 313,
      "ow": 314,
      "ĠA": 315,
      "ul": 316,
      "Ġ=": 317,
      "Ġst": 318,
      "ir": 319,
      "Ġ1": 320,
      "ch": 321,
      "Ġthat": 322,
      "ver": 323,
      "am": 324,
      "ĠS": 325,
      "ĠC": 326,
      "Ġon": 327,
      "ĠĠĠĠĠĠĠ": 328,
      "if": 329,
      "Ġas": 330,
      "Ġ(": 331,
      "ĠThe": 332,
      "se": 333,
      "um": 334,
      "ĠI": 335,
      "ad": 336,
      "Ġcon": 337,
      "ith": 338,
      "ay": 339,
      "Ġpro": 340,
      "Ġan": 341,
      "ist": 342,
      "her": 343,
      "Ġare": 344,
      "qu": 345,
      "ate": 346,
      "Ġwith": 347,
      "un": 348,
      "od": 349,
      "ers": 350,
      "Ġit": 351,
      "Ġwh": 352,
      "Ġwe": 353,
      "Ġy": 354,
      "ge": 355,
      "Ġal": 356,
      "Ġde": 357,
      "iv": 358,
      "Ġor": 359,
      "Ġex": 360,
      "th": 361,
      "est": 362,
      "res": 363,
      "Ġv": 364,
      "ies": 365,
      "ab": 366,
      "pe": 367,
      "ĠP": 368,
      "ment": 369,
      "Ġ2": 370,
      "ter": 371,
      "ity": 372,
      "os": 373,
      "ess": 374,
      "ĠM": 375,
      "and": 376,
      "op": 377,
      "rom": 378,
      "ĠB": 379,
      "ive": 380,
      "Ġby": 381,
      "ore": 382,
      "Ġcan": 383,
      "ac": 384,
      "âĢĻ": 385,
      "Ġcom": 386,
      "Ġwas": 387,
      "ain": 388,
      "Ġr": 389,
      "Ġhe": 390,
      "Ġsu": 391,
      "ts": 392,
      "ial": 393,
      "igh": 394,
      "Ġ-": 395,
      "ĠR": 396,
      "em": 397,
      "Ġch": 398,
      "ld": 399,
      "ill": 400,
      "ĠE": 401,
      "Ġus": 402,
      "ĠH": 403,
      "pp": 404,
      "ren": 405,
      "ke": 406,
      "oc": 407,
      "ort": 408,
      "Ġfrom": 409,
      "ri": 410,
      "ĠW": 411,
      "ud": 412,
      "ect": 413,
      "Ġyou": 414,
      "The": 415,
      "ĠF": 416,
      "Ġne": 417,
      "ave": 418,
      "Ġat": 419,
      "Ġle": 420,
      "ĠD": 421,
      "Ġse": 422,
      "\"\"": 423,
      "00": 424,
      "Ġtheir": 425,
      "ant": 426,
      "Ġnot": 427,
      "ĠN": 428,
      "ions": 429,
      "pl": 430,
      "red": 431,
      "Ġint": 432,
      "Ġ+": 433,
      "Ġen": 434,
      "pt": 435,
      "Ġim": 436,
      "Ġhave": 437,
      "rou": 438,
      "ical": 439,
      "ure": 440,
      "ĠG": 441,
      "ich": 442,
      "art": 443,
      "ĠL": 444,
      "iz": 445,
      "all": 446,
      "Ġsh": 447,
      "ĠâĢ": 448,
      "Ġu": 449,
      "ight": 450,
      "ther": 451,
      "Ġthis": 452,
      "og": 453,
      "act": 454,
      "Ġwor": 455,
      "age": 456,
      "ine": 457,
      "Ġpl": 458,
      "gh": 459,
      "ans": 460,
      "Ġk": 461,
      "per": 462,
      "Ġ3": 463,
      "ult": 464,
      "Ġab": 465,
      "Ġthey": 466,
      "ould": 467,
      "ple": 468,
      "ue": 469,
      "ber": 470,
      "##": 471,
      "ated": 472,
      "ame": 473,
      "ind": 474,
      "**": 475,
      "ag": 476,
      "Ġwhich": 477,
      "ome": 478,
      "Ġwhe": 479,
      "ep": 480,
      "end": 481,
      "ost": 482,
      "out": 483,
      "ide": 484,
      "Ġ$": 485,
      "ations": 486,
      "Ġres": 487,
      "our": 488,
      "cl": 489,
      "ass": 490,
      "Ġwere": 491,
      "Ġ\\": 492,
      "ust": 493,
      "ard": 494,
      "ous": 495,
      "Ġnum": 496,
      "ance": 497,
      "ak": 498,
      "Ġcont": 499,
      "ction": 500,
      "cc": 501,
      "ell": 502,
      "ff": 503,
      "Ġad": 504,
      "ĠĠĠĠĠĠĠĠĠĠĠ": 505,
      "ild": 506,
      "ble": 507,
      "nt": 508,
      "elf": 509,
      "ong": 510,
      "ach": 511,
      "ĠTh": 512,
      "Ġall": 513,
      "ast": 514,
      "ĠU": 515,
      "Ġun": 516,
      "ime": 517,
      "int": 518,
      "ary": 519,
      "ents": 520,
      "so": 521,
      "du": 522,
      "ĠO": 523,
      "ence": 524,
      "Ġimp": 525,
      "ĠIn": 526,
      "ip": 527,
      "vel": 528,
      "av": 529,
      "Ġar": 530,
      "Ġcl": 531,
      "ile": 532,
      "ang": 533,
      "ap": 534,
      "orm": 535,
      "Ġ4": 536,
      "Ġmore": 537,
      "Ġother": 538,
      "Ġdis": 539,
      "Ġalso": 540,
      "urn": 541,
      "fe": 542,
      "one": 543,
      "ie": 544,
      "ĠJ": 545,
      "ress": 546,
      "ear": 547,
      "âĢĿ": 548,
      "Ġhas": 549,
      "able": 550,
      "Ġme": 551,
      "Ġ#": 552,
      "ual": 553,
      "ater": 554,
      "ks": 555,
      "ign": 556,
      "ĠSt": 557,
      "Ġ0": 558,
      "ru": 559,
      "rit": 560,
      "Ġper": 561,
      "ry": 562,
      "\"\"\"": 563,
      "Ġbut": 564,
      "Ġman": 565,
      "'s": 566,
      "Ġthem": 567,
      "ition": 568,
      "ood": 569,
      "ia": 570,
      "Ġits": 571,
      "ric": 572,
      "Ġone": 573,
      "Ġif": 574,
      "ory": 575,
      "Ġev": 576,
      "Ġte": 577,
      "Ġ\"\"\"": 578,
      "con": 579,
      "Ġ5": 580,
      "ces": 581,
      "ish": 582,
      "rent": 583,
      "ount": 584,
      "ound": 585,
      "ace": 586,
      "ire": 587,
      "ĠâĢľ": 588,
      "Ġx": 589,
      "Ġro": 590,
      "Ġj": 591,
      "Ġdo": 592,
      "Ġhis": 593,
      "ors": 594,
      "ake": 595,
      "ord": 596,
      "Ġpe": 597,
      "Ġout": 598,
      "ath": 599,
      "ase": 600,
      "Ġspe": 601,
      "ack": 602,
      "Ġcomm": 603,
      "):": 604,
      "ates": 605,
      "Ġwho": 606,
      "ĠThis": 607,
      "ens": 608,
      "Ġsp": 609,
      "Ġwill": 610,
      "Ġdif": 611,
      "Ġbec": 612,
      "Ġstud": 613,
      "Ġequ": 614,
      "nder": 615,
      "Ġqu": 616,
      "rac": 617,
      "now": 618,
      "Ġform": 619,
      "ree": 620,
      "ub": 621,
      "Ġ19": 622,
      "are": 623,
      "ian": 624,
      "erm": 625,
      "Ġinto": 626,
      "Ġtime": 627,
      "Ġ\"": 628,
      "aus": 629,
      "reat": 630,
      "Ġso": 631,
      "Ġpr": 632,
      "Ġind": 633,
      "ice": 634,
      "Ġtw": 635,
      "ose": 636,
      "Ġcomp": 637,
      "Ġsy": 638,
      "Ġpart": 639,
      "Ġnumber": 640,
      "Ġli": 641,
      "we": 642,
      "Ġabout": 643,
      "ople": 644,
      "Ġbet": 645,
      "very": 646,
      "Ġhad": 647,
      "Ġthese": 648,
      "ef": 649,
      "Ġapp": 650,
      "Ġfe": 651,
      "ĠIt": 652,
      "irst": 653,
      "cul": 654,
      "Ġinf": 655,
      "ci": 656,
      "ata": 657,
      "Ġtra": 658,
      "Ġup": 659,
      "Ġchild": 660,
      "Ġra": 661,
      ").": 662,
      "ok": 663,
      "ph": 664,
      "ities": 665,
      "ific": 666,
      "Ġcol": 667,
      "Ġthan": 668,
      "ution": 669,
      "Ġem": 670,
      "Ġyour": 671,
      "Ġval": 672,
      "ex": 673,
      "Ġtr": 674,
      "ĠV": 675,
      "ings": 676,
      "low": 677,
      "ject": 678,
      "ely": 679,
      "les": 680,
      "rough": 681,
      "Ġwhen": 682,
      "ict": 683,
      "ays": 684,
      "Ġpeople": 685,
      "Ġsuch": 686,
      "ĠK": 687,
      "Ġgo": 688,
      "Ġtwo": 689,
      "Ġthere": 690,
      "Ġunder": 691,
      "Ġrel": 692,
      "Ġover": 693,
      "Ġ6": 694,
      "Ġyear": 695,
      "Ġpre": 696,
      "Ġdiffe": 697,
      "Ġstr": 698,
      "Ġhow": 699,
      "Ġpo": 700,
      "Ġwork": 701,
      "ĠCh": 702,
      "Ġ|": 703,
      "ove": 704,
      "ative": 705,
      "ite": 706,
      "Ġ*": 707,
      "clud": 708,
      "Ġag": 709,
      "Ġknow": 710,
      "),": 711,
      "ail": 712,
      "Ġsome": 713,
      "Ġact": 714,
      "arn": 715,
      "Ġwould": 716,
      "Ġneed": 717,
      "Ġcons": 718,
      "ough": 719,
      "cre": 720,
      "ari": 721,
      "Ġsol": 722,
      "rib": 723,
      "Ġhel": 724,
      "Ġimport": 725,
      "Ġself": 726,
      "Ġbeen": 727,
      "Ġpos": 728,
      "Ġfirst": 729,
      "uring": 730,
      "Ġuse": 731,
      "Ġdef": 732,
      "erv": 733,
      "ween": 734,
      "Ġret": 735,
      "Ġhelp": 736,
      "cess": 737,
      "Ġacc": 738,
      "Ġob": 739,
      "row": 740,
      "Ġmay": 741,
      "ds": 742,
      "ally": 743,
      "oth": 744,
      "Ġnew": 745,
      "ating": 746,
      "alcul": 747,
      "vers": 748,
      "ments": 749,
      "ons": 750,
      "ange": 751,
      "ility": 752,
      "Ġprov": 753,
      "Ġco": 754,
      "Ġbetween": 755,
      "Ġinclud": 756,
      "Ġfind": 757,
      "__": 758,
      "mer": 759,
      "ract": 760,
      "lo": 761,
      "lect": 762,
      "ause": 763,
      "Ġwhere": 764,
      "str": 765,
      "Ġmany": 766,
      "Ġmost": 767,
      "iven": 768,
      "aw": 769,
      "Ġexp": 770,
      "Ġinter": 771,
      "Ġmod": 772,
      "ample": 773,
      "Ġspec": 774,
      "Ġrec": 775,
      "velop": 776,
      "round": 777,
      "ever": 778,
      "Ġused": 779,
      "als": 780,
      "In": 781,
      "te": 782,
      "eg": 783,
      "blem": 784,
      "Ġrep": 785,
      "Ġdes": 786,
      "ram": 787,
      "ys": 788,
      "Ġthrough": 789,
      "Ġ20": 790,
      "}{": 791,
      "Ġget": 792,
      "Ġ/": 793,
      "ize": 794,
      "Ġpol": 795,
      "stem": 796,
      "olog": 797,
      "Ġeach": 798,
      "hed": 799,
      "ft": 800,
      "ne": 801,
      "fter": 802,
      "Ġ'": 803,
      "frac": 804,
      "ower": 805,
      "ĠAr": 806,
      "Ġ10": 807,
      "Ġgen": 808,
      "ues": 809,
      "arg": 810,
      "Ġonly": 811,
      "Ġrem": 812,
      "eth": 813,
      "ced": 814,
      "Ġam": 815,
      "its": 816,
      "Ġreg": 817,
      "Ġsub": 818,
      "Ġdevelop": 819,
      "Ġset": 820,
      "ten": 821,
      "Ġ**": 822,
      "ied": 823,
      "ise": 824,
      "uc": 825,
      "ures": 826,
      "Ġcent": 827,
      "put": 828,
      "Ġlearn": 829,
      "ov": 830,
      "bers": 831,
      "Ġreturn": 832,
      "Ġdifferent": 833,
      "Ġinv": 834,
      "Ġeff": 835,
      "Ġany": 836,
      "Ġwhat": 837,
      "ular": 838,
      "ĠčĊ": 839,
      "ible": 840,
      "Ġ7": 841,
      "Ġno": 842,
      "Ġfun": 843,
      "Ġdist": 844,
      "cept": 845,
      "ib": 846,
      "Ġlike": 847,
      "Ġsoc": 848,
      "ational": 849,
      "ax": 850,
      "ics": 851,
      "Ġ8": 852,
      "Ġprodu": 853,
      "Ġbl": 854,
      "hen": 855,
      "ool": 856,
      "eng": 857,
      "ism": 858,
      "dition": 859,
      "Ġass": 860,
      "fore": 861,
      "ng": 862,
      "Ġ18": 863,
      "Ġvari": 864,
      "hes": 865,
      "Ġour": 866,
      "ĠY": 867,
      "ĠUn": 868,
      "ark": 869,
      "Ġsim": 870,
      "Ġatt": 871,
      "ert": 872,
      "pect": 873,
      "hat": 874,
      "ars": 875,
      "ll": 876,
      "Ġph": 877,
      "ern": 878,
      "Ġcould": 879,
      "Ġsign": 880,
      "meric": 881,
      "Ġsc": 882,
      "Ġyears": 883,
      "lic": 884,
      "Ġsystem": 885,
      "000": 886,
      "Ġproblem": 887,
      "self": 888,
      "Ġsur": 889,
      "ere": 890,
      "ade": 891,
      "Ġthen": 892,
      "form": 893,
      "Ġsupp": 894,
      "Ġ9": 895,
      "ife": 896,
      "Ġfact": 897,
      "alth": 898,
      "ew": 899,
      "ful": 900,
      "ased": 901,
      "Ġoff": 902,
      "Ġfol": 903,
      "Ġlo": 904,
      "ural": 905,
      "ident": 906,
      "()": 907,
      "###": 908,
      "gs": 909,
      "stand": 910,
      "Ġac": 911,
      "Ġâ": 912,
      "ists": 913,
      "ĠHow": 914,
      "Ġchildren": 915,
      "Ġstudents": 916,
      "Ġcor": 917,
      "ĠAmeric": 918,
      "Ġsm": 919,
      "Ġty": 920,
      "Ġbo": 921,
      "resent": 922,
      "iss": 923,
      "Ġcre": 924,
      "Ġdata": 925,
      "wn": 926,
      "Ġfound": 927,
      "own": 928,
      "Ġdec": 929,
      "Ġgiven": 930,
      "Ġboth": 931,
      "Ġpers": 932,
      "ĠThey": 933,
      "**:": 934,
      "iet": 935,
      "ps": 936,
      "Ġusing": 937,
      "Ġcur": 938,
      "Ġcount": 939,
      "ince": 940,
      "ited": 941,
      "ting": 942,
      "ĠAs": 943,
      "ivid": 944,
      "Ġtrans": 945,
      "ink": 946,
      "ives": 947,
      "imes": 948,
      "Ġwell": 949,
      "Ġgra": 950,
      "Ġ{": 951,
      "ĠCon": 952,
      "ines": 953,
      "Ġ->": 954,
      "Ġbu": 955,
      "ious": 956,
      "Ġmat": 957,
      "Ġmake": 958,
      "ĠĠĠĠĠĠĠĠ": 959,
      "Ġear": 960,
      "gan": 961,
      "land": 962,
      "ily": 963,
      "Ġke": 964,
      "Ġed": 965,
      "Ġwater": 966,
      "vern": 967,
      "Ġher": 968,
      "uch": 969,
      "Ġfollow": 970,
      "der": 971,
      "tern": 972,
      "Ġpar": 973,
      "ick": 974,
      "Ġmain": 975,
      "Ġduring": 976,
      "aking": 977,
      "Ġafter": 978,
      "get": 979,
      "Ġcalcul": 980,
      "xt": 981,
      "Ġfl": 982,
      "Ġbecause": 983,
      "Ġlong": 984,
      "ants": 985,
      "hip": 986,
      "arch": 987,
      "ck": 988,
      "iel": 989,
      "Ġdet": 990,
      "Ġinst": 991,
      "gy": 992,
      "other": 993,
      "Ġhum": 994,
      "ĠâĢĵ": 995,
      "Ġeven": 996,
      "ĠIf": 997,
      "Ġimportant": 998,
      "Ġsame": 999,
      "ty": 1000,
      "Ġlead": 1001,
      "Ġbel": 1002,
      "ins": 1003,
      "ĠHe": 1004,
      "Ġworld": 1005,
      "Ġway": 1006,
      "chool": 1007,
      "Ġgener": 1008,
      "Ġexper": 1009,
      "Ġhist": 1010,
      "ĠInd": 1011,
      "Ġappro": 1012,
      "Ġsk": 1013,
      "app": 1014,
      "inal": 1015,
      "Ġclass": 1016,
      "ized": 1017,
      "Ġrequ": 1018,
      "ential": 1019,
      "val": 1020,
      "Ġvalue": 1021,
      "ature": 1022,
      "Th": 1023,
      "Ġcommun": 1024,
      "Ġlist": 1025,
      "10": 1026,
      "ĠFor": 1027,
      "Ġoften": 1028,
      "ĠPro": 1029,
      "To": 1030,
      "Ġpower": 1031,
      "Ġshould": 1032,
      "Ġfunction": 1033,
      "Ġpa": 1034,
      "ruct": 1035,
      "ĠEx": 1036,
      "sw": 1037,
      "enc": 1038,
      "Ġdisc": 1039,
      "Ġart": 1040,
      "Ġext": 1041,
      "ward": 1042,
      "Ġsa": 1043,
      "Ġend": 1044,
      "ec": 1045,
      "Ġmin": 1046,
      "cial": 1047,
      "Ġhigh": 1048,
      "ient": 1049,
      "ides": 1050,
      "old": 1051,
      "ify": 1052,
      "ved": 1053,
      "Ġincre": 1054,
      "ically": 1055,
      "ob": 1056,
      "tle": 1057,
      "els": 1058,
      "Ġcomple": 1059,
      "Ġconst": 1060,
      "Ġwrit": 1061,
      "}$": 1062,
      "Ġcall": 1063,
      "Ġgrou": 1064,
      "))": 1065,
      "Ġjust": 1066,
      "Ġdep": 1067,
      "Ġ[": 1068,
      "Ġequation": 1069,
      "Ġexample": 1070,
      "Ġfam": 1071,
      "Ġ12": 1072,
      "ually": 1073,
      "Ġlife": 1074,
      "Ġexpl": 1075,
      "Ġmade": 1076,
      "Ġunderstand": 1077,
      "Ġprocess": 1078,
      "Ġref": 1079,
      "Ġstate": 1080,
      "cient": 1081,
      "Ġbeing": 1082,
      "read": 1083,
      "Ġsmall": 1084,
      "led": 1085,
      "Ġwhile": 1086,
      "port": 1087,
      "Ġpop": 1088,
      "oy": 1089,
      "Ġdi": 1090,
      "Ġplay": 1091,
      "Ġpartic": 1092,
      "ves": 1093,
      "Ġterm": 1094,
      "Ġresult": 1095,
      "ros": 1096,
      "Ġgovern": 1097,
      "ined": 1098,
      "ages": 1099,
      "pon": 1100,
      "ather": 1101,
      "Ġhealth": 1102,
      "Ġown": 1103,
      "ional": 1104,
      "Ġadd": 1105,
      "Ġconf": 1106,
      "iron": 1107,
      "Ġnumbers": 1108,
      "arm": 1109,
      "Ġperson": 1110,
      "ices": 1111,
      "ale": 1112,
      "Ġent": 1113,
      "Ġcontin": 1114,
      "li": 1115,
      "ases": 1116,
      "ĠStep": 1117,
      "ock": 1118,
      "Ġdire": 1119,
      "Ġmon": 1120,
      "Ġread": 1121,
      "Ġeffect": 1122,
      "Ġevery": 1123,
      "Ġshe": 1124,
      "--": 1125,
      "Ġsee": 1126,
      "ury": 1127,
      "de": 1128,
      "ability": 1129,
      "Ġcar": 1130,
      ".âĢĿ": 1131,
      "ted": 1132,
      "any": 1133,
      "name": 1134,
      "ror": 1135,
      "Ġpoint": 1136,
      "Ġagain": 1137,
      "Ġposs": 1138,
      "Ġ$\\": 1139,
      "ral": 1140,
      "Ġthose": 1141,
      "Ġland": 1142,
      "omen": 1143,
      "Ġprint": 1144,
      "ode": 1145,
      "ray": 1146,
      "up": 1147,
      "Ġtest": 1148,
      "Ġknown": 1149,
      "arge": 1150,
      "20": 1151,
      "ights": 1152,
      "Ġloc": 1153,
      "Ġline": 1154,
      "Ġcult": 1155,
      "vent": 1156,
      "ĠRet": 1157,
      "ĠCom": 1158,
      "Ġaut": 1159,
      "Ġinc": 1160,
      "\")": 1161,
      "ute": 1162,
      "Ġless": 1163,
      "Ġobject": 1164,
      "Ġdoes": 1165,
      "Ġsum": 1166,
      "the": 1167,
      "ethod": 1168,
      "ĠNone": 1169,
      "..": 1170,
      "Ġaround": 1171,
      "rect": 1172,
      "itive": 1173,
      "itions": 1174,
      "Ġvery": 1175,
      "swer": 1176,
      "ix": 1177,
      "ality": 1178,
      "Ġschool": 1179,
      "Ġshow": 1180,
      "Ġsocial": 1181,
      "Ġmuch": 1182,
      "chn": 1183,
      "ning": 1184,
      "oun": 1185,
      "Ġocc": 1186,
      "Ġback": 1187,
      "iod": 1188,
      "ator": 1189,
      "Ġest": 1190,
      "Ġgrow": 1191,
      "Ġele": 1192,
      "Ġins": 1193,
      "cent": 1194,
      "ĠThese": 1195,
      "tal": 1196,
      "Ġeduc": 1197,
      "ĠAn": 1198,
      "Ġsupport": 1199,
      "Ġrese": 1200,
      "ork": 1201,
      "ength": 1202,
      "ĠWe": 1203,
      "ets": 1204,
      "ublic": 1205,
      "urns": 1206,
      "Ġstart": 1207,
      "viron": 1208,
      "ider": 1209,
      "ividual": 1210,
      "Ġarea": 1211,
      "This": 1212,
      "cond": 1213,
      "gg": 1214,
      "akes": 1215,
      "Ġinform": 1216,
      "ness": 1217,
      "ĠHowever": 1218,
      "Ġcommon": 1219,
      "Ġdid": 1220,
      "iew": 1221,
      "Ġ15": 1222,
      "def": 1223,
      "Ġincluding": 1224,
      "Ġthree": 1225,
      "und": 1226,
      "ĠAl": 1227,
      "ection": 1228,
      "ext": 1229,
      "ron": 1230,
      "Ġmult": 1231,
      "Ġbeh": 1232,
      "ield": 1233,
      "Ġpat": 1234,
      "^{": 1235,
      "Ġquest": 1236,
      "Ġallow": 1237,
      "Ġfood": 1238,
      "hem": 1239,
      "oss": 1240,
      "olution": 1241,
      "Ġlearning": 1242,
      "ross": 1243,
      "ĠRe": 1244,
      "Ġright": 1245,
      "Ġsignific": 1246,
      "Ġactiv": 1247,
      "Ġsl": 1248,
      "conom": 1249,
      "ĠArgs": 1250,
      "ology": 1251,
      "19": 1252,
      "Ġindividual": 1253,
      "Ġplan": 1254,
      "12": 1255,
      "irc": 1256,
      "iqu": 1257,
      "io": 1258,
      "ĠQ": 1259,
      "ately": 1260,
      "Ġbefore": 1261,
      "rence": 1262,
      "par": 1263,
      "Ġmed": 1264,
      "day": 1265,
      "ody": 1266,
      "Ġinteg": 1267,
      "',": 1268,
      "Ġap": 1269,
      "ression": 1270,
      "lu": 1271,
      "Ġmem": 1272,
      "Ġdown": 1273,
      "ĠâĪ": 1274,
      "Ġel": 1275,
      "com": 1276,
      "ula": 1277,
      "Ġpass": 1278,
      "Ġhand": 1279,
      "Ġtyp": 1280,
      "Ġser": 1281,
      "to": 1282,
      "Ġ`": 1283,
      "ision": 1284,
      "Ġlaw": 1285,
      "Ġprog": 1286,
      "ished": 1287,
      "Ġopp": 1288,
      "ĠĠĠĠĠĠĠĠĠĠĠĠĠĠĠ": 1289,
      "uss": 1290,
      "Ġtake": 1291,
      "Ġbr": 1292,
      "Ġprot": 1293,
      "Ġremain": 1294,
      "Ġide": 1295,
      "Ġserv": 1296,
      "Ġmove": 1297,
      "ills": 1298,
      "Ġtechn": 1299,
      "Ġsym": 1300,
      "Ġhuman": 1301,
      "angu": 1302,
      "ples": 1303,
      "erest": 1304,
      "Ġmet": 1305,
      "ults": 1306,
      "iving": 1307,
      "Ġlit": 1308,
      "Ġmean": 1309,
      "here": 1310,
      "ared": 1311,
      "Ġenviron": 1312,
      "Ġmust": 1313,
      "ulation": 1314,
      "ians": 1315,
      "aj": 1316,
      "apt": 1317,
      "uro": 1318,
      "Ġdem": 1319,
      "ivers": 1320,
      "Ġgood": 1321,
      "ints": 1322,
      "Ġmil": 1323,
      "Ġz": 1324,
      "Ġexperi": 1325,
      "ĠReturns": 1326,
      "Ġperiod": 1327,
      "Ġlevel": 1328,
      "Ġname": 1329,
      "Ġhim": 1330,
      "Ġpract": 1331,
      "omet": 1332,
      "ĠThere": 1333,
      "ired": 1334,
      "Ġchar": 1335,
      "Ġmethod": 1336,
      "itial": 1337,
      "Ġ16": 1338,
      "Ġday": 1339,
      "Ġgovernment": 1340,
      "atic": 1341,
      "hers": 1342,
      "Ġwar": 1343,
      "lish": 1344,
      "Ġident": 1345,
      "Ġer": 1346,
      "ination": 1347,
      "Ġchange": 1348,
      "Ġcalled": 1349,
      "Ġbuild": 1350,
      "ven": 1351,
      "Ġhistory": 1352,
      "ergy": 1353,
      "Ġtem": 1354,
      "Ġinvol": 1355,
      "Ġstill": 1356,
      "ĠWh": 1357,
      "Ġdirect": 1358,
      "Ġsqu": 1359,
      "âĢĶ": 1360,
      "Ġadv": 1361,
      "How": 1362,
      "ense": 1363,
      "ization": 1364,
      "Ġbelie": 1365,
      "Ġmeas": 1366,
      "acter": 1367,
      "ived": 1368,
      "Ġve": 1369,
      "tt": 1370,
      "vert": 1371,
      "ided": 1372,
      "Ġeconom": 1373,
      "Ġop": 1374,
      "ĠBrit": 1375,
      "ull": 1376,
      "ency": 1377,
      "ĠEng": 1378,
      "Ġchang": 1379,
      "Ġinformation": 1380,
      "Ġgre": 1381,
      "Ġearly": 1382,
      "ĠAmerican": 1383,
      "outh": 1384,
      "Ġstand": 1385,
      "Ġgreat": 1386,
      "Ġrepresent": 1387,
      "Ġpres": 1388,
      ",âĢĿ": 1389,
      "Ġaff": 1390,
      "Ġwomen": 1391,
      "\",": 1392,
      "$.": 1393,
      "Ġtotal": 1394,
      "Ġav": 1395,
      "Ġorig": 1396,
      "Ġlarge": 1397,
      "Ġsignificant": 1398,
      "air": 1399,
      "ccess": 1400,
      "ĠAd": 1401,
      "ior": 1402,
      "_{": 1403,
      "(\"": 1404,
      "Ġcontro": 1405,
      "Ġpolit": 1406,
      "Ġelect": 1407,
      "Ġleg": 1408,
      "ank": 1409,
      "Ġfre": 1410,
      "Ġvalues": 1411,
      "Ġcurrent": 1412,
      "Ġcorrect": 1413,
      ")^": 1414,
      "Ġmus": 1415,
      "Ġtri": 1416,
      "Ġthough": 1417,
      "Ġ17": 1418,
      "Ġorder": 1419,
      "Ġlook": 1420,
      "Ġsecond": 1421,
      "rain": 1422,
      "ĠNew": 1423,
      "Ġeng": 1424,
      "Ġplace": 1425,
      "ash": 1426,
      "Ġlangu": 1427,
      "We": 1428,
      "Ġstep": 1429,
      "Ġinterest": 1430,
      "Ġcle": 1431,
      "ĠSe": 1432,
      "ences": 1433,
      "Ġmeans": 1434,
      "data": 1435,
      "ier": 1436,
      "Ġstudy": 1437,
      "Ġdevelopment": 1438,
      "rodu": 1439,
      "Ġbre": 1440,
      "Ġorgan": 1441,
      "Ġang": 1442,
      "ots": 1443,
      "heck": 1444,
      "Ġlog": 1445,
      "ental": 1446,
      "ats": 1447,
      "rt": 1448,
      "Ġanother": 1449,
      "Ġwithout": 1450,
      "ape": 1451,
      "Ġnow": 1452,
      "ified": 1453,
      "Ġenvironment": 1454,
      "``": 1455,
      "ĠIs": 1456,
      "ĠÃ": 1457,
      "Ġproduct": 1458,
      "ertain": 1459,
      "path": 1460,
      "ug": 1461,
      "pr": 1462,
      "15": 1463,
      "stit": 1464,
      "Ġwithin": 1465,
      "Ġagainst": 1466,
      "Ġpossible": 1467,
      "Ġmodel": 1468,
      "An": 1469,
      "orth": 1470,
      "Ġmy": 1471,
      "urs": 1472,
      "ital": 1473,
      "osed": 1474,
      "There": 1475,
      "Ġcentury": 1476,
      "Ġanswer": 1477,
      "Ġaw": 1478,
      "Ġprob": 1479,
      "Ġproper": 1480,
      "Ġformula": 1481,
      "from": 1482,
      "orn": 1483,
      "ton": 1484,
      "ration": 1485,
      "ids": 1486,
      "ries": 1487,
      "ogn": 1488,
      "iety": 1489,
      "Ġmight": 1490,
      "ah": 1491,
      "Ġfile": 1492,
      "Ġanim": 1493,
      "Ġgroup": 1494,
      "Ġspecies": 1495,
      "Ġlim": 1496,
      "ered": 1497,
      "Ġthink": 1498,
      "ames": 1499,
      "urope": 1500,
      "Ġfollowing": 1501,
      "ribut": 1502,
      "Ġdiv": 1503,
      "Ġdesc": 1504,
      "Ġcontain": 1505,
      "co": 1506,
      "ĠWhat": 1507,
      "Ġbody": 1508,
      "18": 1509,
      "Ġgu": 1510,
      "Ġbir": 1511,
      "Ġtry": 1512,
      "iver": 1513,
      "Ġsaid": 1514,
      "Ġprof": 1515,
      "Ġdesign": 1516,
      "bo": 1517,
      "imate": 1518,
      "ouse": 1519,
      "ote": 1520,
      "ĠâĢĺ": 1521,
      "Ġcreate": 1522,
      "Ġlength": 1523,
      "Ġreal": 1524,
      "ption": 1525,
      "Ġcap": 1526,
      "min": 1527,
      "ources": 1528,
      "oms": 1529,
      "Ġlarg": 1530,
      "ner": 1531,
      "ving": 1532,
      "anc": 1533,
      "ĠEurope": 1534,
      "Ġequal": 1535,
      "Ġredu": 1536,
      "ĠBut": 1537,
      "Ġimpact": 1538,
      "Ġconn": 1539,
      "25": 1540,
      "Ġcour": 1541,
      "Ġoper": 1542,
      "Ġvol": 1543,
      "Ġenergy": 1544,
      "Ġinflu": 1545,
      "ĠUnited": 1546,
      "ĠTo": 1547,
      "Ġrole": 1548,
      "Ġsever": 1549,
      "Ġinput": 1550,
      "Ġdeterm": 1551,
      "Ġprovide": 1552,
      "ories": 1553,
      "Ġbecame": 1554,
      "qrt": 1555,
      "orts": 1556,
      "ĠCalcul": 1557,
      "Ġsuccess": 1558,
      "Ġeas": 1559,
      "Ġbecome": 1560,
      "Ġkey": 1561,
      "aving": 1562,
      "raph": 1563,
      "yn": 1564,
      "ond": 1565,
      "ajor": 1566,
      "tain": 1567,
      "ason": 1568,
      "Ġrange": 1569,
      "ĠAf": 1570,
      "Ġ100": 1571,
      "Ġappe": 1572,
      "ining": 1573,
      "Ġcare": 1574,
      "au": 1575,
      "oman": 1576,
      "What": 1577,
      "Ġtimes": 1578,
      "Ġmark": 1579,
      "Ġbehav": 1580,
      "Ġvarious": 1581,
      "ĠSp": 1582,
      "Ġphys": 1583,
      "ĠDe": 1584,
      "16": 1585,
      "Ġlast": 1586,
      "Ġsit": 1587,
      "aterial": 1588,
      "Ġconsider": 1589,
      "Ġbased": 1590,
      "Ġnat": 1591,
      "ected": 1592,
      "Ġpot": 1593,
      "Ġfin": 1594,
      "Ġtreat": 1595,
      "Ġlab": 1596,
      "Ġens": 1597,
      "Ġinclude": 1598,
      "Ġfew": 1599,
      "hor": 1600,
      "Ġothers": 1601,
      "ilar": 1602,
      "az": 1603,
      "Ġdiff": 1604,
      "11": 1605,
      "Ġdue": 1606,
      "ule": 1607,
      "Ġmass": 1608,
      "ditions": 1609,
      "Ġrest": 1610,
      "50": 1611,
      "Ġparticular": 1612,
      "Ġvis": 1613,
      "di": 1614,
      "Ġ<": 1615,
      "ĠStates": 1616,
      "Ġpublic": 1617,
      "eral": 1618,
      "Ġseveral": 1619,
      "Ġimm": 1620,
      "Ġfore": 1621,
      "Ġskills": 1622,
      "Ġleft": 1623,
      "angle": 1624,
      "right": 1625,
      "sc": 1626,
      "Ġsince": 1627,
      "It": 1628,
      "Ġlanguage": 1629,
      "Ġ==": 1630,
      "Ġrelations": 1631,
      "Ġimpro": 1632,
      "ication": 1633,
      "Ġwant": 1634,
      "Ġiss": 1635,
      "Ġcaus": 1636,
      "Ġareas": 1637,
      "ĠÎ": 1638,
      "ĠWar": 1639,
      "Ġeducation": 1640,
      "Ġmill": 1641,
      "$,": 1642,
      "ead": 1643,
      "urther": 1644,
      "Ġcase": 1645,
      "Ġcirc": 1646,
      "ĠWhen": 1647,
      "agn": 1648,
      "ĠAfric": 1649,
      "Ġcalculate": 1650,
      "ĠGerm": 1651,
      "Ġris": 1652,
      "idence": 1653,
      "br": 1654,
      "Ġfamily": 1655,
      "Ġ200": 1656,
      "ording": 1657,
      "Ġmaking": 1658,
      "Ġable": 1659,
      "Ġmaterial": 1660,
      "raw": 1661,
      "Ġunt": 1662,
      "ask": 1663,
      "Ġspecific": 1664,
      "epend": 1665,
      "Ġchall": 1666,
      "ances": 1667,
      "Ġ14": 1668,
      "ering": 1669,
      "ĠSh": 1670,
      "Ġmajor": 1671,
      "Ġes": 1672,
      "Ġaddition": 1673,
      "Ġhy": 1674,
      "ique": 1675,
      "Ġenc": 1676,
      "Ġmulti": 1677,
      "Ġfour": 1678,
      "Ġtop": 1679,
      "Ġfeel": 1680,
      "Ġcountry": 1681,
      "less": 1682,
      "Ġcomb": 1683,
      "gin": 1684,
      "Ġtre": 1685,
      "rix": 1686,
      "Ġpresent": 1687,
      "Ġ&": 1688,
      "\":": 1689,
      "Ġcell": 1690,
      "ards": 1691,
      "rop": 1692,
      "Ġstruct": 1693,
      "not": 1694,
      "Ġside": 1695,
      "ention": 1696,
      "ource": 1697,
      "Ġcho": 1698,
      "Ġmen": 1699,
      "Ġsolve": 1700,
      "ery": 1701,
      "ateg": 1702,
      "Ġpred": 1703,
      "Ġforce": 1704,
      "ators": 1705,
      "Ġcost": 1706,
      "Ġrespon": 1707,
      "ways": 1708,
      "Ġlik": 1709,
      "Ġhapp": 1710,
      "Ġresearch": 1711,
      "Ġpolitical": 1712,
      "aces": 1713,
      "âĢľ": 1714,
      "Ġamong": 1715,
      "alk": 1716,
      "Ġopen": 1717,
      "Ġprogram": 1718,
      "ume": 1719,
      "cos": 1720,
      "Ġbetter": 1721,
      "Ġdev": 1722,
      "Ġestab": 1723,
      "Ġcreat": 1724,
      "Ġnon": 1725,
      "ĠAt": 1726,
      "14": 1727,
      "Ġess": 1728,
      "Ġtype": 1729,
      "ocus": 1730,
      "man": 1731,
      "Ġlater": 1732,
      "Ġways": 1733,
      "ĠBy": 1734,
      "Ġlight": 1735,
      "ivil": 1736,
      "oh": 1737,
      "ĠX": 1738,
      "oci": 1739,
      "oint": 1740,
      "Ġdr": 1741,
      "ĠCre": 1742,
      "lished": 1743,
      "Ġage": 1744,
      "rist": 1745,
      "Ġ13": 1746,
      "face": 1747,
      "Ġi": 1748,
      "Ġproblems": 1749,
      "Ġmov": 1750,
      "ta": 1751,
      "Ġpopulation": 1752,
      "Ġteac": 1753,
      "Ġterms": 1754,
      "amp": 1755,
      "Ġold": 1756,
      "Ġdig": 1757,
      "Ġcharacter": 1758,
      "ole": 1759,
      "17": 1760,
      "aves": 1761,
      "Ġcomplex": 1762,
      "Ġben": 1763,
      "ĠBritish": 1764,
      "Ġcertain": 1765,
      "')": 1766,
      "ĠAnd": 1767,
      "Ġlet": 1768,
      "Ġhead": 1769,
      "Ġsize": 1770,
      "Ġprom": 1771,
      "Ġuntil": 1772,
      "ends": 1773,
      "ently": 1774,
      "Ġneg": 1775,
      "Ġunderstanding": 1776,
      "Ġ__": 1777,
      "Ġobs": 1778,
      "Ġdise": 1779,
      "ised": 1780,
      "âĪ": 1781,
      "ilities": 1782,
      "St": 1783,
      "Ġpur": 1784,
      "icult": 1785,
      "pro": 1786,
      "ortun": 1787,
      "For": 1788,
      "sel": 1789,
      "idd": 1790,
      "ĠÃĹ": 1791,
      "be": 1792,
      "file": 1793,
      "ĠPl": 1794,
      "imum": 1795,
      "],": 1796,
      "Ġhome": 1797,
      "Ġtext": 1798,
      "line": 1799,
      "arc": 1800,
      "Ġwords": 1801,
      "ured": 1802,
      "Ġevent": 1803,
      "though": 1804,
      "Ġmax": 1805,
      "Ġcontrol": 1806,
      "Ġperform": 1807,
      "Ġbas": 1808,
      "Ġ30": 1809,
      "ively": 1810,
      "Ġnatural": 1811,
      "omin": 1812,
      "ĠTr": 1813,
      "istic": 1814,
      "Ġrev": 1815,
      "Ġpath": 1816,
      "etic": 1817,
      "ems": 1818,
      "rem": 1819,
      "Ġtoget": 1820,
      "Ġtogether": 1821,
      "ĠOn": 1822,
      "pos": 1823,
      "Ġsides": 1824,
      "ument": 1825,
      "lying": 1826,
      "Ġstat": 1827,
      "Ġfocus": 1828,
      "bol": 1829,
      "ĠEar": 1830,
      "Ġcr": 1831,
      "ological": 1832,
      "Ġpositive": 1833,
      "Ġmot": 1834,
      "ival": 1835,
      "Ġpoints": 1836,
      "ued": 1837,
      "Ġscient": 1838,
      "atch": 1839,
      "Ġsolution": 1840,
      "':": 1841,
      "Ġstates": 1842,
      "Ġarm": 1843,
      "Ġnear": 1844,
      "Ġbest": 1845,
      "ĠCan": 1846,
      "13": 1847,
      "ĠZ": 1848,
      "bs": 1849,
      "ctor": 1850,
      "Ġrelationship": 1851,
      "Ġgr": 1852,
      "Ġalong": 1853,
      "num": 1854,
      "Ġanal": 1855,
      "for": 1856,
      "Ġamount": 1857,
      "rror": 1858,
      "sqrt": 1859,
      "Ġhig": 1860,
      "amples": 1861,
      "Ġexcept": 1862,
      "Ġkeep": 1863,
      "Ġyoung": 1864,
      "ffic": 1865,
      "ission": 1866,
      "ended": 1867,
      "Ġdays": 1868,
      "Ġacross": 1869,
      "Ġspace": 1870,
      "Ġexist": 1871,
      "loat": 1872,
      "Ġ25": 1873,
      "iversity": 1874,
      "ploy": 1875,
      "uture": 1876,
      "Ġdistance": 1877,
      "play": 1878,
      "Ġdifficult": 1879,
      "As": 1880,
      "Ġopt": 1881,
      "ĠCalculate": 1882,
      "}\\": 1883,
      "Ġsquare": 1884,
      "itary": 1885,
      "ling": 1886,
      "Ġrelig": 1887,
      "Ġpotential": 1888,
      "ales": 1889,
      "Ġrate": 1890,
      "atures": 1891,
      "Ġair": 1892,
      "verage": 1893,
      "Ġmonth": 1894,
      "Ġresp": 1895,
      "Ġtoday": 1896,
      "mod": 1897,
      "ables": 1898,
      "ym": 1899,
      "bal": 1900,
      "ina": 1901,
      "Ġsimilar": 1902,
      "array": 1903,
      "over": 1904,
      "eter": 1905,
      "oura": 1906,
      "('": 1907,
      "aced": 1908,
      "icle": 1909,
      "Ġnext": 1910,
      "Ġimage": 1911,
      "ety": 1912,
      "clus": 1913,
      "Ġcrit": 1914,
      "ĠCol": 1915,
      "Ġhour": 1916,
      "iness": 1917,
      "Ġmar": 1918,
      "Ġconditions": 1919,
      "ending": 1920,
      "ĠYou": 1921,
      "ges": 1922,
      "Ġproject": 1923,
      "pecial": 1924,
      "selves": 1925,
      "Ġview": 1926,
      "ĠDef": 1927,
      "ĠFr": 1928,
      "Ġoccur": 1929,
      "iction": 1930,
      "ĠEm": 1931,
      "Error": 1932,
      "Ġquestion": 1933,
      "Ġprovided": 1934,
      "Ġrul": 1935,
      "Ġbro": 1936,
      "oid": 1937,
      "ĠPr": 1938,
      "orld": 1939,
      "ests": 1940,
      "ged": 1941,
      "Ġrun": 1942,
      "by": 1943,
      "ledge": 1944,
      "Ġrights": 1945,
      "Ġexpect": 1946,
      "asing": 1947,
      "Ġcity": 1948,
      "py": 1949,
      "Ġsing": 1950,
      "Ġrecogn": 1951,
      "ĠCl": 1952,
      "If": 1953,
      "Ġauthor": 1954,
      "Ġdel": 1955,
      "set": 1956,
      "Ġthings": 1957,
      "Ġuser": 1958,
      "Ġlikely": 1959,
      ".,": 1960,
      "utions": 1961,
      "Ġturn": 1962,
      "Ġcolon": 1963,
      "Ġrece": 1964,
      "Ġpain": 1965,
      "Ġgroups": 1966,
      "acy": 1967,
      "work": 1968,
      "ruction": 1969,
      "Ġarg": 1970,
      "ĠChrist": 1971,
      "Ġsociety": 1972,
      "Ġmodern": 1973,
      "Ġbegan": 1974,
      "Ġstrong": 1975,
      "Ġapproach": 1976,
      "ane": 1977,
      "Ġbenef": 1978,
      "60": 1979,
      "Ġnp": 1980,
      "Ġsw": 1981,
      "ann": 1982,
      "Ġcome": 1983,
      "oney": 1984,
      "yle": 1985,
      "aring": 1986,
      "Ġ11": 1987,
      "Ġtoo": 1988,
      "class": 1989,
      "Ġtemper": 1990,
      "Ġdeg": 1991,
      "aken": 1992,
      "Ġexpress": 1993,
      "por": 1994,
      "Ġpercent": 1995,
      "ilt": 1996,
      "Â°": 1997,
      "30": 1998,
      "sh": 1999,
      "ored": 2000,
      "chie": 2001,
      "Ġfuture": 2002,
      "Ġlow": 2003,
      "Wh": 2004,
      "imately": 2005,
      "Ġfield": 2006,
      "ĠBl": 2007,
      "Ġled": 2008,
      "ctions": 2009,
      "Ġcommunity": 2010,
      "Ġdon": 2011,
      "Ġteach": 2012,
      "Ġshort": 2013,
      "Ġessential": 2014,
      "ik": 2015,
      "rents": 2016,
      "Ġsent": 2017,
      "Ġaccess": 2018,
      "40": 2019,
      "ĠPh": 2020,
      "of": 2021,
      "Ġparts": 2022,
      "cience": 2023,
      "itud": 2024,
      "ither": 2025,
      "equ": 2026,
      "Ġflow": 2027,
      "ĠĠĠĠčĊ": 2028,
      "Ġlocal": 2029,
      "Ġchanges": 2030,
      "Ġbat": 2031,
      "ithm": 2032,
      "left": 2033,
      "{\\": 2034,
      "sin": 2035,
      "Ġfurther": 2036,
      "Ġsay": 2037,
      "ĠIm": 2038,
      "import": 2039,
      "log": 2040,
      "Ġalways": 2041,
      "Ġplant": 2042,
      "Ġword": 2043,
      "ÏĢ": 2044,
      "Ġfactors": 2045,
      "Ġindividuals": 2046,
      "Ġbus": 2047,
      "mon": 2048,
      "Ġnorm": 2049,
      "Ġdescrib": 2050,
      "Ġactivities": 2051,
      ")(": 2052,
      "ison": 2053,
      "Ġneeds": 2054,
      "Ġvir": 2055,
      "ium": 2056,
      "Ġsugg": 2057,
      "Ġarr": 2058,
      "Ġprim": 2059,
      "Ġchalleng": 2060,
      "omes": 2061,
      "ĠCreate": 2062,
      "Ġspeed": 2063,
      "Ġeconomic": 2064,
      "Ġnecess": 2065,
      "vious": 2066,
      "Ġrespect": 2067,
      "Ġindepend": 2068,
      "ĠâĢĶ": 2069,
      "Ġanimals": 2070,
      "aster": 2071,
      "sing": 2072,
      "Ġpric": 2073,
      "Ġpattern": 2074,
      "alf": 2075,
      "Ġput": 2076,
      "verse": 2077,
      "Ġrespons": 2078,
      "Ġter": 2079,
      "wards": 2080,
      "Â²": 2081,
      "Ġclear": 2082,
      "Ex": 2083,
      "oks": 2084,
      "Ġcause": 2085,
      "Ġindust": 2086,
      "âĢĵ": 2087,
      "Ġpress": 2088,
      "Ġant": 2089,
      "Ġbegin": 2090,
      "Ġconc": 2091,
      "Ġden": 2092,
      "ding": 2093,
      "ĠSo": 2094,
      "aut": 2095,
      "Ġinitial": 2096,
      "Ġhistor": 2097,
      "Ġexperience": 2098,
      "Ġgeneral": 2099,
      "ĠEnglish": 2100,
      "Ġachie": 2101,
      "Ġthemselves": 2102,
      "umn": 2103,
      "ging": 2104,
      "Ġassoci": 2105,
      "Ġtradition": 2106,
      "aps": 2107,
      "ĠRes": 2108,
      "pecially": 2109,
      "ones": 2110,
      "ĠSome": 2111,
      "Ġtypes": 2112,
      "Ġstudent": 2113,
      "Ġcreated": 2114,
      "Ġquestions": 2115,
      "list": 2116,
      "ele": 2117,
      "gen": 2118,
      "Ġfar": 2119,
      "Ġresults": 2120,
      "Ġpost": 2121,
      "ably": 2122,
      "Ġmusic": 2123,
      "Ġdeath": 2124,
      "Ġposition": 2125,
      "Ġemot": 2126,
      "Ġcountries": 2127,
      "istance": 2128,
      "ribution": 2129,
      "ils": 2130,
      "ograph": 2131,
      "Ġworks": 2132,
      "eration": 2133,
      "ires": 2134,
      "Ġsound": 2135,
      "Ġge": 2136,
      "Ġspecial": 2137,
      "Ġfrequ": 2138,
      "Ġleast": 2139,
      "Ġhowever": 2140,
      "ĠFind": 2141,
      "Ġfil": 2142,
      "Ġwhy": 2143,
      "ero": 2144,
      "Ġdat": 2145,
      "'t": 2146,
      "ĠVal": 2147,
      "Ġability": 2148,
      "ams": 2149,
      "Ġsurface": 2150,
      "So": 2151,
      "Ġground": 2152,
      "Ġ50": 2153,
      "Ġfactor": 2154,
      "ring": 2155,
      "ĠQu": 2156,
      "Ġsimpl": 2157,
      "Ġfig": 2158,
      "pire": 2159,
      "pre": 2160,
      "Ġintern": 2161,
      "Ġprobability": 2162,
      "ma": 2163,
      "ird": 2164,
      "Ġfinal": 2165,
      "ething": 2166,
      "Ġbi": 2167,
      "pts": 2168,
      "Ġdiscuss": 2169,
      "Ġseen": 2170,
      "Ġcy": 2171,
      "ĠAmerica": 2172,
      "sequ": 2173,
      "sy": 2174,
      "Ġopportun": 2175,
      "idered": 2176,
      "omething": 2177,
      "Ġknowledge": 2178,
      "Ġavail": 2179,
      "Ġpay": 2180,
      "Ġresponse": 2181,
      "])": 2182,
      "Ġancient": 2183,
      "Ġdifference": 2184,
      "(-": 2185,
      "Ġregion": 2186,
      "Ġask": 2187,
      "Ġpolic": 2188,
      "Ġobserv": 2189,
      "Ġsubject": 2190,
      "erc": 2191,
      "Ġstory": 2192,
      "osp": 2193,
      "Ġsequ": 2194,
      "side": 2195,
      "essage": 2196,
      "$$": 2197,
      "Ġsays": 2198,
      "However": 2199,
      "99": 2200,
      "iding": 2201,
      "Ġelse": 2202,
      "ĠEarth": 2203,
      "mit": 2204,
      "Ġrecord": 2205,
      "ands": 2206,
      "imal": 2207,
      "ĠIndia": 2208,
      "Ġprin": 2209,
      "Ġmilitary": 2210,
      "Ġphysical": 2211,
      "Ġaway": 2212,
      "Ġtravel": 2213,
      "Ġconsidered": 2214,
      "Ġoriginal": 2215,
      "inary": 2216,
      "Ġloss": 2217,
      "Ġculture": 2218,
      "Ġgive": 2219,
      "Ġespecially": 2220,
      "Ġfree": 2221,
      "Ġinvest": 2222,
      "Ġincrease": 2223,
      "Ġsitu": 2224,
      "overed": 2225,
      "Ġunique": 2226,
      "text": 2227,
      "raction": 2228,
      "Ġexpression": 2229,
      "Ġhere": 2230,
      "Ġgraph": 2231,
      "When": 2232,
      "ĠOne": 2233,
      "ĠLe": 2234,
      "ĠGen": 2235,
      "abit": 2236,
      "ae": 2237,
      "Ġmeasure": 2238,
      "ĠNorth": 2239,
      "Ġsymbol": 2240,
      "ohn": 2241,
      "Ġrisk": 2242,
      "Ġworking": 2243,
      "Ġusually": 2244,
      "Let": 2245,
      "ĠPar": 2246,
      "Ġsomething": 2247,
      "ĠOr": 2248,
      "ember": 2249,
      "ises": 2250,
      "Ġpast": 2251,
      "Ġblack": 2252,
      "Ġmillion": 2253,
      "Ġtook": 2254,
      "Ġsystems": 2255,
      "Ġprevent": 2256,
      "ĠWest": 2257,
      "Ġbehavior": 2258,
      "ĠJew": 2259,
      "icial": 2260,
      "lection": 2261,
      "ĠSouth": 2262,
      "ĠSc": 2263,
      "Ġmembers": 2264,
      "Ġprotect": 2265,
      "Ġgrowth": 2266,
      "Ġcannot": 2267,
      "Ġresources": 2268,
      "une": 2269,
      "ĠUniversity": 2270,
      "aim": 2271,
      "ties": 2272,
      "arget": 2273,
      "Ġ40": 2274,
      "ipp": 2275,
      "Ġ>": 2276,
      "Ġrat": 2277,
      "inter": 2278,
      "Ġdisease": 2279,
      "Ġcame": 2280,
      "Ġwhether": 2281,
      "Ġlay": 2282,
      "ze": 2283,
      "Ġâī": 2284,
      "col": 2285,
      "reg": 2286,
      "Ġhard": 2287,
      "ĠHis": 2288,
      "rict": 2289,
      "Ġtool": 2290,
      "Ġdest": 2291,
      "Ġglo": 2292,
      "Ġstandard": 2293,
      "Ġlittle": 2294,
      "izing": 2295,
      "24": 2296,
      "date": 2297,
      "ĠWith": 2298,
      "Ch": 2299,
      "Ġlive": 2300,
      "Ġbase": 2301,
      "Ġabove": 2302,
      "ĠRoman": 2303,
      "Ġaverage": 2304,
      "Ġseries": 2305,
      "Ġwhite": 2306,
      "Ġtrue": 2307,
      "ference": 2308,
      "ĠWorld": 2309,
      "ready": 2310,
      "ĠBe": 2311,
      "Ġrather": 2312,
      "Ġrequired": 2313,
      "Ġcases": 2314,
      "oph": 2315,
      "Ġconstant": 2316,
      "acc": 2317,
      "Ġwee": 2318,
      "Ġnegative": 2319,
      "ĠEn": 2320,
      "ĠGod": 2321,
      "Con": 2322,
      "Ġsurv": 2323,
      "Ġhigher": 2324,
      "ivity": 2325,
      "most": 2326,
      "Ġconcept": 2327,
      "Ġplants": 2328,
      "Ġder": 2329,
      "Ġill": 2330,
      "Ġhaving": 2331,
      "aries": 2332,
      "ox": 2333,
      "Ġcru": 2334,
      "Ġangle": 2335,
      "ls": 2336,
      "Ġbook": 2337,
      "Ġgl": 2338,
      "Ġred": 2339,
      "ger": 2340,
      "cle": 2341,
      "iddle": 2342,
      "Ġgreater": 2343,
      "Ġcivil": 2344,
      "Ġarch": 2345,
      "Ġreport": 2346,
      "illed": 2347,
      "ĠAct": 2348,
      "rences": 2349,
      "cing": 2350,
      "Ġdivid": 2351,
      "Ġreason": 2352,
      "Ġnational": 2353,
      "Ġinstance": 2354,
      "Ġmovement": 2355,
      "Ġmeaning": 2356,
      "Ġnature": 2357,
      "alse": 2358,
      "rench": 2359,
      "Ġelements": 2360,
      "oring": 2361,
      "Ġweight": 2362,
      "ains": 2363,
      "Ġ24": 2364,
      "Ġcultural": 2365,
      "Ġnumer": 2366,
      "ification": 2367,
      "ĠAll": 2368,
      "iol": 2369,
      "ush": 2370,
      "Ġevents": 2371,
      "Ġenough": 2372,
      "ites": 2373,
      "Ġimprove": 2374,
      "place": 2375,
      "Ġmaintain": 2376,
      "Ġsense": 2377,
      "Ġcm": 2378,
      "Ġaffect": 2379,
      "Ġalready": 2380,
      "Ġheight": 2381,
      "Ġcos": 2382,
      "Ġmoney": 2383,
      "Ġsingle": 2384,
      "80": 2385,
      "Ġapprox": 2386,
      "where": 2387,
      "```": 2388,
      "Ġrele": 2389,
      "use": 2390,
      "Ġthroughout": 2391,
      ".\"": 2392,
      "oot": 2393,
      "Ġkind": 2394,
      "urch": 2395,
      "ler": 2396,
      "apan": 2397,
      "Ġintrodu": 2398,
      "ĠKing": 2399,
      "Ġindic": 2400,
      "ĠAm": 2401,
      "Ġdone": 2402,
      "rame": 2403,
      "22": 2404,
      "ĠExample": 2405,
      "ising": 2406,
      "lab": 2407,
      "Ġemploy": 2408,
      "Ġrule": 2409,
      "word": 2410,
      "hemat": 2411,
      "ender": 2412,
      "Ġwhole": 2413,
      "Ġ}": 2414,
      "ĠRep": 2415,
      "Ġclimate": 2416,
      "uments": 2417,
      "son": 2418,
      "Ġmakes": 2419,
      "Ġfund": 2420,
      "Ġpractice": 2421,
      "Ġey": 2422,
      "Ġabs": 2423,
      "----": 2424,
      "Ġaddress": 2425,
      "Ġavailable": 2426,
      "order": 2427,
      "ibility": 2428,
      "Ġdeveloped": 2429,
      "Ġapplic": 2430,
      "Ġnever": 2431,
      "Ġcolor": 2432,
      "enn": 2433,
      "Ġoutput": 2434,
      "Ġfem": 2435,
      "mat": 2436,
      "Ġfall": 2437,
      "(\\": 2438,
      "Ġneeded": 2439,
      "ĠUS": 2440,
      "Ġur": 2441,
      "test": 2442,
      "math": 2443,
      "Ġsin": 2444,
      "ĠGree": 2445,
      "itude": 2446,
      "Ġsimple": 2447,
      "Ġteam": 2448,
      "ĠWhile": 2449,
      "Ġspread": 2450,
      "Ġradi": 2451,
      "ndom": 2452,
      "...": 2453,
      "Ġport": 2454,
      "['": 2455,
      "Ġaccount": 2456,
      "Ġfamil": 2457,
      "augh": 2458,
      "ĠList": 2459,
      "Ġprofess": 2460,
      "Ġwid": 2461,
      "Now": 2462,
      "dd": 2463,
      "ĠPol": 2464,
      "Ġliving": 2465,
      "version": 2466,
      "Ġfarm": 2467,
      "Ġtax": 2468,
      "action": 2469,
      "Ġbreak": 2470,
      "Ġhalf": 2471,
      "ops": 2472,
      "Ġdecl": 2473,
      "Ġbig": 2474,
      "Ġdetermine": 2475,
      "Ġnet": 2476,
      "Ġparents": 2477,
      "Ġresearc": 2478,
      "Ġidea": 2479,
      "fer": 2480,
      "time": 2481,
      "Ġreading": 2482,
      "iting": 2483,
      "Ġrelated": 2484,
      "Ġliter": 2485,
      "Ġonce": 2486,
      "Ġtaken": 2487,
      "pi": 2488,
      "ometimes": 2489,
      "Ġeither": 2490,
      "Ġfac": 2491,
      "plic": 2492,
      "Ġlower": 2493,
      "Ġsource": 2494,
      "acks": 2495,
      "lim": 2496,
      "ĠJohn": 2497,
      "lation": 2498,
      "Ġhol": 2499,
      "Ġhours": 2500,
      "Ġhelps": 2501,
      "Ġactivity": 2502,
      "Ġequations": 2503,
      "Ġcomput": 2504,
      "Ġsepar": 2505,
      "Al": 2506,
      "let": 2507,
      "Ġgame": 2508,
      "Ġ:": 2509,
      "uple": 2510,
      "Ġroot": 2511,
      "Ġencoura": 2512,
      "arr": 2513,
      "duct": 2514,
      "ĠPer": 2515,
      "ĠâĪļ": 2516,
      "Ġsteps": 2517,
      "Ġcells": 2518,
      "Ġfri": 2519,
      ")$": 2520,
      "Ġleaders": 2521,
      "ĠJapan": 2522,
      "Ġcapt": 2523,
      "Ġquick": 2524,
      "Ġevidence": 2525,
      "Ġwind": 2526,
      "Ġfeet": 2527,
      "Ġlives": 2528,
      "Ġensure": 2529,
      "ĠGe": 2530,
      "ches": 2531,
      "ptoms": 2532,
      "ips": 2533,
      "Ġtechnology": 2534,
      "ients": 2535,
      "ott": 2536,
      "ĠShe": 2537,
      "Ġfail": 2538,
      "Ġlevels": 2539,
      "edi": 2540,
      "Ġthought": 2541,
      "33": 2542,
      "Ġhouse": 2543,
      "ĠFrench": 2544,
      "ened": 2545,
      "Ġfeed": 2546,
      "Ġfull": 2547,
      "Ġpie": 2548,
      "Ġitself": 2549,
      "ĠII": 2550,
      "add": 2551,
      "Ġfive": 2552,
      "Ġ.": 2553,
      "Ġwriting": 2554,
      "Ġbuilding": 2555,
      "Ġcollect": 2556,
      "Ġmatrix": 2557,
      "Ġgoing": 2558,
      "Ġpopular": 2559,
      "Ġforces": 2560,
      "ordin": 2561,
      "Ġinfluence": 2562,
      "Pro": 2563,
      "enced": 2564,
      "Ġdeep": 2565,
      "ĠInitial": 2566,
      "Ġparticip": 2567,
      "Ġdraw": 2568,
      "Ġlines": 2569,
      "Ġtriangle": 2570,
      "Ġentire": 2571,
      "utes": 2572,
      "Ġerror": 2573,
      "Ġcheck": 2574,
      "Ġcondition": 2575,
      "iment": 2576,
      "Ġelement": 2577,
      "rown": 2578,
      "ament": 2579,
      "Ġreflect": 2580,
      "ĠIndian": 2581,
      "Ġtrade": 2582,
      "ley": 2583,
      "Ġgives": 2584,
      "pite": 2585,
      "Ġconcern": 2586,
      "75": 2587,
      "Ġbal": 2588,
      "bon": 2589,
      "lam": 2590,
      "ĠNational": 2591,
      "ER": 2592,
      "Ġwritten": 2593,
      "ĠAfrican": 2594,
      "Ġ60": 2595,
      "}}": 2596,
      "ĠAfter": 2597,
      "reng": 2598,
      "Ġbusiness": 2599,
      "Ġstre": 2600,
      "Ġaction": 2601,
      "main": 2602,
      "}\")": 2603,
      "istics": 2604,
      "know": 2605,
      "Ġmom": 2606,
      "Ġparticularly": 2607,
      "Ġ(-": 2608,
      "Ġtreatment": 2609,
      "Ġbrain": 2610,
      "ried": 2611,
      "atives": 2612,
      "ĠApp": 2613,
      "Ġstructure": 2614,
      "Ġpersonal": 2615,
      "irm": 2616,
      "rim": 2617,
      "Ġcourse": 2618,
      "ndarray": 2619,
      "Ġnecessary": 2620,
      "Ġrequire": 2621,
      "Ġcontinue": 2622,
      "Ġproduction": 2623,
      "leep": 2624,
      "Ġmind": 2625,
      "Ġmeet": 2626,
      "Ġprevious": 2627,
      "ained": 2628,
      "cd": 2629,
      "Ġtarget": 2630,
      "Ġ199": 2631,
      "Ġbuilt": 2632,
      "ĠCent": 2633,
      "100": 2634,
      "ĠCheck": 2635,
      "Ġtree": 2636,
      "emic": 2637,
      "Ġclos": 2638,
      "Ġissues": 2639,
      "Ġdam": 2640,
      "sum": 2641,
      "aging": 2642,
      "Ġdetail": 2643,
      "ĠSince": 2644,
      "ocity": 2645,
      "Ġstring": 2646,
      "Ġreligious": 2647,
      "fig": 2648,
      "Ġtransform": 2649,
      "ĠGet": 2650,
      "rought": 2651,
      "isions": 2652,
      "Ġmethods": 2653,
      "Ġlarger": 2654,
      "Ġsec": 2655,
      "ront": 2656,
      "Ġshape": 2657,
      "thing": 2658,
      "inct": 2659,
      "Ġsat": 2660,
      "Ġmanage": 2661,
      "Ġflu": 2662,
      "oon": 2663,
      "Ġmodels": 2664,
      "Ġcontribut": 2665,
      "Ġadapt": 2666,
      "Ġblood": 2667,
      "Ġsuper": 2668,
      "NA": 2669,
      "Ġincreasing": 2670,
      "empt": 2671,
      "Ġexc": 2672,
      "ields": 2673,
      "Ġvert": 2674,
      "Ġhumans": 2675,
      "Ġcrucial": 2676,
      "ening": 2677,
      "Ġstru": 2678,
      "Ġrow": 2679,
      "ift": 2680,
      "Ġball": 2681,
      "Ġtable": 2682,
      "]:": 2683,
      "gypt": 2684,
      "Ġface": 2685,
      "Ġsequence": 2686,
      "Ġsun": 2687,
      "elling": 2688,
      "Ġincreased": 2689,
      "aged": 2690,
      "Ġeffective": 2691,
      "Ġemer": 2692,
      "70": 2693,
      "Ġann": 2694,
      "Ġmonths": 2695,
      "iation": 2696,
      "Ġking": 2697,
      "ĠGerman": 2698,
      "ĠAust": 2699,
      "Ġsymptoms": 2700,
      "Ġprice": 2701,
      "Ġpri": 2702,
      "Ġwrite": 2703,
      "af": 2704,
      "izes": 2705,
      "Ġshap": 2706,
      "value": 2707,
      "hood": 2708,
      "Ġrelative": 2709,
      "plement": 2710,
      "ĠMon": 2711,
      "23": 2712,
      "raft": 2713,
      "Ġreach": 2714,
      "ope": 2715,
      "Ġcoun": 2716,
      "ederal": 2717,
      "AT": 2718,
      "Ġsens": 2719,
      "Ġvel": 2720,
      "light": 2721,
      "vere": 2722,
      "Ġload": 2723,
      "ĠTe": 2724,
      "Ġideas": 2725,
      "Ġstreng": 2726,
      "rack": 2727,
      "Ġmultiple": 2728,
      "ifying": 2729,
      ")/": 2730,
      "Ġeffic": 2731,
      "rees": 2732,
      "Ġorigin": 2733,
      "Ġtemperature": 2734,
      "ĠEgypt": 2735,
      "Ġtheory": 2736,
      "ysis": 2737,
      "like": 2738,
      "21": 2739,
      "rite": 2740,
      "Ġviol": 2741,
      "lands": 2742,
      "Ġbar": 2743,
      "Ġmaterials": 2744,
      "dis": 2745,
      "Ġprop": 2746,
      "ese": 2747,
      "arily": 2748,
      "Ġpub": 2749,
      "Ġexact": 2750,
      "Ġsuccessful": 2751,
      "Ġestablished": 2752,
      "Ġassociated": 2753,
      "Ġmagn": 2754,
      "45": 2755,
      "Since": 2756,
      "ĠSol": 2757,
      "erate": 2758,
      "racy": 2759,
      "Ġmath": 2760,
      "Ġsuggest": 2761,
      "Ġinvolves": 2762,
      "Ġarticle": 2763,
      "itiz": 2764,
      "Ġteachers": 2765,
      "Ġdistribution": 2766,
      "Ġfloat": 2767,
      "Ġimportance": 2768,
      "ystem": 2769,
      "Ġbirds": 2770,
      "ception": 2771,
      "ĠSim": 2772,
      "Ġmathemat": 2773,
      "ĠNum": 2774,
      "Ġforest": 2775,
      "dom": 2776,
      "Ġla": 2777,
      "Ġunit": 2778,
      "Ġobjects": 2779,
      "Ġdeb": 2780,
      "Ġengine": 2781,
      "lex": 2782,
      "Ġver": 2783,
      "Therefore": 2784,
      "ene": 2785,
      "Ġfunctions": 2786,
      "Ġlaws": 2787,
      "rate": 2788,
      "ĠBC": 2789,
      "ulations": 2790,
      "One": 2791,
      "Ġlot": 2792,
      "Ġjob": 2793,
      "Ġconsum": 2794,
      "ares": 2795,
      "key": 2796,
      "Ġschools": 2797,
      "init": 2798,
      "Ġfish": 2799,
      "ney": 2800,
      "Ġmor": 2801,
      "Ġclaim": 2802,
      "ratic": 2803,
      "Ġbound": 2804,
      "Ġmental": 2805,
      "room": 2806,
      "Ġcommunities": 2807,
      "Ġforms": 2808,
      "Ġthreat": 2809,
      "onstr": 2810,
      "way": 2811,
      "aches": 2812,
      "Ġresearchers": 2813,
      "Ġregard": 2814,
      "Ġeffects": 2815,
      "Ġfight": 2816,
      "size": 2817,
      "Ġhor": 2818,
      "Ġsix": 2819,
      "Ġsuff": 2820,
      "stitution": 2821,
      "ĠComm": 2822,
      "ĠAb": 2823,
      "eters": 2824,
      "anced": 2825,
      "._": 2826,
      "ades": 2827,
      "Ġhun": 2828,
      "ĠGo": 2829,
      "ĠInt": 2830,
      "Ġmessage": 2831,
      "On": 2832,
      "atory": 2833,
      "Ġchallenges": 2834,
      "Ġpressure": 2835,
      "Ġmaximum": 2836,
      "Ġleading": 2837,
      "Ġpaper": 2838,
      "Ġcomes": 2839,
      "ĠBlack": 2840,
      "wh": 2841,
      "Ġcommand": 2842,
      "Ġshows": 2843,
      "respon": 2844,
      "Ġactually": 2845,
      "fficient": 2846,
      "Ġheav": 2847,
      "Ġclose": 2848,
      "iles": 2849,
      "Ġcircle": 2850,
      "Ġhabit": 2851,
      "Ġdirection": 2852,
      "Ġwild": 2853,
      "igen": 2854,
      "Ġglobal": 2855,
      "ON": 2856,
      "ai": 2857,
      "ĠEuropean": 2858,
      "Ġnormal": 2859,
      "Ġcut": 2860,
      "Given": 2861,
      "Ġreduce": 2862,
      "Ġdirectly": 2863,
      "Ġstrateg": 2864,
      "Ġupon": 2865,
      "Ġscience": 2866,
      "clusion": 2867,
      "Ġachieve": 2868,
      "='": 2869,
      "Ġtraining": 2870,
      "ought": 2871,
      "ey": 2872,
      "Ġprovides": 2873,
      "rad": 2874,
      "Ġexpected": 2875,
      "ccording": 2876,
      "Ġlonger": 2877,
      "Ġprinci": 2878,
      "iply": 2879,
      "$\\": 2880,
      "Ġaccording": 2881,
      "resents": 2882,
      "ĠCanad": 2883,
      "Ġtowards": 2884,
      "ee": 2885,
      "ĠThat": 2886,
      "Ġalmost": 2887,
      "ricult": 2888,
      "erve": 2889,
      "Ġtraditional": 2890,
      "Tr": 2891,
      "Ġcompon": 2892,
      "mber": 2893,
      "Ġjour": 2894,
      "uck": 2895,
      "ores": 2896,
      "Ġconnect": 2897,
      "Ġappear": 2898,
      "Ġet": 2899,
      "ĠCar": 2900,
      "Ġcolumn": 2901,
      "Ġtaking": 2902,
      "gor": 2903,
      "Ġterrit": 2904,
      "Ġproduce": 2905,
      "ĠAmericans": 2906,
      "Ġstar": 2907,
      "ĠMany": 2908,
      "Ġregular": 2909,
      "ĠEngland": 2910,
      "Ġrad": 2911,
      "Ġallowed": 2912,
      "Ġcaused": 2913,
      "Ġsett": 2914,
      "Ġvelocity": 2915,
      "ech": 2916,
      "ĠHist": 2917,
      "']": 2918,
      "Ġbelow": 2919,
      "ensive": 2920,
      "Ġrandom": 2921,
      "Ġcentral": 2922,
      "Ġcross": 2923,
      "Ġhold": 2924,
      "ached": 2925,
      "ĠÂ": 2926,
      "pot": 2927,
      "oes": 2928,
      "ĠPres": 2929,
      "ĠNe": 2930,
      "Ġlimit": 2931,
      "Ġemb": 2932,
      "Ġextrem": 2933,
      "Ġvariety": 2934,
      "amed": 2935,
      "new": 2936,
      "ched": 2937,
      "imens": 2938,
      "Ġestablish": 2939,
      "Ġsmaller": 2940,
      "ĠBo": 2941,
      "ĠPe": 2942,
      "Ġpair": 2943,
      "ID": 2944,
      "Ġdemonstr": 2945,
      "tract": 2946,
      "By": 2947,
      "ads": 2948,
      "sect": 2949,
      "Ġstrugg": 2950,
      "Ġcontent": 2951,
      "Ġlate": 2952,
      "otal": 2953,
      "uries": 2954,
      "Ġapproximately": 2955,
      "Ġsample": 2956,
      "Ġincor": 2957,
      "Ġjo": 2958,
      "Ġremains": 2959,
      "ault": 2960,
      "Ġfire": 2961,
      "Ġvolume": 2962,
      "ĠStud": 2963,
      "Ġprime": 2964,
      "times": 2965,
      "inf": 2966,
      "ump": 2967,
      "Ġheat": 2968,
      "ĠSoc": 2969,
      "ĠDes": 2970,
      "ĠĠĠĠĠĠĠĠčĊ": 2971,
      "Ġtrees": 2972,
      "alu": 2973,
      "Ġscientists": 2974,
      "Ġrefer": 2975,
      "Ġearth": 2976,
      "Ġtakes": 2977,
      "Ġaccept": 2978,
      "Ġearli": 2979,
      "Ġstatus": 2980,
      "Com": 2981,
      "Ġquant": 2982,
      "Ġax": 2983,
      "uel": 2984,
      "Ġcenter": 2985,
      "Ġinvolved": 2986,
      "Ġthous": 2987,
      "Ġraise": 2988,
      "Ġpriv": 2989,
      "hest": 2990,
      "hern": 2991,
      "Ġcontext": 2992,
      "Ġaspect": 2993,
      "sych": 2994,
      "Ġsal": 2995,
      "Ġdom": 2996,
      "oll": 2997,
      "ST": 2998,
      "Ġrequest": 2999,
      "Ġlack": 3000,
      "Ġ\\(": 3001,
      "Ġtypically": 3002,
      "Ġdoc": 3003,
      "Ġreally": 3004,
      "nderstand": 3005,
      "Ġcritical": 3006,
      "wise": 3007,
      "ĠMay": 3008,
      "Ġvalid": 3009,
      "ming": 3010,
      "36": 3011,
      "itle": 3012,
      "Ġincluded": 3013,
      "Ġcitiz": 3014,
      "Ġmatter": 3015,
      "Ġproperty": 3016,
      "Ġwest": 3017,
      "Ġfreed": 3018,
      "Ġnation": 3019,
      "Ġcat": 3020,
      "eds": 3021,
      "thern": 3022,
      "go": 3023,
      "Ġavoid": 3024,
      "Ġnut": 3025,
      "gorithm": 3026,
      "Ġmoment": 3027,
      "Ġthird": 3028,
      "Ġheld": 3029,
      "cer": 3030,
      "tr": 3031,
      "ground": 3032,
      "Ġformed": 3033,
      "Ġconsist": 3034,
      "Ġvirus": 3035,
      "ĠDis": 3036,
      "Ġlink": 3037,
      "pose": 3038,
      "sp": 3039,
      "ĠTheir": 3040,
      "Ġoppos": 3041,
      "Ġprogress": 3042,
      "Ġrout": 3043,
      "Ġspir": 3044,
      "Ġratio": 3045,
      "alle": 3046,
      "Ġsea": 3047,
      "fact": 3048,
      "ply": 3049,
      "outhern": 3050,
      "view": 3051,
      "Ġsoil": 3052,
      "Ġbelieved": 3053,
      "Ġteaching": 3054,
      "cepts": 3055,
      "ĠState": 3056,
      "stitute": 3057,
      "Ġofficial": 3058,
      "Ġtalk": 3059,
      "Ġremov": 3060,
      "Ġcele": 3061,
      "yth": 3062,
      "aly": 3063,
      "Ġpredict": 3064,
      "Ġshare": 3065,
      "Ġstress": 3066,
      "Ġgas": 3067,
      "ervation": 3068,
      "Ġmach": 3069,
      "uous": 3070,
      "Ġpowerful": 3071,
      "mb": 3072,
      "astic": 3073,
      "Ġcamp": 3074,
      "orthern": 3075,
      "Ġcop": 3076,
      "ĠRuss": 3077,
      "Ġcal": 3078,
      "Ġsometimes": 3079,
      "input": 3080,
      "undred": 3081,
      "Ġcomplete": 3082,
      "Ġattack": 3083,
      "âĪļ": 3084,
      "ĠThen": 3085,
      "Ġfeatures": 3086,
      "Ġservices": 3087,
      "Ġwood": 3088,
      "ictionary": 3089,
      "come": 3090,
      "ĠMar": 3091,
      "Ġsn": 3092,
      "osa": 3093,
      "ript": 3094,
      ":**": 3095,
      "Ġcub": 3096,
      "Ġunits": 3097,
      "Ġattention": 3098,
      "Ġquality": 3099,
      "cont": 3100,
      "ixed": 3101,
      "Ġharm": 3102,
      "Ġslow": 3103,
      "Ġquickly": 3104,
      "oration": 3105,
      "omial": 3106,
      "ancial": 3107,
      "ĠCong": 3108,
      "Ġdefined": 3109,
      "Ġvector": 3110,
      "ĠĠĠĠĠĠĠĠĠĠĠĠĠĠĠĠĠĠĠ": 3111,
      "ister": 3112,
      "Ġstop": 3113,
      "sec": 3114,
      "Ġchem": 3115,
      "ĠUse": 3116,
      "Ġcompet": 3117,
      "ters": 3118,
      "ĠAfrica": 3119,
      "ĠChina": 3120,
      "Ġstarted": 3121,
      "Ġever": 3122,
      "abase": 3123,
      "Ġcalculated": 3124,
      "Answer": 3125,
      "Ġcontinued": 3126,
      "Ġcreating": 3127,
      "}$.": 3128,
      "Ġlargest": 3129,
      "Ġallows": 3130,
      "cles": 3131,
      "ban": 3132,
      "Ġseem": 3133,
      "Ġzero": 3134,
      "Ġbring": 3135,
      "Ġsure": 3136,
      "ĠCal": 3137,
      "Ġbehavi": 3138,
      "ĠMe": 3139,
      "Ġsleep": 3140,
      "ĠLet": 3141,
      "upp": 3142,
      "AS": 3143,
      "Ġinteract": 3144,
      "theta": 3145,
      "my": 3146,
      "met": 3147,
      "IN": 3148,
      ",\"": 3149,
      "Ġstudies": 3150,
      "pid": 3151,
      "ĠProblem": 3152,
      "lict": 3153,
      "Ġdate": 3154,
      "Ġcust": 3155,
      "ĠRo": 3156,
      "Ġoutside": 3157,
      "Ġincludes": 3158,
      "Ġtell": 3159,
      "ĠUnion": 3160,
      "estion": 3161,
      "ius": 3162,
      "bre": 3163,
      "Ġbrought": 3164,
      "Ġfamilies": 3165,
      "fs": 3166,
      "Ġwall": 3167,
      "Ġdefin": 3168,
      "Ġwon": 3169,
      "Ġbur": 3170,
      "Ġtrib": 3171,
      "Ġste": 3172,
      "het": 3173,
      "32": 3174,
      "These": 3175,
      "Ġproducts": 3176,
      "ĠPart": 3177,
      "Ġminutes": 3178,
      "Ġcommit": 3179,
      "Ġago": 3180,
      "Ġfav": 3181,
      "Ġvacc": 3182,
      "cdot": 3183,
      "ounts": 3184,
      "Ġmarket": 3185,
      "odes": 3186,
      "Ġ_": 3187,
      "requ": 3188,
      "Ġ21": 3189,
      "Ġexplore": 3190,
      "Ġtens": 3191,
      "ĠGreat": 3192,
      "ĠDefine": 3193,
      "Ġvariable": 3194,
      "ĠCo": 3195,
      "Ġexamples": 3196,
      "illi": 3197,
      "Ġelectric": 3198,
      "bit": 3199,
      "Ġyet": 3200,
      "Ġproperties": 3201,
      "ĠValue": 3202,
      "But": 3203,
      "rag": 3204,
      "ĠYork": 3205,
      "Ġmiles": 3206,
      "}{\\": 3207,
      "ellow": 3208,
      "wo": 3209,
      "Ġbecomes": 3210,
      "__(": 3211,
      "xy": 3212,
      "Ġsolutions": 3213,
      "Ġcommunication": 3214,
      "minist": 3215,
      "itual": 3216,
      "Ġkids": 3217,
      "Ġbill": 3218,
      "Ġcarbon": 3219,
      "Ġbooks": 3220,
      "back": 3221,
      "Ġinstead": 3222,
      "ilos": 3223,
      "Ġimplement": 3224,
      "Ġworkers": 3225,
      "Ġeth": 3226,
      "Ġvict": 3227,
      "ĠGermany": 3228,
      "anish": 3229,
      "Ġdemand": 3230,
      "Ġ194": 3231,
      "asc": 3232,
      "igr": 3233,
      "Ġanaly": 3234,
      "Ġdou": 3235,
      "Here": 3236,
      "âĢ¦": 3237,
      "ience": 3238,
      "fect": 3239,
      "Ġplayed": 3240,
      "ĠChristian": 3241,
      "hold": 3242,
      "irect": 3243,
      "Ġhealthy": 3244,
      "Ġjud": 3245,
      "abilities": 3246,
      "anks": 3247,
      "Ġidentity": 3248,
      "Ġarray": 3249,
      "ĠTherefore": 3250,
      "90": 3251,
      "Ġsources": 3252,
      "type": 3253,
      "Ġproduced": 3254,
      "ription": 3255,
      "Ġexam": 3256,
      "Ġful": 3257,
      "uit": 3258,
      "Ġanimal": 3259,
      "Ġuses": 3260,
      "Ġagricult": 3261,
      "uration": 3262,
      "Ġassess": 3263,
      "Ġut": 3264,
      "Ġdegrees": 3265,
      "Ġbasic": 3266,
      "rand": 3267,
      "ĠFirst": 3268,
      "64": 3269,
      "cy": 3270,
      "Using": 3271,
      "35": 3272,
      "ĠMed": 3273,
      "Ġefforts": 3274,
      "orem": 3275,
      "Ġconfig": 3276,
      "Ġindex": 3277,
      "Ġones": 3278,
      "Ġmid": 3279,
      "Ġpublished": 3280,
      "Ġphot": 3281,
      "Ġcapital": 3282,
      "Ġhistorical": 3283,
      "Ġplaces": 3284,
      "rel": 3285,
      "Ġconduct": 3286,
      "Ġevalu": 3287,
      "onom": 3288,
      "ĠFrance": 3289,
      "aily": 3290,
      "ounds": 3291,
      "Ġtown": 3292,
      "Ġmic": 3293,
      "Ġrules": 3294,
      "iter": 3295,
      "uge": 3296,
      "Ġthinking": 3297,
      "itect": 3298,
      "erson": 3299,
      "Ġnode": 3300,
      "Ġsomeone": 3301,
      "part": 3302,
      "####": 3303,
      "Ġteacher": 3304,
      "Ġproviding": 3305,
      "Ġpatterns": 3306,
      "Ġappl": 3307,
      "Ġdiet": 3308,
      "Ġstri": 3309,
      "Ġlinear": 3310,
      "Ġdesigned": 3311,
      "Ġpoll": 3312,
      "Ġbenefits": 3313,
      "Ġaccom": 3314,
      "Ġsurround": 3315,
      "hib": 3316,
      "Ġsaw": 3317,
      "Ġlif": 3318,
      "Ġdecre": 3319,
      "Ġbeginning": 3320,
      "Ġwhose": 3321,
      "ĠRiver": 3322,
      "Ġhundred": 3323,
      "Ġlegal": 3324,
      "Ġsafe": 3325,
      "ĠCO": 3326,
      "Ġrot": 3327,
      "28": 3328,
      "Ġservice": 3329,
      "length": 3330,
      "image": 3331,
      "Ġconstit": 3332,
      "urity": 3333,
      "Ġselect": 3334,
      "Ġcode": 3335,
      "ĠAI": 3336,
      "Ġpractices": 3337,
      "Ġexec": 3338,
      "avery": 3339,
      "ser": 3340,
      "ĠLo": 3341,
      "amm": 3342,
      "Ġfinancial": 3343,
      "ĠTrue": 3344,
      "Ġintegral": 3345,
      "65": 3346,
      "hel": 3347,
      "Ġidentify": 3348,
      "ike": 3349,
      "ensity": 3350,
      "Ġprimary": 3351,
      "Ġrac": 3352,
      "ĠAss": 3353,
      "Ġindependent": 3354,
      "volution": 3355,
      "Ġsimply": 3356,
      "Ġpow": 3357,
      "Ġprec": 3358,
      "Ġaim": 3359,
      "Ġsearch": 3360,
      "ĠFe": 3361,
      "Ġdistinct": 3362,
      "aff": 3363,
      "cean": 3364,
      "uth": 3365,
      "yond": 3366,
      "plit": 3367,
      "Ġsituation": 3368,
      "Ġsaf": 3369,
      "Ġinteger": 3370,
      "Ġestim": 3371,
      "ceed": 3372,
      "Ġbirth": 3373,
      "Ġeconomy": 3374,
      "Ġbehind": 3375,
      "asons": 3376,
      "ĠEmpire": 3377,
      "rast": 3378,
      "Ġpolicy": 3379,
      "Ġinstr": 3380,
      "Ġaccel": 3381,
      "Ġcontact": 3382,
      "Ġlost": 3383,
      "Ġice": 3384,
      "Ġcontaining": 3385,
      "==": 3386,
      "Ġtrain": 3387,
      "odies": 3388,
      "ĠMin": 3389,
      "Ġnorth": 3390,
      "pper": 3391,
      "Ġbelieve": 3392,
      "Ġissue": 3393,
      "Ġkm": 3394,
      "Ġclean": 3395,
      "Ġ\"__": 3396,
      "phas": 3397,
      "ighb": 3398,
      "You": 3399,
      "inese": 3400,
      "Ġgoal": 3401,
      "ractions": 3402,
      "ĠFl": 3403,
      "Ġexperiences": 3404,
      "cular": 3405,
      "Ġweek": 3406,
      "__\":": 3407,
      "Ġtransport": 3408,
      "Ġcir": 3409,
      "Ġdictionary": 3410,
      "Ġcompany": 3411,
      "Ġdecision": 3412,
      "hens": 3413,
      "ĠTest": 3414,
      "Ġsex": 3415,
      "aling": 3416,
      "ildren": 3417,
      "ession": 3418,
      "Sub": 3419,
      "Ġlabor": 3420,
      "ĠComp": 3421,
      "exic": 3422,
      "Ġarmy": 3423,
      "ĠGu": 3424,
      "Ġplanet": 3425,
      "icles": 3426,
      "Ġshown": 3427,
      "ĠDuring": 3428,
      "Ġconvert": 3429,
      "Ġdifferences": 3430,
      "Ġadj": 3431,
      "po": 3432,
      "Ġlimited": 3433,
      "iques": 3434,
      "Ġinside": 3435,
      "Ġfigure": 3436,
      "Ġstay": 3437,
      "Ġopportunities": 3438,
      "bb": 3439,
      "Ġpict": 3440,
      "omm": 3441,
      "Ġgrowing": 3442,
      "Ġgain": 3443,
      "Ġdivided": 3444,
      "Ġwent": 3445,
      "user": 3446,
      "//": 3447,
      "known": 3448,
      "Ġlooking": 3449,
      "umb": 3450,
      "ĠRed": 3451,
      "Ġsite": 3452,
      "Ġmother": 3453,
      "ĠChar": 3454,
      "head": 3455,
      "Ġinstit": 3456,
      "Ġcitizens": 3457,
      "Ġgreen": 3458,
      "chan": 3459,
      "based": 3460,
      "ĠMan": 3461,
      "ĠFrom": 3462,
      "Ġeat": 3463,
      "Ġoperations": 3464,
      "ameter": 3465,
      "ribute": 3466,
      "Ġgenerally": 3467,
      "Ġactive": 3468,
      "Ġlove": 3469,
      "ĠCongress": 3470,
      "Ġexerc": 3471,
      "Ġtask": 3472,
      "ying": 3473,
      "Ġcalculation": 3474,
      "Ġmedical": 3475,
      "Ġvariables": 3476,
      "rap": 3477,
      "load": 3478,
      "Ġpoor": 3479,
      "duc": 3480,
      "Ġdict": 3481,
      "Ġgod": 3482,
      "Ġmiddle": 3483,
      "Ġconstruct": 3484,
      "ĠGreek": 3485,
      "agon": 3486,
      "Ġrock": 3487,
      "Ġthus": 3488,
      "Ġrise": 3489,
      "Ġnav": 3490,
      "Ġfreedom": 3491,
      "Ġinterpre": 3492,
      "que": 3493,
      "ulate": 3494,
      "Ġrepresents": 3495,
      "Ġwide": 3496,
      "Ġactions": 3497,
      "Ġbox": 3498,
      "rs": 3499,
      "Ġspeak": 3500,
      "eterm": 3501,
      "oming": 3502,
      "Ġtools": 3503,
      "ĠSub": 3504,
      "Ġgetting": 3505,
      "Ġfemale": 3506,
      "Ġinn": 3507,
      "izations": 3508,
      "ĠMus": 3509,
      "Ġdoing": 3510,
      "ashing": 3511,
      "ĠOther": 3512,
      "Ġlat": 3513,
      "Ġstage": 3514,
      "Ġregions": 3515,
      "Ġmoving": 3516,
      "Ġanalysis": 3517,
      "ĠPresident": 3518,
      "Ġconnection": 3519,
      "elt": 3520,
      "ĠCont": 3521,
      "Ġalgorithm": 3522,
      "Ġ28": 3523,
      "vant": 3524,
      "Ġnight": 3525,
      "Ġdeveloping": 3526,
      "Ġstrength": 3527,
      "Ġrepe": 3528,
      "Ġenj": 3529,
      "Ġresistance": 3530,
      "Ġbattle": 3531,
      "ĠMexic": 3532,
      "Ġoffer": 3533,
      "hol": 3534,
      "Ġtherefore": 3535,
      "}^{": 3536,
      "ms": 3537,
      "Ġcauses": 3538,
      "Ġkg": 3539,
      "Ġ27": 3540,
      "RE": 3541,
      "leg": 3542,
      "ĠNo": 3543,
      "float": 3544,
      "ung": 3545,
      "200": 3546,
      "Ġfront": 3547,
      "ditionally": 3548,
      "Ġcities": 3549,
      "Ġfraction": 3550,
      "Ġindustry": 3551,
      "Ġexpand": 3552,
      "Ġsust": 3553,
      "Ġderiv": 3554,
      "enth": 3555,
      "ternative": 3556,
      "Ġrecent": 3557,
      "ster": 3558,
      "ĠAlthough": 3559,
      "Ġhighly": 3560,
      "27": 3561,
      "ĠCour": 3562,
      "Ġmechan": 3563,
      "ellig": 3564,
      "Ġpsych": 3565,
      "Ġdivis": 3566,
      "Ġ)": 3567,
      "Ġchoose": 3568,
      "pri": 3569,
      "Ġdyn": 3570,
      "mar": 3571,
      "Ġmiss": 3572,
      "Ġenvironmental": 3573,
      "Ġcelebr": 3574,
      "idge": 3575,
      "Ġhost": 3576,
      "Ġgold": 3577,
      "ĠChinese": 3578,
      "Ġcateg": 3579,
      "cret": 3580,
      "rial": 3581,
      "ĠCor": 3582,
      "Ġstatement": 3583,
      "Ġcenturies": 3584,
      "ĠInitialize": 3585,
      "Ġreve": 3586,
      "iber": 3587,
      "Ġadded": 3588,
      "Ġ90": 3589,
      "unction": 3590,
      "Ġeasily": 3591,
      "Ġconver": 3592,
      "anger": 3593,
      "Ġbeyond": 3594,
      "ĠBritain": 3595,
      "Ġsort": 3596,
      "ĠLaw": 3597,
      "ĠAtt": 3598,
      "rie": 3599,
      "Ġcover": 3600,
      "Ġir": 3601,
      "Ġheart": 3602,
      "matrix": 3603,
      "Ġsouth": 3604,
      "asks": 3605,
      "vention": 3606,
      "Ġattempt": 3607,
      "Ġalthough": 3608,
      "Ġbalance": 3609,
      "Ġmount": 3610,
      "Ġthr": 3611,
      "Ġdepend": 3612,
      "box": 3613,
      "max": 3614,
      "Ġphilos": 3615,
      "aby": 3616,
      "True": 3617,
      "Ġconflict": 3618,
      "Ġcapac": 3619,
      "Ġradius": 3620,
      "Ġ36": 3621,
      "While": 3622,
      "Ġbul": 3623,
      "point": 3624,
      "Ġadop": 3625,
      "Ġdaily": 3626,
      "Ġstra": 3627,
      "Ġconcepts": 3628,
      "Ġblock": 3629,
      "rael": 3630,
      "Ġinequ": 3631,
      "Ġclassroom": 3632,
      "Ġtend": 3633,
      "Ġarchitect": 3634,
      "Ġimag": 3635,
      "Ġemphas": 3636,
      "Ġoccup": 3637,
      "Ġsil": 3638,
      "Ġcorrespon": 3639,
      "Ġemotional": 3640,
      "Ġcarry": 3641,
      "Ġdog": 3642,
      "Ġhelped": 3643,
      "Ġcoast": 3644,
      "Ġproport": 3645,
      "ĠĠĠĠĠĠĠĠĠĠĠĠĠĠĠĠ": 3646,
      "Ġengage": 3647,
      "Ġrequires": 3648,
      "index": 3649,
      "Ġpassed": 3650,
      "Ġassum": 3651,
      "Ġseems": 3652,
      "ief": 3653,
      "Ã©": 3654,
      "style": 3655,
      "Ġcourt": 3656,
      "ĠAustral": 3657,
      "men": 3658,
      "Ġrelationships": 3659,
      "Ġseek": 3660,
      "Ġbroad": 3661,
      "Ġdomin": 3662,
      "Ġobtain": 3663,
      "ĠArt": 3664,
      "Ġfields": 3665,
      "Ġwarm": 3666,
      "Ġfamous": 3667,
      "dx": 3668,
      "term": 3669,
      "Ġcoordin": 3670,
      "display": 3671,
      "Ġpeace": 3672,
      "Ġeasy": 3673,
      "ĠJewish": 3674,
      "Ġvot": 3675,
      "Ġche": 3676,
      "Ġsect": 3677,
      "Ġfederal": 3678,
      "ĠAD": 3679,
      "Ġeventually": 3680,
      "Ġconstruction": 3681,
      "Ġaud": 3682,
      "Ġborn": 3683,
      "rapy": 3684,
      "isf": 3685,
      "Ġprep": 3686,
      "Ġscale": 3687,
      "Ġhands": 3688,
      "Ġimmedi": 3689,
      "67": 3690,
      "ecause": 3691,
      "Ġenjoy": 3692,
      "Ġsubst": 3693,
      "ĠNot": 3694,
      ");": 3695,
      "Ġnames": 3696,
      "Ġcoll": 3697,
      "Ġfru": 3698,
      "Ġgender": 3699,
      "ugust": 3700,
      "Ġtechniques": 3701,
      "Ġdoesn": 3702,
      "Ġangles": 3703,
      "dict": 3704,
      "Ġconsequ": 3705,
      "Ġparent": 3706,
      "Ġthing": 3707,
      "AR": 3708,
      "ĠGeor": 3709,
      "ocks": 3710,
      "ĠAre": 3711,
      "cks": 3712,
      "ĠEast": 3713,
      "me": 3714,
      "Ġ22": 3715,
      "Ġfinding": 3716,
      "Ġgoods": 3717,
      "Ġprior": 3718,
      "bl": 3719,
      "Ġadminist": 3720,
      "Ġstrategies": 3721,
      "Ġoverall": 3722,
      "Ġtro": 3723,
      "Ġsoon": 3724,
      "Ġprograms": 3725,
      "Ġhypot": 3726,
      "ĠAdd": 3727,
      "ype": 3728,
      "Ġrect": 3729,
      "Ġadditional": 3730,
      "Ġhon": 3731,
      "Ġgrav": 3732,
      "ĠSet": 3733,
      "Ġparalle": 3734,
      "At": 3735,
      "Ġreceived": 3736,
      "Ġoccurs": 3737,
      "Ġund": 3738,
      "pes": 3739,
      "mosp": 3740,
      "Ġapply": 3741,
      "Ġtur": 3742,
      "=\"": 3743,
      "Ġfriends": 3744,
      "Ġinternational": 3745,
      "Ġfit": 3746,
      "rote": 3747,
      "ha": 3748,
      "itor": 3749,
      "haps": 3750,
      "Ġscientific": 3751,
      "Ġcomplet": 3752,
      "model": 3753,
      "ĠAng": 3754,
      "ctors": 3755,
      "Ġseg": 3756,
      "ken": 3757,
      "Ġpurpose": 3758,
      "Ġneighb": 3759,
      "ĠHer": 3760,
      "Ġminimum": 3761,
      "Ġgave": 3762,
      "Ġ23": 3763,
      "Ġevol": 3764,
      "arian": 3765,
      "plication": 3766,
      "earch": 3767,
      "Ġhous": 3768,
      "Ġfollowed": 3769,
      "ager": 3770,
      "Ġdenomin": 3771,
      "OR": 3772,
      "Ġexplain": 3773,
      "Ġlocation": 3774,
      "ĠPa": 3775,
      "rig": 3776,
      "Ġcancer": 3777,
      "aught": 3778,
      "Î¸": 3779,
      "Ġten": 3780,
      "Ġeducational": 3781,
      "ĠEd": 3782,
      "lope": 3783,
      "enge": 3784,
      "vey": 3785,
      "ĠIsrael": 3786,
      "Ġwealth": 3787,
      "Ġlegis": 3788,
      "Ġdiscovered": 3789,
      "ĠSpanish": 3790,
      "ĠDay": 3791,
      "29": 3792,
      "Ġdied": 3793,
      "Ġriver": 3794,
      "arv": 3795,
      "ww": 3796,
      "year": 3797,
      "Ġpage": 3798,
      "bra": 3799,
      "Ġult": 3800,
      "Ġfather": 3801,
      "nal": 3802,
      "Ġtor": 3803,
      "ĠRome": 3804,
      "Ġrich": 3805,
      "Ġnote": 3806,
      "itation": 3807,
      "Ġcompared": 3808,
      "ĠEqu": 3809,
      "ĠConstitution": 3810,
      "used": 3811,
      "ideo": 3812,
      "rab": 3813,
      "Ġresponsible": 3814,
      "rm": 3815,
      "Ġdivide": 3816,
      "Ġmeters": 3817,
      "Ġdark": 3818,
      "force": 3819,
      "ĠHere": 3820,
      "ii": 3821,
      "Ġstore": 3822,
      "Ġeg": 3823,
      "ĠFalse": 3824,
      "Ġspeech": 3825,
      "omb": 3826,
      "Ġappropri": 3827,
      "Ġmotion": 3828,
      "Ġtuple": 3829,
      "bd": 3830,
      "Ġconcent": 3831,
      "ĠMat": 3832,
      "Ġperfect": 3833,
      "^{-": 3834,
      "Ġquad": 3835,
      "ners": 3836,
      "Ġcontains": 3837,
      "Ġcompos": 3838,
      "Ġfrequency": 3839,
      "iti": 3840,
      "Ġlived": 3841,
      "icate": 3842,
      "Ġmeasures": 3843,
      "Ġroots": 3844,
      "Ġskin": 3845,
      "((": 3846,
      "eed": 3847,
      "Ġdecisions": 3848,
      "Ġsupply": 3849,
      "Ġadvant": 3850,
      "Ġ45": 3851,
      "Ġhyd": 3852,
      "Ġopportunity": 3853,
      "ĠÏ": 3854,
      "overy": 3855,
      "igenous": 3856,
      "://": 3857,
      "0000": 3858,
      "itable": 3859,
      "Ġsevere": 3860,
      "Ġ80": 3861,
      "Ġrecomm": 3862,
      "Ġimages": 3863,
      "chol": 3864,
      "ĠAnt": 3865,
      "aren": 3866,
      "Ġchanged": 3867,
      "ameters": 3868,
      "ĠJu": 3869,
      "ĠAg": 3870,
      "Ġusage": 3871,
      "ĠMore": 3872,
      "Ġseason": 3873,
      "Ġ...": 3874,
      "Ġquite": 3875,
      "Ġ198": 3876,
      "Ġwave": 3877,
      "Ġacad": 3878,
      "Cl": 3879,
      "encies": 3880,
      "Ġprote": 3881,
      "osis": 3882,
      "pty": 3883,
      "args": 3884,
      "ĠChurch": 3885,
      "},": 3886,
      "Ġdamage": 3887,
      "})": 3888,
      "Ġpromot": 3889,
      "Ġcustom": 3890,
      "ĠCons": 3891,
      "Ġaccur": 3892,
      "ĠHistory": 3893,
      "Ġwrote": 3894,
      "hesis": 3895,
      "Ad": 3896,
      "Ġdigits": 3897,
      "Ġresulting": 3898,
      "ĠDict": 3899,
      "isms": 3900,
      "Ġlocated": 3901,
      "Ġfa": 3902,
      "Ġagree": 3903,
      "ĠCanada": 3904,
      "Ġworked": 3905,
      "Ġdemoc": 3906,
      "url": 3907,
      "Ġrevolution": 3908,
      "Ġdisplay": 3909,
      "ufact": 3910,
      "Data": 3911,
      "Ġrapid": 3912,
      "Ġstories": 3913,
      "aset": 3914,
      "ĠAugust": 3915,
      "ĠMod": 3916,
      "pha": 3917,
      "Ġdatabase": 3918,
      "Ġefficient": 3919,
      "Ġchemical": 3920,
      "Ġq": 3921,
      "Ġcoe": 3922,
      "Ġprobably": 3923,
      "Ġcompan": 3924,
      "olic": 3925,
      "Ġoil": 3926,
      "ES": 3927,
      "Ġleaves": 3928,
      "48": 3929,
      "diers": 3930,
      "ĠDr": 3931,
      "ĠTra": 3932,
      "Ġslavery": 3933,
      "Ġsoldiers": 3934,
      "Ġhimself": 3935,
      "Ġmemory": 3936,
      "Ġfollows": 3937,
      "uff": 3938,
      "Ġperformance": 3939,
      "Ġatmosp": 3940,
      "Ġapplication": 3941,
      "Ġetc": 3942,
      "Ġfoot": 3943,
      "55": 3944,
      "Ġnamed": 3945,
      "After": 3946,
      "Ġdescribed": 3947,
      "ows": 3948,
      "ashington": 3949,
      "Ġcomputer": 3950,
      "ĠReg": 3951,
      "Ġreb": 3952,
      "dent": 3953,
      "ont": 3954,
      "ĠCount": 3955,
      "Ġtim": 3956,
      "ream": 3957,
      "ĠMult": 3958,
      "etime": 3959,
      "ĠWilli": 3960,
      "ĠConf": 3961,
      "Ġcred": 3962,
      "Ġbasis": 3963,
      "Ġcam": 3964,
      "orks": 3965,
      "Ġserious": 3966,
      "ĠValueError": 3967,
      "Ġmajority": 3968,
      "esc": 3969,
      "Ġwin": 3970,
      "Ġappears": 3971,
      "fully": 3972,
      "Ġinsect": 3973,
      "Ġprotection": 3974,
      "Ġstructures": 3975,
      "Ġincome": 3976,
      "ĠCivil": 3977,
      "eful": 3978,
      "Ġitems": 3979,
      "ometric": 3980,
      "ĠUnderstand": 3981,
      "Ġson": 3982,
      "Ġeyes": 3983,
      "Ġrepresented": 3984,
      "âĢĿ.": 3985,
      "can": 3986,
      "uild": 3987,
      "ĠMost": 3988,
      "itch": 3989,
      "aign": 3990,
      "np": 3991,
      "Ġfear": 3992,
      "ĠDo": 3993,
      "Ġreact": 3994,
      "ulum": 3995,
      "rated": 3996,
      "Ġevolution": 3997,
      "EN": 3998,
      "inst": 3999,
      "Ġadults": 4000,
      "Ġsafety": 4001,
      "Ġfair": 4002,
      "Ġgot": 4003,
      "Ġexactly": 4004,
      "Ġpack": 4005,
      "Ġmer": 4006,
      "ĠJapanese": 4007,
      "Ġrates": 4008,
      "ucle": 4009,
      "Ġmale": 4010,
      "roup": 4011,
      "pir": 4012,
      "count": 4013,
      "ĠÏĢ": 4014,
      "arrow": 4015,
      "Ġmis": 4016,
      "Ġgames": 4017,
      "Ġinj": 4018,
      "Ġvisual": 4019,
      "Ġblue": 4020,
      "ĠRepublic": 4021,
      "roy": 4022,
      "Ġbird": 4023,
      "Ġearlier": 4024,
      "rams": 4025,
      "Ġmanagement": 4026,
      "Ġdiagn": 4027,
      "Ġwalk": 4028,
      "AC": 4029,
      "Ġos": 4030,
      "Ġdocument": 4031,
      "Ġ180": 4032,
      "ned": 4033,
      "ĠSchool": 4034,
      "ĠAccording": 4035,
      "Ġstyle": 4036,
      "water": 4037,
      "Ġoptions": 4038,
      "Ġdegree": 4039,
      "26": 4040,
      "Ġ35": 4041,
      "Ġmultiply": 4042,
      "pass": 4043,
      "zz": 4044,
      "Ġeveryone": 4045,
      "Ġintegers": 4046,
      "imin": 4047,
      "ara": 4048,
      "displaystyle": 4049,
      "Ġmention": 4050,
      "ĠDep": 4051,
      "ĠMake": 4052,
      "ĠGovern": 4053,
      "ĠEduc": 4054,
      "Ġbit": 4055,
      "Ġbeaut": 4056,
      "Ġgradu": 4057,
      "ĠJews": 4058,
      "Ġassign": 4059,
      "Ġ26": 4060,
      "urg": 4061,
      "Ġapplied": 4062,
      "amental": 4063,
      "oviet": 4064,
      "Ġpresence": 4065,
      "ĠAB": 4066,
      "udd": 4067,
      "Ġaffected": 4068,
      "ĠCourt": 4069,
      "Ġauthority": 4070,
      "config": 4071,
      "Ġchoice": 4072,
      "pan": 4073,
      "oice": 4074,
      "yal": 4075,
      "lin": 4076,
      "Ġequival": 4077,
      "Ġplaced": 4078,
      "Ġmedia": 4079,
      "Ġnetwork": 4080,
      "ĠWestern": 4081,
      "Ġparty": 4082,
      "Ġmap": 4083,
      "uary": 4084,
      "Ġempty": 4085,
      "37": 4086,
      "fort": 4087,
      "Ġallowing": 4088,
      "oday": 4089,
      "Ġple": 4090,
      "igration": 4091,
      "Ġcolle": 4092,
      "conds": 4093,
      "Ġactual": 4094,
      "ography": 4095,
      "Ġeggs": 4096,
      "]):": 4097,
      "osing": 4098,
      "ĠUsing": 4099,
      "Ġforeign": 4100,
      "ynomial": 4101,
      "dat": 4102,
      "34": 4103,
      "estic": 4104,
      "change": 4105,
      "angles": 4106,
      "Ġenh": 4107,
      "Ġpowers": 4108,
      "uting": 4109,
      "ĠWashington": 4110,
      "Ġserved": 4111,
      "Ġonline": 4112,
      "Some": 4113,
      "ony": 4114,
      "ana": 4115,
      "Ġintellig": 4116,
      "Ġreasons": 4117,
      "ĠEach": 4118,
      "ributes": 4119,
      "Ġsettle": 4120,
      "att": 4121,
      "Res": 4122,
      "hing": 4123,
      "Ġthousands": 4124,
      "Ġera": 4125,
      "ĠSw": 4126,
      "Ġweather": 4127,
      "\".": 4128,
      "Ġgir": 4129,
      "RL": 4130,
      "Ġdead": 4131,
      "cil": 4132,
      "Ġrepresentation": 4133,
      "ĠEven": 4134,
      "iency": 4135,
      "inder": 4136,
      "anging": 4137,
      "Ġinches": 4138,
      "life": 4139,
      "39": 4140,
      "Ġesc": 4141,
      "Ġindependence": 4142,
      "Ġuseful": 4143,
      "Ġsac": 4144,
      "Ġpopulations": 4145,
      "ĠJan": 4146,
      "artment": 4147,
      "Ġsatisf": 4148,
      "Ġbott": 4149,
      "^(": 4150,
      "First": 4151,
      "Ġplot": 4152,
      "Ġintroduced": 4153,
      "ĠPo": 4154,
      "Ġpiece": 4155,
      "Ġsustain": 4156,
      "'re": 4157,
      "bert": 4158,
      "Ġmanufact": 4159,
      "conn": 4160,
      "ĠNumber": 4161,
      "ingu": 4162,
      "Ġdiscrim": 4163,
      "urrent": 4164,
      "Ġsolar": 4165,
      "ĠRead": 4166,
      "Ġsets": 4167,
      "Ġexperiment": 4168,
      "number": 4169,
      "onic": 4170,
      "Ġtrig": 4171,
      "Ġbodies": 4172,
      "Ġrelatively": 4173,
      "List": 4174,
      "\\[": 4175,
      "orders": 4176,
      "Ġfast": 4177,
      "Ġkil": 4178,
      "ĠJes": 4179,
      "ran": 4180,
      "Ġvoc": 4181,
      "ĠSoviet": 4182,
      "38": 4183,
      "Ġwoman": 4184,
      "iny": 4185,
      "Ġmatch": 4186,
      ".)": 4187,
      "ĠIts": 4188,
      "Ġcontinues": 4189,
      "Frame": 4190,
      "Ġboard": 4191,
      "Ġcombination": 4192,
      "utive": 4193,
      "Ġreform": 4194,
      "Ġpresident": 4195,
      "ĠRec": 4196,
      "Ġnearly": 4197,
      "acters": 4198,
      "].": 4199,
      "Ġbool": 4200,
      "Ġround": 4201,
      "illing": 4202,
      "mission": 4203,
      "tters": 4204,
      "ĠPre": 4205,
      "Ġmoved": 4206,
      "idents": 4207,
      "Ġflo": 4208,
      "Ġremained": 4209,
      "66": 4210,
      "Ġprivate": 4211,
      "asion": 4212,
      "Ġstarting": 4213,
      "Ġtail": 4214,
      "Ġmember": 4215,
      "Ġincreases": 4216,
      "Ġdeal": 4217,
      "Sim": 4218,
      "comes": 4219,
      "Ġship": 4220,
      "aved": 4221,
      "Ġwinter": 4222,
      "Ġoccurred": 4223,
      "Ġgoals": 4224,
      "Ġsection": 4225,
      "Ġeffort": 4226,
      "values": 4227,
      "Ġvisit": 4228,
      "ĠMarch": 4229,
      "Ġdanger": 4230,
      "Ġcharge": 4231,
      "Ġpolicies": 4232,
      "Ġvary": 4233,
      "Ġscre": 4234,
      "Ġtrack": 4235,
      "ĠHouse": 4236,
      "Im": 4237,
      "hand": 4238,
      "Ġforced": 4239,
      "yg": 4240,
      "âĤ": 4241,
      "ĠDiv": 4242,
      "Ġtoward": 4243,
      "Ġmedic": 4244,
      "ĠID": 4245,
      "ĠVir": 4246,
      "more": 4247,
      "Ġacqu": 4248,
      "Ġcosts": 4249,
      "Ġord": 4250,
      "Ġremember": 4251,
      "Ġearn": 4252,
      "issions": 4253,
      "Ġ32": 4254,
      "ĠOct": 4255,
      "Ġemotions": 4256,
      "Ġtrial": 4257,
      "Ġtroops": 4258,
      "Ġconnected": 4259,
      "Ġmole": 4260,
      "igate": 4261,
      "aults": 4262,
      "Ġ197": 4263,
      "Field": 4264,
      "Ġdx": 4265,
      "aled": 4266,
      "Ġreceive": 4267,
      "Ġremaining": 4268,
      "string": 4269,
      "Ġcro": 4270,
      "Ġtasks": 4271,
      "With": 4272,
      "Ġdiseases": 4273,
      "ev": 4274,
      "Ġveget": 4275,
      "Ġshall": 4276,
      "Ġbacter": 4277,
      "Ġmarked": 4278,
      "'(": 4279,
      "Ġgiving": 4280,
      "ĠRel": 4281,
      "Ġfully": 4282,
      "ĠGeneral": 4283,
      "ulated": 4284,
      "ĠInst": 4285,
      "Ġeight": 4286,
      "ĠHand": 4287,
      "Ġcard": 4288,
      "ĠEl": 4289,
      "olving": 4290,
      "ait": 4291,
      "Ġrare": 4292,
      "Ġsus": 4293,
      "Ġreligion": 4294,
      "state": 4295,
      "antic": 4296,
      "Ġmicro": 4297,
      "ĠForm": 4298,
      "izer": 4299,
      "Ġsignificantly": 4300,
      "Ġjustice": 4301,
      "Ġcircum": 4302,
      "ansion": 4303,
      "Ġeffectively": 4304,
      "ternal": 4305,
      "ĠPeople": 4306,
      "Ġaspects": 4307,
      "Ġbelong": 4308,
      "Ġserve": 4309,
      "Ġcand": 4310,
      "Ġslope": 4311,
      "ressive": 4312,
      "Ġmathematical": 4313,
      "Ġcampaign": 4314,
      "Mod": 4315,
      "PI": 4316,
      "Ġpun": 4317,
      "Ġhot": 4318,
      "liament": 4319,
      "oud": 4320,
      "Ġobserved": 4321,
      "Ġweeks": 4322,
      "Ġinvolve": 4323,
      "Ġstraight": 4324,
      "off": 4325,
      "[\"": 4326,
      "Ġformer": 4327,
      "Ġsoft": 4328,
      "ĠLear": 4329,
      "Ġchallenge": 4330,
      "And": 4331,
      "Ġslaves": 4332,
      "ĠGre": 4333,
      "iforn": 4334,
      "Ġtrying": 4335,
      "Ġeye": 4336,
      "Ġsounds": 4337,
      "Ġliber": 4338,
      "Ġcharacteristics": 4339,
      "Ġprocesses": 4340,
      "Ġperspect": 4341,
      "ino": 4342,
      "ĠJune": 4343,
      "Ġfuel": 4344,
      "Ġdefinition": 4345,
      "Ġroom": 4346,
      "Ġderivative": 4347,
      "Ġcommonly": 4348,
      "ĠUp": 4349,
      "Ġdivision": 4350,
      "Ġeating": 4351,
      "ĠRevolution": 4352,
      "Ġalone": 4353,
      "Ġgenerate": 4354,
      "Ġcollection": 4355,
      "II": 4356,
      "He": 4357,
      "Ġdecades": 4358,
      "care": 4359,
      "Ġfat": 4360,
      "Ġsetting": 4361,
      "Ġsouthern": 4362,
      "Ġsuggests": 4363,
      "Ġfoss": 4364,
      "Ġextra": 4365,
      "Ġnumerous": 4366,
      "LE": 4367,
      "Ġrepl": 4368,
      "Ġversion": 4369,
      "Ġinnov": 4370,
      "cel": 4371,
      "Ġcommer": 4372,
      "Ġletter": 4373,
      "pril": 4374,
      "Ġnorthern": 4375,
      "rong": 4376,
      "Ġmotiv": 4377,
      "Ġitem": 4378,
      "roll": 4379,
      "lers": 4380,
      "Ġrace": 4381,
      "Ġsimplify": 4382,
      "Ġlandsc": 4383,
      "yd": 4384,
      "ĠâīĪ": 4385,
      "Ġ70": 4386,
      "Ġcompletely": 4387,
      "oke": 4388,
      "Ġprinciples": 4389,
      "Ġnative": 4390,
      "peror": 4391,
      "Ġdecimal": 4392,
      "Ġasked": 4393,
      "Ġfavor": 4394,
      "Ġded": 4395,
      "uman": 4396,
      "Ġveh": 4397,
      "Ġcomponents": 4398,
      "iff": 4399,
      "Ġopposite": 4400,
      "porary": 4401,
      "ĠHol": 4402,
      "ords": 4403,
      "Ġexists": 4404,
      "iar": 4405,
      "Ġappropriate": 4406,
      "ensor": 4407,
      "Ġvill": 4408,
      "They": 4409,
      "Ġseparate": 4410,
      "Ġacceleration": 4411,
      "Ġwaste": 4412,
      "Ġleave": 4413,
      "Ġcharacters": 4414,
      "Ġwanted": 4415,
      "rick": 4416,
      "Ġreported": 4417,
      "Ġbank": 4418,
      "Ġjourney": 4419,
      "Ġlearned": 4420,
      "apter": 4421,
      "Ġupper": 4422,
      "oking": 4423,
      "ĠLat": 4424,
      "emy": 4425,
      "arent": 4426,
      "Ġsong": 4427,
      "Ġtopic": 4428,
      "ĠPal": 4429,
      "Ġoperation": 4430,
      "Ġdepending": 4431,
      "Ġcontroll": 4432,
      "ifornia": 4433,
      "eding": 4434,
      "Ġtitle": 4435,
      "Ġsignificance": 4436,
      "Ġliterature": 4437,
      "Ġtests": 4438,
      "Ġcounter": 4439,
      "Ġisland": 4440,
      "Ġdenominator": 4441,
      "semb": 4442,
      "Ġfractions": 4443,
      "Ġoutcomes": 4444,
      "Ġcontinuous": 4445,
      "Ġapproaches": 4446,
      "Ġdimens": 4447,
      "Ġpd": 4448,
      "oken": 4449,
      "ĠJuly": 4450,
      "na": 4451,
      "ours": 4452,
      "Ġrefers": 4453,
      "pped": 4454,
      "Ġdigit": 4455,
      "ham": 4456,
      "ĠAsia": 4457,
      "AN": 4458,
      "Ġ%": 4459,
      "Another": 4460,
      "uk": 4461,
      "Ġbeg": 4462,
      "ĠBat": 4463,
      "Ġencourage": 4464,
      "izon": 4465,
      "ios": 4466,
      "Ġenter": 4467,
      "Ġforward": 4468,
      "inally": 4469,
      "Ġhope": 4470,
      "amin": 4471,
      "ĠWilliam": 4472,
      "ĠSm": 4473,
      "68": 4474,
      "ologists": 4475,
      "resh": 4476,
      "Ġpick": 4477,
      "Ġmeant": 4478,
      "Ġeasier": 4479,
      "Ġdiverse": 4480,
      "ĠSpe": 4481,
      "ĠThus": 4482,
      "Ġurban": 4483,
      "alled": 4484,
      "Ġnucle": 4485,
      "tage": 4486,
      "Ġdefe": 4487,
      "swers": 4488,
      "ĠSept": 4489,
      "anation": 4490,
      "Ġprimarily": 4491,
      "egin": 4492,
      "position": 4493,
      "Ġbad": 4494,
      "Ġcompre": 4495,
      "areness": 4496,
      "Ġchanging": 4497,
      "cest": 4498,
      "Ġinterval": 4499,
      "Ġep": 4500,
      "append": 4501,
      "Ġdidn": 4502,
      "Un": 4503,
      "Ġcycle": 4504,
      "riculum": 4505,
      "ander": 4506,
      "dir": 4507,
      "spe": 4508,
      "Ġcold": 4509,
      "Ġvers": 4510,
      "Ġcast": 4511,
      "rogen": 4512,
      "Ġequivalent": 4513,
      "tan": 4514,
      "ondon": 4515,
      "Ġkilled": 4516,
      "ognitive": 4517,
      "Ġcompanies": 4518,
      "Ġsave": 4519,
      "Ġfeelings": 4520,
      "Ġlen": 4521,
      "ancy": 4522,
      "Ġburn": 4523,
      "Ġchance": 4524,
      "Ġreduced": 4525,
      "ifically": 4526,
      "Ġpieces": 4527,
      "bed": 4528,
      "Ġsigns": 4529,
      "etermine": 4530,
      "Ġmachine": 4531,
      "Ġparallel": 4532,
      "44": 4533,
      "Ġmol": 4534,
      "cious": 4535,
      "Ġprofessional": 4536,
      "Ġfundamental": 4537,
      "Ġinequality": 4538,
      "alities": 4539,
      "Ġseconds": 4540,
      "Ġattract": 4541,
      "valu": 4542,
      "Ġ1000": 4543,
      "ĠIntern": 4544,
      "ibly": 4545,
      "Ġocean": 4546,
      "ĠCalifornia": 4547,
      "Ġletters": 4548,
      "Ġconfidence": 4549,
      "Ġsummer": 4550,
      "ĠCath": 4551,
      "Ġrob": 4552,
      "Ġindustrial": 4553,
      "Ġprove": 4554,
      "Ġdry": 4555,
      "river": 4556,
      "AB": 4557,
      "Ġchurch": 4558,
      "airs": 4559,
      "Ġvideo": 4560,
      "do": 4561,
      "Ġacademic": 4562,
      "ded": 4563,
      "Ġdestroy": 4564,
      "Ġsociet": 4565,
      "atus": 4566,
      "yl": 4567,
      "ĠHealth": 4568,
      "train": 4569,
      "Ġinterpret": 4570,
      "Ġbecoming": 4571,
      "Ġplane": 4572,
      "sub": 4573,
      "ĠConst": 4574,
      "arb": 4575,
      "Ġlabel": 4576,
      "Ġworth": 4577,
      "tery": 4578,
      "Ġpolynomial": 4579,
      "ĠJesus": 4580,
      "rupt": 4581,
      "Ġpercentage": 4582,
      "dered": 4583,
      "Ġwidely": 4584,
      "Ġstruggle": 4585,
      "Ġdra": 4586,
      "Ġinteresting": 4587,
      "Ġeverything": 4588,
      "Ġconclusion": 4589,
      "ĠChildren": 4590,
      "Ġcou": 4591,
      "Ġcultures": 4592,
      "Ġsituations": 4593,
      "Ġsubtract": 4594,
      "board": 4595,
      "Ġvital": 4596,
      "Ġterritory": 4597,
      "Ġinh": 4598,
      "cosystem": 4599,
      "Ġsolid": 4600,
      "Ġfort": 4601,
      "Ġwidth": 4602,
      "oses": 4603,
      "Ġphilosoph": 4604,
      "Ġbenefit": 4605,
      "orial": 4606,
      "bda": 4607,
      "05": 4608,
      "rest": 4609,
      "Ġdescribe": 4610,
      "rors": 4611,
      "ĠApril": 4612,
      "Ġflood": 4613,
      "reed": 4614,
      "Ġclasses": 4615,
      "Ġmission": 4616,
      "Ġillust": 4617,
      "fty": 4618,
      "Ġreached": 4619,
      "Ġleadership": 4620,
      "ĠRem": 4621,
      "Ġpatients": 4622,
      "ĠTrans": 4623,
      "Ġadvance": 4624,
      "Ġteeth": 4625,
      "Ġolder": 4626,
      "Ġpurch": 4627,
      "Ġfaith": 4628,
      "Ġfigures": 4629,
      "Ġconstitution": 4630,
      "Ġdisorder": 4631,
      "iverse": 4632,
      "Ġdro": 4633,
      "ĠPhil": 4634,
      "Ġexpon": 4635,
      "ĠOver": 4636,
      "Ġcarried": 4637,
      "Ġsold": 4638,
      "Ġinfluenced": 4639,
      "Ġschol": 4640,
      "SE": 4641,
      "Ġsqrt": 4642,
      "ĠDefaults": 4643,
      "Ġmovements": 4644,
      "Ġanx": 4645,
      "uing": 4646,
      "arser": 4647,
      "Ġreview": 4648,
      "Ġfoods": 4649,
      "Solution": 4650,
      "Ġmut": 4651,
      "Ġatmosphere": 4652,
      "ategy": 4653,
      "ĠAdditionally": 4654,
      "ml": 4655,
      "iments": 4656,
      "osure": 4657,
      "ename": 4658,
      "Ġgoes": 4659,
      "Ġagg": 4660,
      "Ġbuildings": 4661,
      ")]": 4662,
      "95": 4663,
      "Ġassist": 4664,
      "ĠDem": 4665,
      "Ġstone": 4666,
      "lies": 4667,
      "roduction": 4668,
      "Ġrein": 4669,
      "Ġlaun": 4670,
      "Ġscen": 4671,
      "ĠArmy": 4672,
      "Ġviolence": 4673,
      "ober": 4674,
      "Ġadvoc": 4675,
      "aters": 4676,
      "hi": 4677,
      "Ġminor": 4678,
      "Ġcreation": 4679,
      "ball": 4680,
      "Ġreferred": 4681,
      "Ġpen": 4682,
      "valid": 4683,
      "Ġcurve": 4684,
      "Ġtransfer": 4685,
      "ĠTwo": 4686,
      "gebra": 4687,
      "Ġspring": 4688,
      "step": 4689,
      "Ġabsol": 4690,
      "Ġlayer": 4691,
      "Ġsupported": 4692,
      "Ġvirt": 4693,
      "Ġmist": 4694,
      "asty": 4695,
      "Ġcollab": 4696,
      "ĠRa": 4697,
      "Ġresist": 4698,
      "Ġhear": 4699,
      "Ġdetermined": 4700,
      "inations": 4701,
      "AD": 4702,
      "ilit": 4703,
      "Ġgenetic": 4704,
      "Ġhighest": 4705,
      "Ġinfection": 4706,
      "cember": 4707,
      "Ġtesting": 4708,
      "Ġexpansion": 4709,
      "Ġcapacity": 4710,
      "info": 4711,
      "gar": 4712,
      "Ġadding": 4713,
      "Ġcovered": 4714,
      "rical": 4715,
      "Ġdivers": 4716,
      "imeter": 4717,
      "print": 4718,
      "stituting": 4719,
      "Ġplayer": 4720,
      "Ġvalu": 4721,
      "west": 4722,
      "Ġleader": 4723,
      "iful": 4724,
      "Ġecosystem": 4725,
      "Ġotherwise": 4726,
      "Ġfasc": 4727,
      "Ġastr": 4728,
      "tered": 4729,
      "write": 4730,
      "Ġsites": 4731,
      "}}{": 4732,
      "Ġsentence": 4733,
      "Ġisol": 4734,
      "Ġstrategy": 4735,
      "Ġcompar": 4736,
      "inc": 4737,
      "Ġinternal": 4738,
      "Ġ---": 4739,
      "usion": 4740,
      "Ġdevice": 4741,
      "rew": 4742,
      "ĠLondon": 4743,
      "En": 4744,
      "ria": 4745,
      "infty": 4746,
      "being": 4747,
      "Ġcolonial": 4748,
      "Ġdin": 4749,
      "hether": 4750,
      "Ġodd": 4751,
      "poses": 4752,
      "77": 4753,
      "Ġnotes": 4754,
      "Ġhelping": 4755,
      "98": 4756,
      "Ġprojects": 4757,
      "Ġslave": 4758,
      "Ġperiods": 4759,
      ".\"\"\"": 4760,
      "uls": 4761,
      "rant": 4762,
      "Ġcharg": 4763,
      "Is": 4764,
      "ware": 4765,
      "Ġinterests": 4766,
      "reci": 4767,
      "Ġtemperatures": 4768,
      "Ġweak": 4769,
      "ague": 4770,
      "Ġinfect": 4771,
      "ĠFact": 4772,
      "ifies": 4773,
      "Ġremoved": 4774,
      "ĠClass": 4775,
      "Ġ[]": 4776,
      "Ġroll": 4777,
      "Ġanything": 4778,
      "tes": 4779,
      "ees": 4780,
      "ama": 4781,
      "Ġgreatest": 4782,
      "Ġtold": 4783,
      "enty": 4784,
      "Ġpromote": 4785,
      "Ġbra": 4786,
      "ĠSum": 4787,
      "ĠOut": 4788,
      "Qu": 4789,
      "ĠSeptember": 4790,
      "run": 4791,
      "roduct": 4792,
      "ĠPrint": 4793,
      "ĠURL": 4794,
      "Ġships": 4795,
      "ĠEducation": 4796,
      "ĠMexico": 4797,
      "}$,": 4798,
      "ĠStudents": 4799,
      "Ġanti": 4800,
      "Ġextract": 4801,
      "iform": 4802,
      "500": 4803,
      "Ġinvent": 4804,
      "Ġhabitat": 4805,
      "Ġdu": 4806,
      "Ġincorrect": 4807,
      "Ġvote": 4808,
      "Ġpal": 4809,
      "Ġturned": 4810,
      "ĠInter": 4811,
      "Ġlesson": 4812,
      "IT": 4813,
      "Ġfaced": 4814,
      "ĠIdent": 4815,
      "iable": 4816,
      "ped": 4817,
      "ĠJanuary": 4818,
      "Ġperhaps": 4819,
      "asts": 4820,
      "Ġ195": 4821,
      "Ġconvers": 4822,
      "Ġlogging": 4823,
      "Ġshared": 4824,
      "Ġapplications": 4825,
      "Ġexpressed": 4826,
      "Ġlanguages": 4827,
      "Ġtru": 4828,
      "Find": 4829,
      "Ġbottom": 4830,
      "ĠSen": 4831,
      "fil": 4832,
      "ĠDNA": 4833,
      "Ġrh": 4834,
      "Ġanswers": 4835,
      "ĠTur": 4836,
      "ĠNative": 4837,
      "Ġnews": 4838,
      "Ġincorpor": 4839,
      "Ġfeature": 4840,
      "Ġprey": 4841,
      "96": 4842,
      "][": 4843,
      "tles": 4844,
      "astern": 4845,
      "ĠDav": 4846,
      "Ġhearing": 4847,
      "Ġbackground": 4848,
      "Ġpicture": 4849,
      "Ġhappen": 4850,
      "Ġvast": 4851,
      "ĠMars": 4852,
      "During": 4853,
      "Ġiron": 4854,
      "AL": 4855,
      "with": 4856,
      "Ġhuge": 4857,
      "Ġforests": 4858,
      "reme": 4859,
      "Ġ,": 4860,
      "Ġfriend": 4861,
      "Ġconsequences": 4862,
      "Ġbeliefs": 4863,
      "Ġillness": 4864,
      "oin": 4865,
      "iffe": 4866,
      "Ġbinary": 4867,
      "Ġnations": 4868,
      "Ġstars": 4869,
      "Ġheavy": 4870,
      "Ġfrequently": 4871,
      "Ġconv": 4872,
      "rome": 4873,
      "Ġfinally": 4874,
      "Ġcoming": 4875,
      "Ġgard": 4876,
      "ĠScience": 4877,
      "Ġvision": 4878,
      "Ġadult": 4879,
      "^-": 4880,
      "ometry": 4881,
      "Ġremove": 4882,
      "ica": 4883,
      "Ġlands": 4884,
      "ags": 4885,
      "Ġdru": 4886,
      "Ġdensity": 4887,
      "ĠHen": 4888,
      "31": 4889,
      "ĠDecember": 4890,
      "Ġscore": 4891,
      "cal": 4892,
      "Ġorganization": 4893,
      "Ġlinked": 4894,
      "anch": 4895,
      "ln": 4896,
      "ĠQuestion": 4897,
      "mark": 4898,
      "ĠMuslim": 4899,
      "From": 4900,
      "Ġshowed": 4901,
      "ously": 4902,
      "lay": 4903,
      "ĠCommun": 4904,
      "Ġvaluable": 4905,
      "mitted": 4906,
      "Ġseven": 4907,
      "():": 4908,
      "alpha": 4909,
      "pat": 4910,
      "Ġshapes": 4911,
      "CO": 4912,
      "ĠRom": 4913,
      "^(-": 4914,
      "ota": 4915,
      "Ġnothing": 4916,
      "Ġpurs": 4917,
      "eta": 4918,
      "ĠSystem": 4919,
      "Ġintelligence": 4920,
      "wide": 4921,
      "Ġopin": 4922,
      "Ġconqu": 4923,
      "Ġ+=": 4924,
      "Ġdetails": 4925,
      "Ġmag": 4926,
      "Ġtherapy": 4927,
      "Ġdecided": 4928,
      "Ġid": 4929,
      "Ġcool": 4930,
      "Ġlegacy": 4931,
      "Ġ29": 4932,
      "Ġhom": 4933,
      "Ġequality": 4934,
      "Ġexercise": 4935,
      "Ġexperienced": 4936,
      "Int": 4937,
      "ĠJust": 4938,
      "Ġdetect": 4939,
      "Ġmyth": 4940,
      "ĠException": 4941,
      "ovember": 4942,
      "Ġrail": 4943,
      "ĠOctober": 4944,
      "zing": 4945,
      ")\\": 4946,
      "ĠJames": 4947,
      "Ġhomes": 4948,
      "Ġappoint": 4949,
      "Ġancest": 4950,
      "Ġfram": 4951,
      "inking": 4952,
      "Ġiniti": 4953,
      "hist": 4954,
      "76": 4955,
      "perial": 4956,
      "Ġ\\\\": 4957,
      "Ġsurvive": 4958,
      "ĠCity": 4959,
      "crete": 4960,
      "erved": 4961,
      "ancing": 4962,
      "Ġtheorem": 4963,
      "Ġestimated": 4964,
      "`.": 4965,
      "Ġempire": 4966,
      "idden": 4967,
      "see": 4968,
      "ĠOf": 4969,
      "Ġque": 4970,
      "ailed": 4971,
      "Ġwrong": 4972,
      "Ġrecognize": 4973,
      "Ġdepth": 4974,
      "Ġtruth": 4975,
      "85": 4976,
      "Ġrunning": 4977,
      "Ġguid": 4978,
      "era": 4979,
      "Ġdiscover": 4980,
      "efore": 4981,
      "ĠOpt": 4982,
      "Ġnarr": 4983,
      "Ġign": 4984,
      "field": 4985,
      "Ġsurpr": 4986,
      "igation": 4987,
      "Ġcorresponding": 4988,
      "ĠâĪļ(": 4989,
      "Ġbaby": 4990,
      "Ġmostly": 4991,
      "Ġoption": 4992,
      "Ġinfin": 4993,
      "ĠAustralia": 4994,
      "ĠMiddle": 4995,
      "rid": 4996,
      "Ġinsects": 4997,
      "oe": 4998,
      "ologies": 4999,
      "inks": 5000,
      "}(": 5001,
      "Ġunf": 5002,
      "cs": 5003,
      "âĢĿ,": 5004,
      "section": 5005,
      "Ġ500": 5006,
      "aching": 5007,
      "Ġsquares": 5008,
      "ologist": 5009,
      "ĠBecause": 5010,
      "Ġhorizon": 5011,
      "ĠNow": 5012,
      "ĠSocial": 5013,
      "Ġnovel": 5014,
      "ĠVirgin": 5015,
      "Ġfarmers": 5016,
      "Ġroles": 5017,
      "Ġroad": 5018,
      "Ġperp": 5019,
      "Ġsecurity": 5020,
      "Ġprefer": 5021,
      "Ġfost": 5022,
      "Ġedge": 5023,
      "clusive": 5024,
      "Ġcontribute": 5025,
      "Ġplaying": 5026,
      "olve": 5027,
      "ronic": 5028,
      "ĠÎ¸": 5029,
      "Ġskill": 5030,
      "ĠVol": 5031,
      "Ġidentified": 5032,
      "Ġhappens": 5033,
      "ĠÃ·": 5034,
      "Ġcontrast": 5035,
      "Ġexisting": 5036,
      "Ġowners": 5037,
      "ĠSun": 5038,
      "nic": 5039,
      "Ġoffic": 5040,
      "Ġideal": 5041,
      "ĠMass": 5042,
      "Ġplays": 5043,
      "Ġdynam": 5044,
      "object": 5045,
      "rief": 5046,
      "Ġequip": 5047,
      "Ġcurriculum": 5048,
      "plications": 5049,
      "Ġadvantage": 5050,
      "Ġvoltage": 5051,
      "ðĿ": 5052,
      "ĠSecond": 5053,
      "Ġemail": 5054,
      "Ġtaught": 5055,
      "Ġcomponent": 5056,
      "book": 5057,
      "Ġprinciple": 5058,
      "ĨĴ": 5059,
      "Ġconservation": 5060,
      "ube": 5061,
      "ĠDetermine": 5062,
      "Ġmathematics": 5063,
      "Ġdistribut": 5064,
      "inating": 5065,
      "erg": 5066,
      "Ġagricultural": 5067,
      "Ġmob": 5068,
      "Ġmaster": 5069,
      "Ġcomprehens": 5070,
      "Ġconclud": 5071,
      "med": 5072,
      "Ġeast": 5073,
      "Ġadvanced": 5074,
      "VID": 5075,
      "eff": 5076,
      "iance": 5077,
      "Ġracial": 5078,
      "ky": 5079,
      "Ġpractical": 5080,
      "uzz": 5081,
      "Ġbillion": 5082,
      "dig": 5083,
      "Not": 5084,
      "Ġlargely": 5085,
      "bru": 5086,
      "Ġshar": 5087,
      "Ġspect": 5088,
      "Ġpet": 5089,
      "Ġ300": 5090,
      "--------": 5091,
      "Ġcolors": 5092,
      "che": 5093,
      "Ġreality": 5094,
      "||": 5095,
      "ĠThrough": 5096,
      "Ġcolonies": 5097,
      "Ġpan": 5098,
      "Ġaccurate": 5099,
      "uted": 5100,
      "osen": 5101,
      "Ġrecognized": 5102,
      "encing": 5103,
      "Ġenvironments": 5104,
      "Ġimpl": 5105,
      "Ġ2017": 5106,
      "process": 5107,
      "Ġpurposes": 5108,
      "ĠMiss": 5109,
      "Ġextreme": 5110,
      "ĠPort": 5111,
      "Re": 5112,
      "icks": 5113,
      "Ġ$(": 5114,
      "DataFrame": 5115,
      "ping": 5116,
      "Ġspecified": 5117,
      "Ġwestern": 5118,
      "ĠResearch": 5119,
      "Ġcong": 5120,
      "level": 5121,
      "Ġinstruct": 5122,
      "Ġsurvival": 5123,
      "Ġrain": 5124,
      "ĠGeorge": 5125,
      "Ġarguments": 5126,
      "Ġchallenging": 5127,
      "ĠSqu": 5128,
      "Ġpaint": 5129,
      "ford": 5130,
      "Ġextremely": 5131,
      "Ġshift": 5132,
      "Ġpositions": 5133,
      "Ġdram": 5134,
      "rates": 5135,
      "ĠDi": 5136,
      "ĠNovember": 5137,
      "Ġconfirm": 5138,
      "Ġtrust": 5139,
      "Ġdespite": 5140,
      "IC": 5141,
      "pol": 5142,
      "Ġstandards": 5143,
      "Ġdepends": 5144,
      "ĠBra": 5145,
      "Ġbehaviors": 5146,
      "Ġnest": 5147,
      "Ġplat": 5148,
      "Ġadjust": 5149,
      "Ġconsidering": 5150,
      "Ġunivers": 5151,
      "Ġgrant": 5152,
      "amb": 5153,
      "-\\": 5154,
      "Ġcognitive": 5155,
      "road": 5156,
      "xygen": 5157,
      "Ġrepresenting": 5158,
      "anged": 5159,
      "88": 5160,
      "Ġensuring": 5161,
      "Ġcombined": 5162,
      "Ġpatient": 5163,
      "Ġpairs": 5164,
      "ĠTime": 5165,
      "rier": 5166,
      "ĠCoun": 5167,
      "Ġcere": 5168,
      "Ġreaction": 5169,
      "bruary": 5170,
      "Ġtang": 5171,
      "Ġsubsequ": 5172,
      "ĠPat": 5173,
      "Ġtraditions": 5174,
      "Ġmentioned": 5175,
      "Ġsurrounding": 5176,
      "uracy": 5177,
      "Ġbacteria": 5178,
      "Ġprison": 5179,
      "ttp": 5180,
      "const": 5181,
      "Ġkept": 5182,
      "dt": 5183,
      "Ġdoub": 5184,
      "ructure": 5185,
      "Ġlessons": 5186,
      "Ġmess": 5187,
      "error": 5188,
      "Ġproced": 5189,
      "down": 5190,
      "Ġspiritual": 5191,
      "ĠRs": 5192,
      "anges": 5193,
      "Ġfocused": 5194,
      "hips": 5195,
      "Ġmamm": 5196,
      "Ġphen": 5197,
      "rary": 5198,
      "Ġreturns": 5199,
      "eper": 5200,
      "Ġpreviously": 5201,
      "ĠYour": 5202,
      "Ġfelt": 5203,
      "Ġcircuit": 5204,
      "Ġcontract": 5205,
      "Ġorganizations": 5206,
      "Ġoffice": 5207,
      "ĠSpain": 5208,
      "ĠExt": 5209,
      "Ġexistence": 5210,
      "Ġpoet": 5211,
      "apping": 5212,
      "}$$": 5213,
      "Ġraised": 5214,
      "Ġfoundation": 5215,
      "ĠRussia": 5216,
      "Ġassert": 5217,
      "output": 5218,
      "CD": 5219,
      "plate": 5220,
      "isation": 5221,
      "Why": 5222,
      "ĠExpl": 5223,
      "Ġinstitutions": 5224,
      "ĠMc": 5225,
      "Ġcommercial": 5226,
      "Ġnutri": 5227,
      "/(": 5228,
      "Ġgravity": 5229,
      "Ġcards": 5230,
      "Ġgets": 5231,
      "Ġgenerations": 5232,
      "urally": 5233,
      "Ġ48": 5234,
      "Ġfle": 5235,
      "=\\": 5236,
      "Sh": 5237,
      "`,": 5238,
      "Ġawareness": 5239,
      "Ġleaving": 5240,
      "IV": 5241,
      "Ġtransl": 5242,
      "elta": 5243,
      "ĠInstead": 5244,
      "'ll": 5245,
      "Ġemerg": 5246,
      "01": 5247,
      "alt": 5248,
      "Ġfixed": 5249,
      "ĠBudd": 5250,
      "Ġsumm": 5251,
      "ĠAc": 5252,
      "ttps": 5253,
      "49": 5254,
      "Ġcoordinates": 5255,
      "Ġexhib": 5256,
      "ĠPyth": 5257,
      "Ġimmediately": 5258,
      "Ġchoices": 5259,
      "ĠLoad": 5260,
      "Ġdoctor": 5261,
      "Ġdouble": 5262,
      "Ġcausing": 5263,
      "ĠCentral": 5264,
      "omas": 5265,
      "Ġexposure": 5266,
      "ĠSur": 5267,
      "Ġprices": 5268,
      "Step": 5269,
      "Ġweap": 5270,
      "Ġdiss": 5271,
      "Ġmo": 5272,
      "Ġisn": 5273,
      "ressed": 5274,
      "Ġgirls": 5275,
      "Ġpromin": 5276,
      "ena": 5277,
      "Ġmouth": 5278,
      "Ġfeeling": 5279,
      "Ġfert": 5280,
      "Ġdiscovery": 5281,
      "istry": 5282,
      "Ġswe": 5283,
      "othing": 5284,
      "Ġcore": 5285,
      "Ġimmune": 5286,
      "ĠCatholic": 5287,
      "Ġpaid": 5288,
      "Ġsought": 5289,
      "Ġsignal": 5290,
      "Many": 5291,
      "Ġmassive": 5292,
      "Ġthick": 5293,
      "ĠLou": 5294,
      "ris": 5295,
      "ĠMary": 5296,
      "Ġyellow": 5297,
      "riage": 5298,
      "ĠLatin": 5299,
      "ĠItaly": 5300,
      "63": 5301,
      "Over": 5302,
      "Ġdigital": 5303,
      "ĠRights": 5304,
      "king": 5305,
      "Ġleads": 5306,
      "Ġyourself": 5307,
      "Ġmainly": 5308,
      "ervice": 5309,
      "ĠData": 5310,
      "Ġsolving": 5311,
      "Ġhop": 5312,
      "Ġlandscape": 5313,
      "oted": 5314,
      "Ġaware": 5315,
      "Ġmoral": 5316,
      "Ġexchange": 5317,
      "Ġunknown": 5318,
      "Ġrational": 5319,
      "Ġanxiety": 5320,
      "Ġincreasingly": 5321,
      "ĠMy": 5322,
      "Ġreject": 5323,
      "ĠArch": 5324,
      "Ġclearly": 5325,
      "ĠWork": 5326,
      "Ġexpressions": 5327,
      "ĠHar": 5328,
      "78": 5329,
      "abor": 5330,
      "Ġemissions": 5331,
      "Ind": 5332,
      "Ġpros": 5333,
      "Ġliqu": 5334,
      "ett": 5335,
      "ails": 5336,
      "ĠIslam": 5337,
      "umber": 5338,
      "ipal": 5339,
      "Ar": 5340,
      "Ġclient": 5341,
      "begin": 5342,
      "Ġstim": 5343,
      "ĠKore": 5344,
      "Ġevolved": 5345,
      "Ġspent": 5346,
      ")}": 5347,
      "Ġ75": 5348,
      "Ġsand": 5349,
      "urt": 5350,
      "Ġdiscrimination": 5351,
      "Ġparameters": 5352,
      "Ġtorch": 5353,
      "ĠSolve": 5354,
      "axis": 5355,
      "Ġparties": 5356,
      "ension": 5357,
      "ĠJud": 5358,
      "([": 5359,
      "Ġpand": 5360,
      "rum": 5361,
      "Ġpup": 5362,
      "Ġaxis": 5363,
      "Ġast": 5364,
      "Ġconcerns": 5365,
      "ĠLog": 5366,
      "Ġcrops": 5367,
      "going": 5368,
      "Ġpy": 5369,
      "ĠUK": 5370,
      "Ġbuy": 5371,
      "ĠWomen": 5372,
      "Ġdirectory": 5373,
      "power": 5374,
      "Ġformat": 5375,
      "ĠPers": 5376,
      "Ġoxygen": 5377,
      "icated": 5378,
      "Ġclosed": 5379,
      "Ġoptional": 5380,
      "Ġreducing": 5381,
      "Problem": 5382,
      "boxed": 5383,
      "Ġequipment": 5384,
      "ĠHenry": 5385,
      "asure": 5386,
      "Note": 5387,
      "Ġarchitecture": 5388,
      "Ġclim": 5389,
      "Ġtiss": 5390,
      "Ġbrother": 5391,
      "ĠMount": 5392,
      "No": 5393,
      "Ġvaccine": 5394,
      "ĠAlex": 5395,
      "abul": 5396,
      "Ġartists": 5397,
      "ĠDespite": 5398,
      "Ġformation": 5399,
      "Ġwatch": 5400,
      "Ġdomestic": 5401,
      "Although": 5402,
      "Ġwebs": 5403,
      "Ġrecords": 5404,
      "otic": 5405,
      "ĠIr": 5406,
      "Ġplans": 5407,
      "Ġgeneration": 5408,
      "Ġgrass": 5409,
      ".\")": 5410,
      "Ġprotein": 5411,
      "iers": 5412,
      "62": 5413,
      "Ġparticles": 5414,
      "Ġreturned": 5415,
      "lete": 5416,
      "Ġcurrently": 5417,
      "endment": 5418,
      "related": 5419,
      "stood": 5420,
      "ĠDec": 5421,
      "Ġcomfort": 5422,
      "gn": 5423,
      "ĠHigh": 5424,
      "Ġcandid": 5425,
      "rian": 5426,
      "ugh": 5427,
      "Ġec": 5428,
      "Ġalternative": 5429,
      "ille": 5430,
      "Ġautom": 5431,
      "ĠIsland": 5432,
      "Ġwalls": 5433,
      "Ġready": 5434,
      "Ġplanning": 5435,
      "Ġmultiplication": 5436,
      "eenth": 5437,
      "Ġpresented": 5438,
      "Ġquadratic": 5439,
      "Ġrelevant": 5440,
      "ightly": 5441,
      "Ġpredators": 5442,
      "Ġphase": 5443,
      "Ġmel": 5444,
      "ourage": 5445,
      "istan": 5446,
      "bf": 5447,
      "range": 5448,
      "Ġnotice": 5449,
      "Ġsubjects": 5450,
      "ĠCOVID": 5451,
      "Ġapart": 5452,
      "Ġsem": 5453,
      "oding": 5454,
      "ĠSu": 5455,
      "Ġwaves": 5456,
      "Ġdiversity": 5457,
      "iplying": 5458,
      "ĠArab": 5459,
      "ĠTri": 5460,
      "Ġresponsibility": 5461,
      "Ġquantity": 5462,
      "Ġpassword": 5463,
      "Ġestimate": 5464,
      "iring": 5465,
      "Ġ120": 5466,
      "Ġcontem": 5467,
      "ixt": 5468,
      "ĠFebruary": 5469,
      "ĠWhy": 5470,
      "house": 5471,
      "Ġhappened": 5472,
      "ango": 5473,
      "Ġlegisl": 5474,
      "ĠBoth": 5475,
      "Ġtechnique": 5476,
      "igma": 5477,
      "Ġtribes": 5478,
      "aint": 5479,
      "Ġappreci": 5480,
      "Ġrelation": 5481,
      "Ġpossess": 5482,
      "Ġabsor": 5483,
      "cipl": 5484,
      "Ġdut": 5485,
      "Ġconfiguration": 5486,
      "oples": 5487,
      "ĠHandle": 5488,
      "All": 5489,
      "ĠBattle": 5490,
      "ĠYear": 5491,
      "Ġelimin": 5492,
      "ĠAny": 5493,
      "ieval": 5494,
      "partial": 5495,
      "Ġfif": 5496,
      "Ġrecently": 5497,
      "ername": 5498,
      "Ġdeviation": 5499,
      "ĠWhether": 5500,
      "Ġmeasured": 5501,
      "Ġdiameter": 5502,
      "Ġframe": 5503,
      "Ġvertical": 5504,
      "icular": 5505,
      "Ġabilities": 5506,
      "ĠMor": 5507,
      "placement": 5508,
      "itage": 5509,
      "Ġunc": 5510,
      ")$.": 5511,
      "Ġsexual": 5512,
      "Ġgrid": 5513,
      "Ġâī¤": 5514,
      "itness": 5515,
      "ossible": 5516,
      "Ġhypothesis": 5517,
      "ĠOnce": 5518,
      "Ġhighlight": 5519,
      "ĠMa": 5520,
      "ypes": 5521,
      "Ġdie": 5522,
      "\"]": 5523,
      "ormal": 5524,
      "ET": 5525,
      "Ġtreated": 5526,
      "Ġ@": 5527,
      "Ġoffers": 5528,
      "Ġgovernments": 5529,
      "gu": 5530,
      "Ġagriculture": 5531,
      "rows": 5532,
      "Ġdescription": 5533,
      "iders": 5534,
      "Ġcommunicate": 5535,
      "Ġended": 5536,
      "ishing": 5537,
      "Ġresil": 5538,
      "Ġevaluate": 5539,
      "Ġshowing": 5540,
      "Ġtriangles": 5541,
      "Ġfresh": 5542,
      "Ġarrived": 5543,
      "oul": 5544,
      "Ġultimately": 5545,
      "Ġdataset": 5546,
      "Ġflight": 5547,
      "cm": 5548,
      "Ġsecret": 5549,
      "Ġexposed": 5550,
      "Ġbelief": 5551,
      "ibilities": 5552,
      "Ġautism": 5553,
      "Ġpush": 5554,
      "Ġresource": 5555,
      "Ġtopics": 5556,
      "ĠVirginia": 5557,
      "ferences": 5558,
      "ret": 5559,
      "Ġkn": 5560,
      "Ġremark": 5561,
      "Ġarrange": 5562,
      "lor": 5563,
      "Ġdefault": 5564,
      "rox": 5565,
      "Ġinstruction": 5566,
      "za": 5567,
      "ED": 5568,
      "Ġtried": 5569,
      "Ġsmallest": 5570,
      "acific": 5571,
      "Ġimpacts": 5572,
      "ether": 5573,
      "Ġreference": 5574,
      "Ġrepeated": 5575,
      "ĠReturn": 5576,
      "Ġthoughts": 5577,
      "ĠSam": 5578,
      "Ġspecifically": 5579,
      "Ġgrew": 5580,
      "Ġclosely": 5581,
      "Ġguide": 5582,
      "ĠWrite": 5583,
      "ulner": 5584,
      "Ġproportion": 5585,
      "ĠLin": 5586,
      "works": 5587,
      "Ġphenomen": 5588,
      "Ġspot": 5589,
      "EM": 5590,
      "Ġcompare": 5591,
      "Des": 5592,
      "ificial": 5593,
      "Ġhit": 5594,
      "42": 5595,
      "Ġseeds": 5596,
      "ĠWhite": 5597,
      "ĠPark": 5598,
      "ĠAtl": 5599,
      "lement": 5600,
      "ipped": 5601,
      "angular": 5602,
      "Ġ150": 5603,
      "Ġargument": 5604,
      "Ġpounds": 5605,
      "())": 5606,
      "Ġstation": 5607,
      "Ġfailed": 5608,
      "ĠâĪ«": 5609,
      "ithmetic": 5610,
      "\\)": 5611,
      "Ġdinosa": 5612,
      "ĠJer": 5613,
      "hetic": 5614,
      "ĠQue": 5615,
      "Ġconsists": 5616,
      "Ġcry": 5617,
      "Ġfaster": 5618,
      "ĠAut": 5619,
      "node": 5620,
      "ĠSan": 5621,
      "Ġviews": 5622,
      "mp": 5623,
      "Ġimproved": 5624,
      "ĠBas": 5625,
      "69": 5626,
      "ĠCa": 5627,
      "pected": 5628,
      "Ġ31": 5629,
      "Ġprofit": 5630,
      "Ġmotor": 5631,
      "Ġmetal": 5632,
      "Ġhundreds": 5633,
      "Ġshell": 5634,
      "Ġtyping": 5635,
      "iveness": 5636,
      "Ġperspective": 5637,
      "Ġoptim": 5638,
      "Ġglass": 5639,
      "Ġextended": 5640,
      "fered": 5641,
      "oper": 5642,
      "urthermore": 5643,
      "comm": 5644,
      "abits": 5645,
      "nam": 5646,
      "ĠPress": 5647,
      "Ġdevices": 5648,
      "Ġgun": 5649,
      "Ġhandle": 5650,
      "which": 5651,
      "Ġadopted": 5652,
      "ĠNav": 5653,
      "flow": 5654,
      "amil": 5655,
      "Ġabsolute": 5656,
      "org": 5657,
      "ĠTem": 5658,
      "Ġpolitics": 5659,
      "ĠInternational": 5660,
      "Ġdiscussion": 5661,
      "ĠGovernment": 5662,
      "dfrac": 5663,
      "Ġwindow": 5664,
      "Ġplt": 5665,
      "Ġdepression": 5666,
      "Ġonto": 5667,
      "Ġaffects": 5668,
      "iling": 5669,
      "Ġfighting": 5670,
      "Ġuns": 5671,
      "Ġutil": 5672,
      "ĠDist": 5673,
      "Ġvess": 5674,
      "Ġrecorded": 5675,
      "ĠSolution": 5676,
      "According": 5677,
      "Ġplatform": 5678,
      "ĠAlso": 5679,
      "crib": 5680,
      "war": 5681,
      "Ġvoice": 5682,
      "orage": 5683,
      "elled": 5684,
      "ĠCharles": 5685,
      "Ġdepos": 5686,
      "acing": 5687,
      "Ġmarg": 5688,
      "Ġastronom": 5689,
      "Ġdrawing": 5690,
      "trans": 5691,
      "ĠKe": 5692,
      "plify": 5693,
      "abet": 5694,
      "ĠConfed": 5695,
      "47": 5696,
      "Ġappearance": 5697,
      "Ġsufficient": 5698,
      "Ġgrand": 5699,
      "abulary": 5700,
      "Ġstock": 5701,
      "gram": 5702,
      "ĠDevelop": 5703,
      "Ġannual": 5704,
      "db": 5705,
      "Ġfruit": 5706,
      "ĠRussian": 5707,
      "Ġupd": 5708,
      "ĠSea": 5709,
      "rol": 5710,
      "Ġtan": 5711,
      "Ġsettings": 5712,
      "Ġfirm": 5713,
      "Ġhorizontal": 5714,
      "plot": 5715,
      "ĠLa": 5716,
      "ĠIndians": 5717,
      "Ġcompleted": 5718,
      "ĠLearning": 5719,
      "Ġuniverse": 5720,
      "ĠItal": 5721,
      "ĠLine": 5722,
      "61": 5723,
      "Ġscholars": 5724,
      "ya": 5725,
      "ĠParty": 5726,
      "Ġsuc": 5727,
      "Ġhosp": 5728,
      "Ġplayers": 5729,
      "Ġphr": 5730,
      "Ġrespond": 5731,
      "aker": 5732,
      "ĠLeg": 5733,
      "Ġstaff": 5734,
      "Ġcareer": 5735,
      "Ġlun": 5736,
      "iced": 5737,
      "Ġproposed": 5738,
      "tee": 5739,
      "Ġhair": 5740,
      "ifferent": 5741,
      "ocal": 5742,
      "Se": 5743,
      "Ġpig": 5744,
      "Ġhealthcare": 5745,
      "lambda": 5746,
      "Ġstarts": 5747,
      "Ġconducted": 5748,
      "IS": 5749,
      "ht": 5750,
      "Ġlearners": 5751,
      "win": 5752,
      "annel": 5753,
      "Ġalt": 5754,
      "iant": 5755,
      "Ġfro": 5756,
      "Ġquar": 5757,
      "ĠAge": 5758,
      "aded": 5759,
      "Ġnor": 5760,
      "Ġchosen": 5761,
      "Americ": 5762,
      "then": 5763,
      "Ġritual": 5764,
      "Ġsend": 5765,
      "inet": 5766,
      "Ġverb": 5767,
      "Ġtransition": 5768,
      "Ġengineering": 5769,
      "Ġinterested": 5770,
      "Ġformal": 5771,
      "Ġdecline": 5772,
      "ĠRef": 5773,
      "Ġnoted": 5774,
      "Ġcomplexity": 5775,
      "unt": 5776,
      "Ġoffered": 5777,
      "ĠOld": 5778,
      "Ġarchae": 5779,
      "ographic": 5780,
      "Ġcoal": 5781,
      "Ġmillions": 5782,
      "Ġmaintaining": 5783,
      "Can": 5784,
      "Ġmeeting": 5785,
      "enses": 5786,
      "Ġ400": 5787,
      "RO": 5788,
      "89": 5789,
      "Ġ((": 5790,
      "ules": 5791,
      "ss": 5792,
      "ĠAnother": 5793,
      "ircraft": 5794,
      "Ġflat": 5795,
      "Ġvectors": 5796,
      "Ġtouch": 5797,
      "Ġamounts": 5798,
      "ĠSup": 5799,
      "Ġdepict": 5800,
      "ĠNaz": 5801,
      "ĠTreat": 5802,
      "Ġvictim": 5803,
      "Example": 5804,
      "ĠMethod": 5805,
      "bar": 5806,
      "Ġsplit": 5807,
      "Ġsamples": 5808,
      "Ġing": 5809,
      "Ġacts": 5810,
      "eline": 5811,
      "Ġvulner": 5812,
      "ĠBel": 5813,
      "Ġtwice": 5814,
      "Ġwhom": 5815,
      "Ġexternal": 5816,
      "ĠSer": 5817,
      "Ġbehaviour": 5818,
      "des": 5819,
      "irds": 5820,
      "ellect": 5821,
      "Ġlabels": 5822,
      "cons": 5823,
      "Ġjobs": 5824,
      "ship": 5825,
      "Ġpartial": 5826,
      "Ġfacts": 5827,
      "ĠKh": 5828,
      "Ġmigr": 5829,
      "ĠPacific": 5830,
      "Ġmoves": 5831,
      "Ġtrou": 5832,
      "ĠHind": 5833,
      "iate": 5834,
      "====": 5835,
      "Ġ190": 5836,
      "Ġperformed": 5837,
      "Ġcolumns": 5838,
      "ĠExamples": 5839,
      "hors": 5840,
      "start": 5841,
      "len": 5842,
      "ĠAttributes": 5843,
      "Ġsuccessfully": 5844,
      "df": 5845,
      "ĠBer": 5846,
      "ĠSy": 5847,
      "ĠLouis": 5848,
      "no": 5849,
      "aks": 5850,
      "Ġradio": 5851,
      "ĠExp": 5852,
      "ĠOur": 5853,
      "jango": 5854,
      "Ġshif": 5855,
      "pread": 5856,
      "verty": 5857,
      "Ġdefine": 5858,
      "rat": 5859,
      "Ġfought": 5860,
      "Ġquery": 5861,
      "Ġpoverty": 5862,
      "ilater": 5863,
      "Ġanalyze": 5864,
      "SD": 5865,
      "Ġce": 5866,
      "lease": 5867,
      "aped": 5868,
      "Ġcontributions": 5869,
      "Ġrectangle": 5870,
      "Ġvia": 5871,
      "Ġmode": 5872,
      "Ġ?": 5873,
      "Ġaid": 5874,
      "HD": 5875,
      "Ġchain": 5876,
      "ollow": 5877,
      "inction": 5878,
      "request": 5879,
      "ortunately": 5880,
      "Ġcris": 5881,
      "Ġheard": 5882,
      "riction": 5883,
      "Ġresulted": 5884,
      "Ġgather": 5885,
      "Ġaccepted": 5886,
      "Ġmagnetic": 5887,
      "ĠDepartment": 5888,
      "Ġgrade": 5889,
      "Ġplastic": 5890,
      "Ġconversion": 5891,
      "Ġages": 5892,
      "Ġelection": 5893,
      "rice": 5894,
      "Ġwarn": 5895,
      "Ġnull": 5896,
      "Ġfossil": 5897,
      "Ġcontributed": 5898,
      "Ġefficiency": 5899,
      "Ġtex": 5900,
      "Ġmoon": 5901,
      "Ġreleased": 5902,
      "zer": 5903,
      "ura": 5904,
      "Ġhouses": 5905,
      "Ġstudied": 5906,
      "Ġcoefficient": 5907,
      "ĠTex": 5908,
      "Ġcapable": 5909,
      "Ġassume": 5910,
      "Ġdrawn": 5911,
      "Ġmanner": 5912,
      "Ġproof": 5913,
      "ira": 5914,
      "ĠNor": 5915,
      "+\\": 5916,
      "Ġrough": 5917,
      "ĠCarol": 5918,
      "Ġhunting": 5919,
      "Ġbreath": 5920,
      "Ġbegins": 5921,
      "orest": 5922,
      "Ġgained": 5923,
      "Ġstated": 5924,
      "yles": 5925,
      "ean": 5926,
      "Ġreign": 5927,
      "Ġreven": 5928,
      "ĠInstitute": 5929,
      "Ġinstruments": 5930,
      "ek": 5931,
      "Ġmixed": 5932,
      "ĠMal": 5933,
      "Ġunderstood": 5934,
      "rade": 5935,
      "Ġspend": 5936,
      "Ġethnic": 5937,
      "Ġrespectively": 5938,
      "fl": 5939,
      "Ġexcess": 5940,
      "ario": 5941,
      "Ġfilled": 5942,
      "46": 5943,
      "dy": 5944,
      "Ġregarding": 5945,
      "Ġfindings": 5946,
      "Ġ<=": 5947,
      "Ġdogs": 5948,
      "gl": 5949,
      "map": 5950,
      "____": 5951,
      "join": 5952,
      "Ġnutrit": 5953,
      "ĠÂ±": 5954,
      "ĠToday": 5955,
      "().": 5956,
      "code": 5957,
      "ĠArea": 5958,
      "Ġprofound": 5959,
      "Then": 5960,
      "Ġdistingu": 5961,
      "message": 5962,
      "cop": 5963,
      "Ġrisks": 5964,
      "icit": 5965,
      "Ġ2000": 5966,
      "Ġsession": 5967,
      "Ġspaces": 5968,
      "ĠOptional": 5969,
      "Ġfloor": 5970,
      "Ġsucceed": 5971,
      "43": 5972,
      "create": 5973,
      "Ġpainting": 5974,
      "Ġmagnitude": 5975,
      "Ġ2020": 5976,
      "points": 5977,
      "idespread": 5978,
      "Ġdisorders": 5979,
      "unk": 5980,
      "Ġupdate": 5981,
      "âĢĻ.": 5982,
      "Ġ\\*": 5983,
      "Ġhabitats": 5984,
      "Ġlimits": 5985,
      "vision": 5986,
      "well": 5987,
      "Ġdoll": 5988,
      "Ġconsumption": 5989,
      "DE": 5990,
      "ĠEvery": 5991,
      "Ġobtained": 5992,
      "AM": 5993,
      "Ġerrors": 5994,
      "archy": 5995,
      "Ġprepar": 5996,
      "Ġdomain": 5997,
      "onds": 5998,
      "Col": 5999,
      "label": 6000,
      "Ġprepared": 6001,
      "Ġgods": 6002,
      "Ġrapidly": 6003,
      "ĠUnderstanding": 6004,
      "Ġofficials": 6005,
      "coln": 6006,
      "ĠBCE": 6007,
      "ulf": 6008,
      "Ġdeeper": 6009,
      "Ġshaped": 6010,
      "Ġobservations": 6011,
      "lines": 6012,
      "ĠBay": 6013,
      "Ġappeared": 6014,
      "ĠThomas": 6015,
      "sembly": 6016,
      "Ġchildhood": 6017,
      "ĠSouthern": 6018,
      "Ġdemocracy": 6019,
      "ĠBar": 6020,
      "Ġhappy": 6021,
      "akers": 6022,
      "Ġsymmet": 6023,
      "Ġorganized": 6024,
      "Ġtaxes": 6025,
      "vec": 6026,
      "ĠInf": 6027,
      "Ġfailure": 6028,
      "Ġ64": 6029,
      "Ġhorse": 6030,
      "apers": 6031,
      "Ġdial": 6032,
      "Ġtexts": 6033,
      "CT": 6034,
      "Ġcapture": 6035,
      "Ġindicate": 6036,
      "Ġneut": 6037,
      "ĠSupreme": 6038,
      "Ġroyal": 6039,
      "Ġthousand": 6040,
      "Ġbusinesses": 6041,
      "ux": 6042,
      "Ġgal": 6043,
      "Ġhero": 6044,
      "Ġlegs": 6045,
      "Ġinvestment": 6046,
      "ĠSl": 6047,
      "Ġengaging": 6048,
      "stream": 6049,
      "Ġnuclear": 6050,
      "bi": 6051,
      "Ġsubt": 6052,
      "ĠMil": 6053,
      "Ġcritic": 6054,
      "Ġpollution": 6055,
      "Ġanyone": 6056,
      "Ġcreatures": 6057,
      "ĠMart": 6058,
      "Ġfalse": 6059,
      "Ġsubstitute": 6060,
      "Ġperman": 6061,
      "vironment": 6062,
      "Ġpeoples": 6063,
      "Ġtrend": 6064,
      "ĠBible": 6065,
      "Ġmountain": 6066,
      "Ġbed": 6067,
      "Ġrivers": 6068,
      "ĠDemoc": 6069,
      "Ġfascinating": 6070,
      "Ġperce": 6071,
      "iday": 6072,
      "rich": 6073,
      "ĠParliament": 6074,
      "ycl": 6075,
      "Ġkeeping": 6076,
      "ION": 6077,
      "ĠKingdom": 6078,
      "Ġvictory": 6079,
      "ĠGreen": 6080,
      "Ġwidespread": 6081,
      "Ġindeed": 6082,
      "la": 6083,
      "Ġpolice": 6084,
      "aughter": 6085,
      "ĠCompany": 6086,
      "Ġstorm": 6087,
      "opt": 6088,
      "ĠHel": 6089,
      "$$\\": 6090,
      "but": 6091,
      "mathbb": 6092,
      "Ġcrisis": 6093,
      "Model": 6094,
      "och": 6095,
      "Ġaccuracy": 6096,
      "rating": 6097,
      "utch": 6098,
      "itudes": 6099,
      "Ġuniform": 6100,
      "Ġdetailed": 6101,
      "Ġstudying": 6102,
      "Ġintellect": 6103,
      "81": 6104,
      "Ġstages": 6105,
      "Ġalgebra": 6106,
      "ĠNorthern": 6107,
      "Ġacid": 6108,
      "Ġachieved": 6109,
      "ald": 6110,
      "ifier": 6111,
      "Ġinner": 6112,
      "Ġelectricity": 6113,
      "Tensor": 6114,
      "Ġamb": 6115,
      "ĠSupp": 6116,
      "edia": 6117,
      "Ġshel": 6118,
      "Ġdangerous": 6119,
      "ĠCommon": 6120,
      "Ġprinc": 6121,
      "models": 6122,
      "Ġtele": 6123,
      "ĠPlan": 6124,
      "arsh": 6125,
      "ĠCouncil": 6126,
      "Ġwife": 6127,
      "useum": 6128,
      "Ġdeclared": 6129,
      "Ġsports": 6130,
      "Ġprofession": 6131,
      "Ġjoined": 6132,
      "Ġinverse": 6133,
      "Ġfamiliar": 6134,
      "ania": 6135,
      "Ġindicates": 6136,
      "ĠProv": 6137,
      "ĠApply": 6138,
      "Ġbeautiful": 6139,
      "Ã¡": 6140,
      "Ġemerged": 6141,
      "oral": 6142,
      "ĠIdentify": 6143,
      "Ġeastern": 6144,
      "Ġkilomet": 6145,
      "ĠDavid": 6146,
      "ĠAssoci": 6147,
      "Ġphilosophy": 6148,
      "Ġordered": 6149,
      "Ġenemy": 6150,
      "Ġdifficulty": 6151,
      "'.": 6152,
      "ĠProf": 6153,
      "Ġassessment": 6154,
      "orrow": 6155,
      "Ġwaters": 6156,
      "Ġdestroyed": 6157,
      "Ġcube": 6158,
      "rust": 6159,
      "ĠRich": 6160,
      "Are": 6161,
      "rip": 6162,
      "aper": 6163,
      "Ġsuggested": 6164,
      "ĠConvert": 6165,
      "Ġlooked": 6166,
      "Ġjournal": 6167,
      "ĠSk": 6168,
      "Ġflex": 6169,
      "Ġrural": 6170,
      "Ġmissing": 6171,
      "Ġedges": 6172,
      "87": 6173,
      "rons": 6174,
      "Ġinitially": 6175,
      "ache": 6176,
      "arvest": 6177,
      "Ġlaid": 6178,
      "Ġelected": 6179,
      "Ġintended": 6180,
      "Ġmere": 6181,
      "}^": 6182,
      "Ġfounded": 6183,
      "Substituting": 6184,
      "long": 6185,
      "Ġminim": 6186,
      "Ġholds": 6187,
      "Ġmusical": 6188,
      "Ġic": 6189,
      "ĠLord": 6190,
      "ishment": 6191,
      "band": 6192,
      "ĠâĢ¦": 6193,
      "fficients": 6194,
      "digit": 6195,
      "Ġcircumst": 6196,
      "Ġcloser": 6197,
      "Ġvertex": 6198,
      "Ġsnow": 6199,
      "92": 6200,
      "^{\\": 6201,
      "atural": 6202,
      "Ġtow": 6203,
      "pired": 6204,
      "Ġsymbols": 6205,
      "ĠSociety": 6206,
      "Ġreplaced": 6207,
      "orses": 6208,
      "ĠSch": 6209,
      "ulas": 6210,
      "Ġprominent": 6211,
      "Ġ\\]": 6212,
      "result": 6213,
      "Ġstatements": 6214,
      "oyal": 6215,
      "Ġfiles": 6216,
      "tem": 6217,
      "Ġdivisible": 6218,
      "Ġtransportation": 6219,
      "Ġcaptured": 6220,
      "Ġsaying": 6221,
      "Ġserves": 6222,
      "agonal": 6223,
      "Ġaircraft": 6224,
      "Ġcreative": 6225,
      "plifying": 6226,
      "Ġdebate": 6227,
      "ĠâĨĴ": 6228,
      "Ġinfected": 6229,
      "ĠTheorem": 6230,
      "Ġdistances": 6231,
      "Ġblocks": 6232,
      "Ġcorrectly": 6233,
      "Ġhabits": 6234,
      "Ġexception": 6235,
      "anguage": 6236,
      "Ġprotected": 6237,
      "ato": 6238,
      "Ġcharacterized": 6239,
      "Ġimpossible": 6240,
      "Ġrecognition": 6241,
      "Ġcyl": 6242,
      "Ġliquid": 6243,
      "ocation": 6244,
      "Ġabol": 6245,
      "Ġsecure": 6246,
      "ounded": 6247,
      "AP": 6248,
      "post": 6249,
      "Ġderived": 6250,
      "rics": 6251,
      "Ġlibr": 6252,
      "Ġnegot": 6253,
      "Ġconnections": 6254,
      "ĠEgyptian": 6255,
      "Ġexcell": 6256,
      "Ġearliest": 6257,
      "Ġbright": 6258,
      "Ġfly": 6259,
      "Ġlengths": 6260,
      "Ġcontrolled": 6261,
      "Ġ185": 6262,
      "Ġselected": 6263,
      "Ġinstrument": 6264,
      "ctic": 6265,
      "net": 6266,
      "cast": 6267,
      "Ġcategory": 6268,
      "Ġgene": 6269,
      "pred": 6270,
      "ĠIndigenous": 6271,
      "Ġmilk": 6272,
      "ĠStand": 6273,
      "Ġimmigr": 6274,
      "Ġexplained": 6275,
      "pers": 6276,
      "Ġenhance": 6277,
      "Ġ55": 6278,
      "Ġentirely": 6279,
      "Ġvocabulary": 6280,
      "Ġinteractions": 6281,
      "Ġsacr": 6282,
      "ching": 6283,
      "%.": 6284,
      "Ġwitness": 6285,
      "Ġprocessing": 6286,
      "Ġlies": 6287,
      "ĠCenter": 6288,
      "Ġrelease": 6289,
      "ĠEarly": 6290,
      "Ġsocieties": 6291,
      "ĠEst": 6292,
      "Ġbees": 6293,
      "ishes": 6294,
      "Ġfacilit": 6295,
      "ago": 6296,
      "Ġdescribes": 6297,
      "72": 6298,
      "necess": 6299,
      "Ġremainder": 6300,
      "Ġcars": 6301,
      "abled": 6302,
      "Ġroute": 6303,
      "Ġwet": 6304,
      "Ġelev": 6305,
      "Ġsuitable": 6306,
      "Ġcot": 6307,
      "ener": 6308,
      "Ġsustainable": 6309,
      "ĠLincoln": 6310,
      "Ph": 6311,
      "ĠItalian": 6312,
      "issance": 6313,
      "ĠMark": 6314,
      "ij": 6315,
      "Ġextent": 6316,
      "New": 6317,
      "tra": 6318,
      "Ġunion": 6319,
      "Ġtechnologies": 6320,
      "Ġcredit": 6321,
      "Ġceremon": 6322,
      "Ġknew": 6323,
      "ĠMuseum": 6324,
      "direct": 6325,
      "instance": 6326,
      "cope": 6327,
      "Ġsell": 6328,
      "ĠChe": 6329,
      "valuate": 6330,
      "Ġspeaking": 6331,
      "Ġsugar": 6332,
      "Ġphysics": 6333,
      "Ġfemales": 6334,
      "urance": 6335,
      "Ġdrive": 6336,
      "Ġmales": 6337,
      "ida": 6338,
      "Ġconstructed": 6339,
      "Ġfine": 6340,
      "ums": 6341,
      "41": 6342,
      "Ġaccompl": 6343,
      "Ġgenerated": 6344,
      "Ġdrop": 6345,
      "ĠRaises": 6346,
      "ĠGiven": 6347,
      "Ġfaces": 6348,
      "Ġfill": 6349,
      "Ġbud": 6350,
      "ĠIter": 6351,
      "Ġintegration": 6352,
      "rec": 6353,
      "Ġtal": 6354,
      "Ġexplains": 6355,
      "OT": 6356,
      "Ġcultiv": 6357,
      "Ġsyn": 6358,
      "ilateral": 6359,
      "ĠBen": 6360,
      "ector": 6361,
      "rus": 6362,
      "Ġrecommend": 6363,
      "ocol": 6364,
      "body": 6365,
      "Ġnodes": 6366,
      "ĠÎ¼": 6367,
      "Ġhonor": 6368,
      "ĠMove": 6369,
      "ĠâĪł": 6370,
      "Ġgreatly": 6371,
      "Ġjoin": 6372,
      "reland": 6373,
      "Ġentry": 6374,
      "Ġinvolving": 6375,
      "Ġcatch": 6376,
      "HE": 6377,
      "ĠFederal": 6378,
      "Ġflowers": 6379,
      "ĠMath": 6380,
      "Ġcalculations": 6381,
      "Ġkill": 6382,
      "Ġdy": 6383,
      "Ġfilter": 6384,
      "Ġnutrients": 6385,
      "Despite": 6386,
      "ĠEastern": 6387,
      "Ġconcentration": 6388,
      "Ġkinds": 6389,
      "ĠOb": 6390,
      "Ġacting": 6391,
      "Ġmarriage": 6392,
      "making": 6393,
      "Ġvolcan": 6394,
      "ĠBet": 6395,
      "âĢ¢": 6396,
      ")`": 6397,
      "Ġhelpful": 6398,
      "conomic": 6399,
      "pute": 6400,
      "ĠKey": 6401,
      "rastructure": 6402,
      "vis": 6403,
      "Ġlayers": 6404,
      "rency": 6405,
      "Ġradiation": 6406,
      "Ġelif": 6407,
      "Ġfrag": 6408,
      "ounced": 6409,
      "ĠUpdate": 6410,
      "Ġcreates": 6411,
      "orter": 6412,
      "endicular": 6413,
      "ola": 6414,
      "Ġstret": 6415,
      "Ġgenes": 6416,
      "ĠHaw": 6417,
      "uilding": 6418,
      "?âĢĿ": 6419,
      "Ġscreen": 6420,
      "Ġnumerator": 6421,
      "riers": 6422,
      "Ġsky": 6423,
      "bles": 6424,
      "ĠNumbers": 6425,
      "De": 6426,
      "Ġongoing": 6427,
      "Ġyield": 6428,
      "oked": 6429,
      "burg": 6430,
      "Ġcolony": 6431,
      "Ġboys": 6432,
      "Ġstream": 6433,
      "Ġprompt": 6434,
      "orted": 6435,
      "oved": 6436,
      "Ġbrief": 6437,
      "orical": 6438,
      "ĠRomans": 6439,
      "Dict": 6440,
      "Ġrequirements": 6441,
      "Ġtour": 6442,
      "ein": 6443,
      "Ġfluid": 6444,
      "Ġmeat": 6445,
      "Ġcourts": 6446,
      "mas": 6447,
      "Ġmort": 6448,
      "Ġterritories": 6449,
      "Ġdimensions": 6450,
      "Ġ33": 6451,
      "Ġopened": 6452,
      "Ġmur": 6453,
      "Ġacknow": 6454,
      "Ġimperial": 6455,
      "necessary": 6456,
      "Ġschem": 6457,
      "ĠTexas": 6458,
      "Ġsurvey": 6459,
      "Ġturns": 6460,
      "Ġrows": 6461,
      "appe": 6462,
      "Ġ42": 6463,
      "essor": 6464,
      "mathbf": 6465,
      "ga": 6466,
      "Ġdecrease": 6467,
      "Ġadministration": 6468,
      "arant": 6469,
      "Ġ37": 6470,
      "ĠColumb": 6471,
      "Ġmix": 6472,
      "ĠMont": 6473,
      "ĠIreland": 6474,
      "ework": 6475,
      "Ġsupporting": 6476,
      "Ġtransformation": 6477,
      "Ġft": 6478,
      "ias": 6479,
      "Ġvertices": 6480,
      "active": 6481,
      "Ġmanaged": 6482,
      "Ġobvious": 6483,
      "Ġwonder": 6484,
      "Ġpregn": 6485,
      "ĠCE": 6486,
      "ĠSpace": 6487,
      "icip": 6488,
      "84": 6489,
      "Ġbranch": 6490,
      "Ġplanets": 6491,
      "ĠIrish": 6492,
      "Ġreserv": 6493,
      "abies": 6494,
      "split": 6495,
      "ĠFort": 6496,
      "Ġgall": 6497,
      "Where": 6498,
      "Char": 6499,
      "Ġtall": 6500,
      "agram": 6501,
      "aur": 6502,
      "That": 6503,
      "api": 6504,
      "ĠTurn": 6505,
      "root": 6506,
      "inated": 6507,
      "ooth": 6508,
      "aration": 6509,
      "pping": 6510,
      "Ġlogic": 6511,
      "ditional": 6512,
      "Ġattacks": 6513,
      "Ġfeedback": 6514,
      "97": 6515,
      "Ġindigenous": 6516,
      "ĠDyn": 6517,
      "atically": 6518,
      "Ġcalls": 6519,
      "Ġimplies": 6520,
      "Ġslightly": 6521,
      "licts": 6522,
      "ĠWater": 6523,
      "Ġencouraged": 6524,
      "Ġpil": 6525,
      "Ġtrac": 6526,
      "Ġeveryday": 6527,
      "Ġdividing": 6528,
      "Ġexpert": 6529,
      "Pl": 6530,
      "Ġunable": 6531,
      "?**": 6532,
      "ĠOp": 6533,
      "ĠMain": 6534,
      "Ġincred": 6535,
      "Ġabund": 6536,
      "Ġ!": 6537,
      "Ġkid": 6538,
      "ashion": 6539,
      "Ġsigned": 6540,
      "hered": 6541,
      "aste": 6542,
      "Ġlose": 6543,
      "Ġvisible": 6544,
      "cohol": 6545,
      "Ġconsistent": 6546,
      "isc": 6547,
      "ĠParis": 6548,
      "writ": 6549,
      "ĠLike": 6550,
      "Ġparticipate": 6551,
      "Ġdesire": 6552,
      "ĠNations": 6553,
      "Ġrocks": 6554,
      "ĠVari": 6555,
      "Ġ1960": 6556,
      "ĠFin": 6557,
      "Ġresidents": 6558,
      "Ġspirit": 6559,
      "Ġmedieval": 6560,
      "Ġoutcome": 6561,
      "arithm": 6562,
      "Ġdemonstrate": 6563,
      "Ġcollected": 6564,
      "Ġsegment": 6565,
      "SA": 6566,
      "icians": 6567,
      "Ġscores": 6568,
      "Ġparser": 6569,
      "ingly": 6570,
      "Ġcoins": 6571,
      "hent": 6572,
      "Ġwasn": 6573,
      "Ġfruits": 6574,
      "unctions": 6575,
      "ĠÎĶ": 6576,
      "cules": 6577,
      "Ġalign": 6578,
      "otes": 6579,
      "eria": 6580,
      "Ġsed": 6581,
      "Ġunnecessary": 6582,
      "Equ": 6583,
      "Ġmomentum": 6584,
      "Ġescape": 6585,
      "ĠSal": 6586,
      "Ġbones": 6587,
      "empts": 6588,
      "Ġremarkable": 6589,
      "Ġborder": 6590,
      "Ġcircumstances": 6591,
      "phi": 6592,
      "Ġproved": 6593,
      "Ġregularly": 6594,
      "Ġ//": 6595,
      "wid": 6596,
      "ĠCounty": 6597,
      "Ġstorage": 6598,
      "Ġsettlement": 6599,
      "Ġproperly": 6600,
      "Ġexplanation": 6601,
      "Ġorbit": 6602,
      "oric": 6603,
      "Ġtraum": 6604,
      "Ġpron": 6605,
      "ĠDel": 6606,
      "Ġmigration": 6607,
      "eless": 6608,
      "Ġseed": 6609,
      "ĠUnder": 6610,
      "Ġdependent": 6611,
      "Ġreaders": 6612,
      "table": 6613,
      "Ġpotentially": 6614,
      "Ġfell": 6615,
      "Ġrank": 6616,
      "Ġdefend": 6617,
      "Ġlooks": 6618,
      "Ġrenew": 6619,
      "Ġoriginally": 6620,
      "Ġresilience": 6621,
      "Ġrely": 6622,
      "rd": 6623,
      "ĠLake": 6624,
      "Ġprepare": 6625,
      "Ġfeeding": 6626,
      "Ġbrown": 6627,
      "Ġstick": 6628,
      "Ġantib": 6629,
      "ses": 6630,
      "nce": 6631,
      ")*": 6632,
      "SV": 6633,
      "Ġinfrastructure": 6634,
      "kes": 6635,
      "Ġsan": 6636,
      "Ġtiny": 6637,
      "parse": 6638,
      "ĠFrank": 6639,
      "www": 6640,
      "Ġpi": 6641,
      "Ġtun": 6642,
      "ushed": 6643,
      "ĠUN": 6644,
      "Ġarms": 6645,
      "Ġcomment": 6646,
      "ĠPaul": 6647,
      "Ġhyper": 6648,
      "Ġdisabilities": 6649,
      "relation": 6650,
      "ilarly": 6651,
      "Ġexperiments": 6652,
      "Ġsen": 6653,
      "Ġstanding": 6654,
      "Ġinhabit": 6655,
      "Ġwebsite": 6656,
      "nes": 6657,
      "circ": 6658,
      "Ġboundaries": 6659,
      "Ġvib": 6660,
      "Ġdesired": 6661,
      "Ġdifficulties": 6662,
      "pathy": 6663,
      "Ġinteraction": 6664,
      "Ġauthors": 6665,
      "Ġgradually": 6666,
      "Ġswim": 6667,
      "since": 6668,
      "ĠMean": 6669,
      "Ġcompetition": 6670,
      "Ġextensive": 6671,
      "Ġeducators": 6672,
      "andon": 6673,
      "Ġwriter": 6674,
      "Ġwa": 6675,
      "ups": 6676,
      "Ġharvest": 6677,
      "Ġkin": 6678,
      "Ġislands": 6679,
      "gent": 6680,
      "Ġpassing": 6681,
      "mathrm": 6682,
      "Ġpupils": 6683,
      "olf": 6684,
      "ĠDon": 6685,
      "Ġemployees": 6686,
      "Ġlocations": 6687,
      "Ġintervention": 6688,
      "client": 6689,
      "status": 6690,
      "Ġheads": 6691,
      "Ġrotation": 6692,
      "Ġsummary": 6693,
      "uses": 6694,
      "Ġcarefully": 6695,
      "Ġbreeding": 6696,
      "Ġindustries": 6697,
      "ampl": 6698,
      "Ġexperts": 6699,
      "ĠWhich": 6700,
      "agues": 6701,
      "Ġengaged": 6702,
      "exp": 6703,
      "estions": 6704,
      "ĠCur": 6705,
      "Key": 6706,
      "Ġprofessor": 6707,
      "Ġworldwide": 6708,
      "'ve": 6709,
      "Ġneighbor": 6710,
      "Ġheritage": 6711,
      "Ġapparent": 6712,
      "Ġtypical": 6713,
      "Ġaccounts": 6714,
      "title": 6715,
      "Ġclaims": 6716,
      "rep": 6717,
      "Ġsubs": 6718,
      "Ġexpanded": 6719,
      "Ġreports": 6720,
      "ĠSuch": 6721,
      "Number": 6722,
      "ĠHit": 6723,
      "ĠMad": 6724,
      "à¤": 6725,
      "Ġdecor": 6726,
      "Ġmarks": 6727,
      "Ġdiscipl": 6728,
      "ĠTechn": 6729,
      "Ġtalking": 6730,
      "Ġparticipants": 6731,
      "Ġearthqu": 6732,
      "Ġhydrogen": 6733,
      "Ġcollabor": 6734,
      "Ġagreement": 6735,
      "ifications": 6736,
      "json": 6737,
      "Ġclin": 6738,
      "Ġdestruction": 6739,
      "Ġconstra": 6740,
      "Ġends": 6741,
      "bin": 6742,
      "Ġauthorities": 6743,
      "Ġcoefficients": 6744,
      "SI": 6745,
      "ĠFunction": 6746,
      "ĠST": 6747,
      "Ġtheories": 6748,
      "ĠTotal": 6749,
      "draw": 6750,
      "ĠLand": 6751,
      "Ġban": 6752,
      "Ġcontemporary": 6753,
      "Ġpersist": 6754,
      "ĠChristianity": 6755,
      "anches": 6756,
      "ĠPower": 6757,
      "Ġmedium": 6758,
      "Ġpul": 6759,
      "Ġmarine": 6760,
      "ĠADHD": 6761,
      "Ġclothing": 6762,
      "ĠSat": 6763,
      "Ġsentences": 6764,
      "Ġclar": 6765,
      "ka": 6766,
      "Most": 6767,
      "weight": 6768,
      "utation": 6769,
      "Ġstrengthen": 6770,
      "ava": 6771,
      "ĠAncient": 6772,
      ")$,": 6773,
      "Ġhus": 6774,
      "Ġrecip": 6775,
      "Ġusers": 6776,
      "lig": 6777,
      "orous": 6778,
      "Ġstability": 6779,
      "ĠHuman": 6780,
      "Ġargued": 6781,
      "ĠProper": 6782,
      "Ġmedicine": 6783,
      "Ġwars": 6784,
      "Ġensl": 6785,
      "Ġ65": 6786,
      "Ġadministr": 6787,
      "pring": 6788,
      "Ġintellectual": 6789,
      "Ġbond": 6790,
      "93": 6791,
      "ĠJose": 6792,
      "leq": 6793,
      "More": 6794,
      "ounter": 6795,
      "Ġinsights": 6796,
      "Ġimproving": 6797,
      "Ġdifferential": 6798,
      "oxide": 6799,
      "aud": 6800,
      "berg": 6801,
      "ĠMo": 6802,
      "Ġpromoting": 6803,
      "ĠBr": 6804,
      "ulating": 6805,
      "Ġopinion": 6806,
      "amma": 6807,
      "Â³": 6808,
      "shape": 6809,
      "Te": 6810,
      "Ġconflicts": 6811,
      "Ġemperor": 6812,
      "faces": 6813,
      "Ġadapted": 6814,
      "Ġtrained": 6815,
      "group": 6816,
      "Ġinspired": 6817,
      "Ġnarrow": 6818,
      "App": 6819,
      "Ġjoint": 6820,
      "Ġdiscussed": 6821,
      "Ġring": 6822,
      "score": 6823,
      "Ġcopy": 6824,
      "Ġinfections": 6825,
      "Ġportion": 6826,
      "rices": 6827,
      "Ġpartners": 6828,
      "ĠGreece": 6829,
      "Ġcelebrated": 6830,
      "Ġpersons": 6831,
      "Ġperpendicular": 6832,
      "Ġdeeply": 6833,
      "Ġseeking": 6834,
      "Ġlegislation": 6835,
      "Ġruled": 6836,
      "Ġstands": 6837,
      "Ġimmediate": 6838,
      "Ġfest": 6839,
      "Ġentered": 6840,
      "Ġexploration": 6841,
      "ĠInteg": 6842,
      "Calcul": 6843,
      "Ġcomposition": 6844,
      "Ġpret": 6845,
      "Ġproducing": 6846,
      "Ġtowns": 6847,
      "Ġrecommended": 6848,
      "ĠRun": 6849,
      "acent": 6850,
      "Ġtank": 6851,
      "Ġagreed": 6852,
      "ĠScot": 6853,
      "ado": 6854,
      "Ġlifest": 6855,
      "Ġexplo": 6856,
      "Ġslowly": 6857,
      "anes": 6858,
      "Ġpassage": 6859,
      "Ġtick": 6860,
      "Ġintroduction": 6861,
      "ders": 6862,
      "names": 6863,
      "ĠCult": 6864,
      "uity": 6865,
      "Ġvulnerable": 6866,
      "Ġsick": 6867,
      "Ġhorses": 6868,
      "Ġfilm": 6869,
      "athers": 6870,
      "ĠLife": 6871,
      "Ġloop": 6872,
      "Ġchief": 6873,
      "lege": 6874,
      "Ġsettlers": 6875,
      "SON": 6876,
      ")}{": 6877,
      "Ġsubstant": 6878,
      "Ġwire": 6879,
      "ĠCanadian": 6880,
      "Ġfourth": 6881,
      "Ġtf": 6882,
      "Ġcircles": 6883,
      "Ġconcerned": 6884,
      "Ġcra": 6885,
      "ĠContin": 6886,
      "Ġrevol": 6887,
      "Ġsalt": 6888,
      "UT": 6889,
      "Ġmeasurement": 6890,
      "Expl": 6891,
      "what": 6892,
      "Ġabandon": 6893,
      "Ġ2019": 6894,
      "Ġstyles": 6895,
      "Ġvillage": 6896,
      "ĠZe": 6897,
      "ĠAcc": 6898,
      "stone": 6899,
      "Ġmonit": 6900,
      "she": 6901,
      "wood": 6902,
      "Ġ34": 6903,
      "Ġmessages": 6904,
      "Ġoffering": 6905,
      "Ġvit": 6906,
      "itan": 6907,
      "ĠGold": 6908,
      "Ġthin": 6909,
      "Ġbullying": 6910,
      "assert": 6911,
      "Ġsphere": 6912,
      "pow": 6913,
      "ME": 6914,
      "Ġdatetime": 6915,
      "plicated": 6916,
      "ĠAir": 6917,
      "ĠPlay": 6918,
      "Ġturning": 6919,
      "Ġplate": 6920,
      "etch": 6921,
      "Ġske": 6922,
      "Ġtells": 6923,
      "Ġweigh": 6924,
      "Ġsynt": 6925,
      "Ġfarming": 6926,
      "Ġfing": 6927,
      "Ġkingdom": 6928,
      "top": 6929,
      "Ġartificial": 6930,
      "vals": 6931,
      "Ġbroken": 6932,
      "Ġstrict": 6933,
      "Ġaqu": 6934,
      "Ġaudience": 6935,
      "Ġvehicle": 6936,
      "Ġcompl": 6937,
      "alysis": 6938,
      "Ġguarant": 6939,
      "ĠMem": 6940,
      "rays": 6941,
      "Ġgarden": 6942,
      "Ġcombinations": 6943,
      "Ġgeometric": 6944,
      "Ġorganisms": 6945,
      "ĠMich": 6946,
      "Ġnecessarily": 6947,
      "Ġband": 6948,
      "ĠAC": 6949,
      "Ġexcellent": 6950,
      "ipping": 6951,
      "Ġindu": 6952,
      "ĠIII": 6953,
      "Ġcats": 6954,
      "Ġbeauty": 6955,
      "Ġserver": 6956,
      "fit": 6957,
      "Ġsector": 6958,
      "ĠNAS": 6959,
      "Ġwings": 6960,
      "Ġrewrite": 6961,
      "ĠFound": 6962,
      "Ġrefuge": 6963,
      "Ġnaturally": 6964,
      "bability": 6965,
      "Ġdebt": 6966,
      "Ġpull": 6967,
      "Ġheavily": 6968,
      "Ġfeat": 6969,
      "dden": 6970,
      "eles": 6971,
      "ĠHT": 6972,
      "culpt": 6973,
      "Ġfewer": 6974,
      "roc": 6975,
      "Ġnine": 6976,
      "Ġcivilization": 6977,
      "Ġbanks": 6978,
      "Ġcrop": 6979,
      "osion": 6980,
      "Ġmatters": 6981,
      "Ġpossibility": 6982,
      "html": 6983,
      "ĠIterate": 6984,
      "ĠIndepend": 6985,
      "Ġtruly": 6986,
      "Ġtraveled": 6987,
      "ĠMulti": 6988,
      "current": 6989,
      "Ġpiv": 6990,
      "bul": 6991,
      "Ġyouth": 6992,
      "Ġtemple": 6993,
      "ĠStart": 6994,
      "Ġinflation": 6995,
      "Ġgap": 6996,
      "aws": 6997,
      "Ġstable": 6998,
      "frame": 6999,
      "ĠAPI": 7000,
      "Ġtact": 7001,
      "Ġru": 7002,
      "Ġestablishment": 7003,
      "usal": 7004,
      "Cons": 7005,
      "Ġcontrovers": 7006,
      "Ġshaping": 7007,
      "Ġdecide": 7008,
      "ĠElect": 7009,
      "Ġment": 7010,
      "]]": 7011,
      "Ġsuffering": 7012,
      "94": 7013,
      "Ġweapons": 7014,
      "ĠGal": 7015,
      "nel": 7016,
      "Ġcomposed": 7017,
      "Per": 7018,
      "Ġ1970": 7019,
      "eli": 7020,
      "Ġwilling": 7021,
      "den": 7022,
      "Ġmm": 7023,
      "Ġpoem": 7024,
      "Ġsight": 7025,
      "Ġbin": 7026,
      "random": 7027,
      "ĠMac": 7028,
      "world": 7029,
      "Ġarithmetic": 7030,
      "CH": 7031,
      "Ġsupplies": 7032,
      "Ġtoken": 7033,
      "roke": 7034,
      "ĠDou": 7035,
      "Ġatom": 7036,
      "ĠAtlantic": 7037,
      "âĢĻ,": 7038,
      "Ġpark": 7039,
      "teen": 7040,
      "Ġpuzz": 7041,
      "Ġequals": 7042,
      "stract": 7043,
      "Ġnearby": 7044,
      "ĠCam": 7045,
      "ada": 7046,
      "Ġscript": 7047,
      "False": 7048,
      "ĠAv": 7049,
      "cher": 7050,
      "ocket": 7051,
      "Ġvehicles": 7052,
      "Ġrestrict": 7053,
      "Our": 7054,
      "Ġnumpy": 7055,
      "Ġcreativity": 7056,
      "Ġyounger": 7057,
      "numbers": 7058,
      "Ġlasting": 7059,
      "orig": 7060,
      "Ġow": 7061,
      "rine": 7062,
      "Ġwel": 7063,
      "ighter": 7064,
      "oma": 7065,
      "su": 7066,
      "Ġjson": 7067,
      "Ġstatistics": 7068,
      "Ġboy": 7069,
      "Ġadopt": 7070,
      "Ġboost": 7071,
      "ĠRobert": 7072,
      "American": 7073,
      "anda": 7074,
      "ĠRoyal": 7075,
      "Ġmanip": 7076,
      "ternatively": 7077,
      "ibl": 7078,
      "uster": 7079,
      "ĠVen": 7080,
      "Ġsheet": 7081,
      "Ġsudden": 7082,
      "Ġstored": 7083,
      "Ġgalax": 7084,
      "Ġguidance": 7085,
      "Ġintersection": 7086,
      "Ġcombat": 7087,
      "Ġemployment": 7088,
      "Ġlatter": 7089,
      "83": 7090,
      "host": 7091,
      "Ġobst": 7092,
      "ĠFranc": 7093,
      "uther": 7094,
      "Ġclaimed": 7095,
      "Ġdefense": 7096,
      "ĠVict": 7097,
      "Ġcollege": 7098,
      "ĠOtt": 7099,
      "Ġ1990": 7100,
      "item": 7101,
      "regation": 7102,
      "ĠInitializes": 7103,
      "Ġcertainly": 7104,
      "Ġdedicated": 7105,
      "rav": 7106,
      "ĠNASA": 7107,
      "ĠCarolina": 7108,
      "Ġarticles": 7109,
      "antly": 7110,
      "Ġclassical": 7111,
      "Ġalcohol": 7112,
      "ixture": 7113,
      "Ġ2015": 7114,
      "Ġhousing": 7115,
      "Ġcolour": 7116,
      "Ġwants": 7117,
      "Ġaimed": 7118,
      "Ġcircular": 7119,
      "Ġsignals": 7120,
      "Ġofficers": 7121,
      "Ġgrown": 7122,
      "Ġpoetry": 7123,
      "Ġgram": 7124,
      "ĠViet": 7125,
      "Ġtissue": 7126,
      "Ġassistance": 7127,
      "Ġdates": 7128,
      "Ġreward": 7129,
      "Ġhole": 7130,
      "Ġmammals": 7131,
      "ĠMultiply": 7132,
      "Ġorganic": 7133,
      "Ġorigins": 7134,
      "ndrome": 7135,
      "ĠOh": 7136,
      "Ġreplace": 7137,
      "akistan": 7138,
      "isters": 7139,
      "Ġperm": 7140,
      "ĠCle": 7141,
      "SS": 7142,
      "igure": 7143,
      "Ġattempts": 7144,
      "Ġsail": 7145,
      "Ġasking": 7146,
      "Ġsecondary": 7147,
      "Ġmerch": 7148,
      "ML": 7149,
      "chers": 7150,
      "Ġformulas": 7151,
      "Ġfacing": 7152,
      "Ġsoftware": 7153,
      "Ġobserve": 7154,
      "Ġinspir": 7155,
      "Ġexped": 7156,
      "Ġsolved": 7157,
      "ville": 7158,
      "Ġsubsequent": 7159,
      "Ġrequests": 7160,
      "Ġafford": 7161,
      "Ġregardless": 7162,
      "ĠProject": 7163,
      "Ġprincipal": 7164,
      "Ġhousehold": 7165,
      "bine": 7166,
      "ĠDevelopment": 7167,
      "Ġinstitution": 7168,
      "ĠDraw": 7169,
      "Bl": 7170,
      "imals": 7171,
      "Ġcommitment": 7172,
      "while": 7173,
      "Ġaltern": 7174,
      "Ġapplying": 7175,
      "scale": 7176,
      "Ġcart": 7177,
      "Ġbridge": 7178,
      "Ġdjango": 7179,
      "Be": 7180,
      "ĠPrime": 7181,
      "ponse": 7182,
      "ĠCollege": 7183,
      "Ġthemes": 7184,
      "dimens": 7185,
      "Ġtangent": 7186,
      "ĠBook": 7187,
      "operation": 7188,
      "cies": 7189,
      "86": 7190,
      "Ġdesigns": 7191,
      "Ġinformed": 7192,
      "Ġcomparison": 7193,
      "Ġemployed": 7194,
      "Ġrevealed": 7195,
      "Mult": 7196,
      "rane": 7197,
      "ĠMoon": 7198,
      "Ġmolecules": 7199,
      "gi": 7200,
      "Ġnotable": 7201,
      "method": 7202,
      "ĠAmendment": 7203,
      "Ġmorning": 7204,
      "Ġaren": 7205,
      "Ġdisappe": 7206,
      "Ġinvestig": 7207,
      "Ġ--": 7208,
      "alls": 7209,
      "Ġchapter": 7210,
      "Ġoutbre": 7211,
      "Ġthrive": 7212,
      "ook": 7213,
      "ester": 7214,
      "Ġpeers": 7215,
      "Ġbear": 7216,
      "Ġeru": 7217,
      "asters": 7218,
      "Ġselection": 7219,
      "BT": 7220,
      "Ġqual": 7221,
      "ĠPost": 7222,
      "ĠCub": 7223,
      "Ġsharing": 7224,
      "56": 7225,
      "apes": 7226,
      "enaissance": 7227,
      "Ġhidden": 7228,
      "ĠCommission": 7229,
      "Ġinterior": 7230,
      "Ġgranted": 7231,
      "orph": 7232,
      "page": 7233,
      "Ġ2016": 7234,
      "ĠConn": 7235,
      "Ġdb": 7236,
      "coordin": 7237,
      "atever": 7238,
      "unte": 7239,
      "Ġsurg": 7240,
      "Ġcubic": 7241,
      "Ġclock": 7242,
      "ĠOff": 7243,
      "heast": 7244,
      "Ġseeing": 7245,
      "Ġwildlife": 7246,
      "fts": 7247,
      "Ġperimeter": 7248,
      "ĠDutch": 7249,
      "ĠSimplify": 7250,
      "ĠSenate": 7251,
      "Ġattend": 7252,
      "istical": 7253,
      "ramid": 7254,
      "Ġpossibly": 7255,
      "ropical": 7256,
      "last": 7257,
      "ĠValley": 7258,
      "Ġsav": 7259,
      "Ġimplemented": 7260,
      "throp": 7261,
      "Ġmachines": 7262,
      "Ġrig": 7263,
      "Ġhttps": 7264,
      "Ġbomb": 7265,
      "alid": 7266,
      "isher": 7267,
      "Ġraw": 7268,
      "Ġsatell": 7269,
      "ventions": 7270,
      "Ġlisten": 7271,
      "Ġfashion": 7272,
      "ini": 7273,
      "Ġpure": 7274,
      "Ġtreaty": 7275,
      "ĠPalest": 7276,
      "Ġcategories": 7277,
      "Ġsorted": 7278,
      "Ġexpensive": 7279,
      "Ġobjective": 7280,
      "rations": 7281,
      "Ġnoise": 7282,
      "Ġworship": 7283,
      "ael": 7284,
      "'),": 7285,
      "ffect": 7286,
      "Ġopposed": 7287,
      "Ġ!=": 7288,
      "ĠOrgan": 7289,
      "ĠRetrie": 7290,
      "ilon": 7291,
      "Other": 7292,
      "Stud": 7293,
      "organ": 7294,
      "Ġinterpretation": 7295,
      "Ġuncertain": 7296,
      "Ġequally": 7297,
      "Ġpray": 7298,
      "egative": 7299,
      "oo": 7300,
      "Ġtox": 7301,
      "fol": 7302,
      "Ġecosystems": 7303,
      "ĠHy": 7304,
      "fish": 7305,
      "ca": 7306,
      "Ġbot": 7307,
      "Ġinvasion": 7308,
      "ĠPract": 7309,
      "ĠSmith": 7310,
      "Ġlistening": 7311,
      "first": 7312,
      "Ġsole": 7313,
      "Ġprev": 7314,
      "Ġpermanent": 7315,
      "Ġneuro": 7316,
      "ĠBre": 7317,
      "Ġfur": 7318,
      "quit": 7319,
      "Ġbatch": 7320,
      "Ġimplications": 7321,
      "ĠMag": 7322,
      "craft": 7323,
      "Ġbeneficial": 7324,
      "9999": 7325,
      "Ġremind": 7326,
      "Ġcorner": 7327,
      "ptions": 7328,
      "Ġcontained": 7329,
      "using": 7330,
      "ĠTuple": 7331,
      "Ġnumerical": 7332,
      "Ġpolar": 7333,
      "Ġ2018": 7334,
      "ested": 7335,
      "olved": 7336,
      "Ġcalculating": 7337,
      "Ġmir": 7338,
      "cluding": 7339,
      "ql": 7340,
      "Ġbow": 7341,
      "oose": 7342,
      "Ġmanufacturing": 7343,
      "Ġtoler": 7344,
      "Ġregulations": 7345,
      "Ġrising": 7346,
      "Ġfacilities": 7347,
      "Ġtwenty": 7348,
      "Ġsales": 7349,
      "Ġexpectations": 7350,
      "Ġdispl": 7351,
      "Ġweights": 7352,
      "Ġlaunched": 7353,
      "Ġwear": 7354,
      "Ġmeasuring": 7355,
      "Ġsculpt": 7356,
      "bered": 7357,
      "iary": 7358,
      "Ġconcrete": 7359,
      "ĠInv": 7360,
      "Pr": 7361,
      "ĠOcean": 7362,
      "base": 7363,
      "Ġcenters": 7364,
      "ĠVer": 7365,
      "Ġdistributed": 7366,
      "Ġbone": 7367,
      "ĠPenn": 7368,
      "thon": 7369,
      "Ġdelay": 7370,
      "Ġwarming": 7371,
      "ĠPortug": 7372,
      "Ġnewsp": 7373,
      "ras": 7374,
      "Ġfriction": 7375,
      "ĠImp": 7376,
      "Ġexisted": 7377,
      "Ġcentre": 7378,
      "ĠBase": 7379,
      "imeters": 7380,
      "ĠĠĠĠĠĠĠĠĠĠĠĠĠĠĠĠĠĠĠĠĠĠĠ": 7381,
      "Ġmedian": 7382,
      "Ġcharacteristic": 7383,
      "elines": 7384,
      "Ġsharp": 7385,
      "Ġwhereas": 7386,
      "Ġadvice": 7387,
      "Ġmultiplying": 7388,
      "uct": 7389,
      "Ġreinforce": 7390,
      "Ġ2010": 7391,
      "Ġ]": 7392,
      "71": 7393,
      "Ġthreats": 7394,
      "ician": 7395,
      "ells": 7396,
      "Ġln": 7397,
      "plom": 7398,
      "Ġ1980": 7399,
      "Ġnarrative": 7400,
      "Ġouter": 7401,
      "formation": 7402,
      "ĠThose": 7403,
      "approx": 7404,
      "ĠKnow": 7405,
      "eros": 7406,
      "ĠBi": 7407,
      "antine": 7408,
      "ĠLong": 7409,
      "Ġparticipation": 7410,
      "product": 7411,
      "Ġ2021": 7412,
      "\"{": 7413,
      "Ġcash": 7414,
      "ĠImport": 7415,
      "mu": 7416,
      "Ġartistic": 7417,
      "Ġmuscle": 7418,
      "ĠType": 7419,
      "Ġelectrical": 7420,
      "ĠGenerate": 7421,
      "Ġflour": 7422,
      "Ġ72": 7423,
      "ĠExtract": 7424,
      "Ġmultipl": 7425,
      "oad": 7426,
      "PS": 7427,
      "ĠOnly": 7428,
      "Ġcav": 7429,
      "itational": 7430,
      "Ġconscious": 7431,
      "Ġpra": 7432,
      "Ġvs": 7433,
      "ollowing": 7434,
      "called": 7435,
      "uits": 7436,
      "Ġbudget": 7437,
      "Ġbranches": 7438,
      "cript": 7439,
      "âĢĺ": 7440,
      "response": 7441,
      "lon": 7442,
      "ĠAssociation": 7443,
      "Ġ1950": 7444,
      "Ġsubstance": 7445,
      "ĠCap": 7446,
      "iated": 7447,
      "Ġflag": 7448,
      "roph": 7449,
      "Ġvisited": 7450,
      "ĠAN": 7451,
      "Ġdivine": 7452,
      "lib": 7453,
      "gest": 7454,
      "erving": 7455,
      "Ġcomprehensive": 7456,
      "Ġsuffered": 7457,
      "ĠProcess": 7458,
      "ĠRenaissance": 7459,
      "Ġblog": 7460,
      "plex": 7461,
      "wargs": 7462,
      "Ġimplementation": 7463,
      "opes": 7464,
      "Ġcrew": 7465,
      "abs": 7466,
      "Ġdiagnosis": 7467,
      "ĠPakistan": 7468,
      "pace": 7469,
      "Ġcoin": 7470,
      "arly": 7471,
      "Ġdriving": 7472,
      "ĠMes": 7473,
      "Ġmal": 7474,
      "fare": 7475,
      "person": 7476,
      "Ġinher": 7477,
      "ĠScott": 7478,
      "ĠYet": 7479,
      "Ġreflected": 7480,
      "ĠMax": 7481,
      "amps": 7482,
      "Ġ49": 7483,
      "ĠCirc": 7484,
      "Node": 7485,
      "Ġaccum": 7486,
      "ogue": 7487,
      "ĠEmperor": 7488,
      "Ġminute": 7489,
      "Ġappointed": 7490,
      "Type": 7491,
      ")/(": 7492,
      "ĠCD": 7493,
      "total": 7494,
      "Ġissued": 7495,
      "Ġ38": 7496,
      "Do": 7497,
      "ĠJour": 7498,
      "BC": 7499,
      "Ġparticle": 7500,
      "ĠPhys": 7501,
      "ented": 7502,
      "abil": 7503,
      "Time": 7504,
      "ĠOper": 7505,
      "Ġpsychological": 7506,
      "Ġinfluential": 7507,
      "Ġsteel": 7508,
      "oded": 7509,
      "mic": 7510,
      "ĠPerform": 7511,
      "achers": 7512,
      "Ġmanufacture": 7513,
      "MA": 7514,
      "EL": 7515,
      "ĠHave": 7516,
      "Ġsubstantial": 7517,
      "tical": 7518,
      "Ġstack": 7519,
      "reshold": 7520,
      "ua": 7521,
      "Ġsilver": 7522,
      "Ġleaf": 7523,
      "Ġpictures": 7524,
      "Ġsongs": 7525,
      "Ġdioxide": 7526,
      "beta": 7527,
      "cor": 7528,
      "Ġproteins": 7529,
      "Ġinstructions": 7530,
      "Ġreduction": 7531,
      "claim": 7532,
      "Ġviewed": 7533,
      "ĠBank": 7534,
      "Ġviruses": 7535,
      "ĠSing": 7536,
      "Ġindicating": 7537,
      "ĠGl": 7538,
      "'],": 7539,
      "vari": 7540,
      "Ġarts": 7541,
      "ione": 7542,
      "Simplifying": 7543,
      "bing": 7544,
      "Ġbread": 7545,
      "[:": 7546,
      "Ġopposition": 7547,
      "Ġpandemic": 7548,
      "Ġ1920": 7549,
      "Ġunus": 7550,
      "agers": 7551,
      "bes": 7552,
      "ĠPublic": 7553,
      "Ġguess": 7554,
      "ĠSquare": 7555,
      "secutive": 7556,
      "79": 7557,
      "column": 7558,
      "ĠPythag": 7559,
      "acts": 7560,
      "Ġoverw": 7561,
      "Ġmos": 7562,
      "Î±": 7563,
      "aven": 7564,
      "Ġloyal": 7565,
      "Ġopening": 7566,
      "Ġholes": 7567,
      "Ġphone": 7568,
      "Ġdeaths": 7569,
      "Ġliteracy": 7570,
      "function": 7571,
      "Ġabuse": 7572,
      "Ġrub": 7573,
      "edy": 7574,
      "csv": 7575,
      "Ġdeliver": 7576,
      "Ġuniversal": 7577,
      "ĠAlexander": 7578,
      "otion": 7579,
      "Ġtreatments": 7580,
      "ĠPath": 7581,
      "Ġwriters": 7582,
      "Ġroads": 7583,
      "zil": 7584,
      "Ġsizes": 7585,
      "opol": 7586,
      "Ġargs": 7587,
      "Ġpayment": 7588,
      "born": 7589,
      "employ": 7590,
      "Div": 7591,
      "Ġquantities": 7592,
      "Ġstrategic": 7593,
      "iations": 7594,
      "Ġdocuments": 7595,
      "ĠTw": 7596,
      "}}$": 7597,
      "Ġdoor": 7598,
      "ĠNewton": 7599,
      "Ġradical": 7600,
      "ĠThough": 7601,
      "Ġdemonstrated": 7602,
      "Ġcoastal": 7603,
      "century": 7604,
      "Ġobservation": 7605,
      "umps": 7606,
      "ensus": 7607,
      "ĠDu": 7608,
      "Ġexecutive": 7609,
      "password": 7610,
      "Ġbias": 7611,
      "Ġseemed": 7612,
      "Ġmodule": 7613,
      "pm": 7614,
      "Ġholding": 7615,
      "Ġnewly": 7616,
      "54": 7617,
      "Ġspending": 7618,
      "Ġneither": 7619,
      "Ġrevenue": 7620,
      "ĠService": 7621,
      "RI": 7622,
      "keys": 7623,
      "ING": 7624,
      "ĠSym": 7625,
      "Ġsusp": 7626,
      "Ġoldest": 7627,
      "wind": 7628,
      "Ġorders": 7629,
      "sl": 7630,
      "ona": 7631,
      "sk": 7632,
      "Ġchart": 7633,
      "Ġmeasurements": 7634,
      "Ġretrie": 7635,
      "content": 7636,
      "Ġdecade": 7637,
      "ĠThree": 7638,
      "Ġbiological": 7639,
      "Ġlifestyle": 7640,
      "74": 7641,
      "Ġpredicted": 7642,
      "Ġharmful": 7643,
      "52": 7644,
      "ĠTreaty": 7645,
      "Ġmarried": 7646,
      "Ġconversation": 7647,
      "isp": 7648,
      "Ġlogarithm": 7649,
      "Ġbroader": 7650,
      "pack": 7651,
      "Ġregional": 7652,
      "Ġautonom": 7653,
      "Ġtraits": 7654,
      "Ġsections": 7655,
      "Ġproportional": 7656,
      "iled": 7657,
      "itical": 7658,
      "Ġnone": 7659,
      "ĠScient": 7660,
      "Ġmaps": 7661,
      "ĠBur": 7662,
      "Ġintense": 7663,
      "ðĿĳ": 7664,
      "Ġcv": 7665,
      "Ġconsult": 7666,
      "Ġvariance": 7667,
      "Ġliterary": 7668,
      "02": 7669,
      "Ġrender": 7670,
      "Ġstronger": 7671,
      "rooms": 7672,
      "73": 7673,
      "Ġartist": 7674,
      "Ġrefused": 7675,
      "Ġglac": 7676,
      "ĠHitler": 7677,
      "Ġnavigate": 7678,
      "Pe": 7679,
      "Ġconstantly": 7680,
      "Ġsettled": 7681,
      "Ġcommission": 7682,
      "ĠModel": 7683,
      "ĠMoreover": 7684,
      "ĠJoseph": 7685,
      "ĠTor": 7686,
      "Ġelections": 7687,
      "Ġcompound": 7688,
      "Ġresponses": 7689,
      "Ġstem": 7690,
      "Ġdominant": 7691,
      "ĠFrancis": 7692,
      "Ġdaughter": 7693,
      "Ġarrest": 7694,
      "Ġreader": 7695,
      "items": 7696,
      "Ġcommunic": 7697,
      "Ġlists": 7698,
      "Ġsteam": 7699,
      "Ġdemocratic": 7700,
      "Ġsovere": 7701,
      "Ġreverse": 7702,
      "ellion": 7703,
      "Ġdistrict": 7704,
      "aked": 7705,
      "Ġballs": 7706,
      "Ġtrials": 7707,
      "Ġframework": 7708,
      "Ġcurrency": 7709,
      "nderstanding": 7710,
      "Ġaccessible": 7711,
      "Ġimmun": 7712,
      "ĠConsider": 7713,
      "ĠAsk": 7714,
      "Ġexploring": 7715,
      "Even": 7716,
      "Ġ44": 7717,
      "Ġinfant": 7718,
      "Ġenslaved": 7719,
      "Ġdirections": 7720,
      "(),": 7721,
      "eps": 7722,
      "endar": 7723,
      "Ġ{}": 7724,
      "Ġdust": 7725,
      "Ġsimplified": 7726,
      "Ġod": 7727,
      "ĠFurthermore": 7728,
      "Ġpolyg": 7729,
      "Ġ-\\": 7730,
      "Ġcolleagues": 7731,
      "ĠPri": 7732,
      "uh": 7733,
      "Ġpoly": 7734,
      "91": 7735,
      "Äģ": 7736,
      "Ġnetworks": 7737,
      "CC": 7738,
      "Ġoccupied": 7739,
      "Sum": 7740,
      "Ġtrigon": 7741,
      "Ġdefeat": 7742,
      "Ġjump": 7743,
      "orne": 7744,
      "Ġphenomenon": 7745,
      "Ġpool": 7746,
      "Ġdevast": 7747,
      ".âĢĻ": 7748,
      "Ġtables": 7749,
      "ns": 7750,
      "Ġ2014": 7751,
      "Ġoccasion": 7752,
      "Ġpaths": 7753,
      "ĠTrain": 7754,
      "Ġorient": 7755,
      "Ġvessels": 7756,
      "Ġactively": 7757,
      "ĠGeorg": 7758,
      "Ġvegetation": 7759,
      "Ġenable": 7760,
      "Ġconverted": 7761,
      "UN": 7762,
      "Ġupdated": 7763,
      "bool": 7764,
      "TP": 7765,
      "Ġpip": 7766,
      "erals": 7767,
      "Ġproduces": 7768,
      "ĠMong": 7769,
      "ĠFinally": 7770,
      "det": 7771,
      "Ġnormally": 7772,
      "directory": 7773,
      "ulus": 7774,
      "Once": 7775,
      "ĠLib": 7776,
      "Ġlogger": 7777,
      "Ġcond": 7778,
      "eem": 7779,
      "iot": 7780,
      "Ġreasoning": 7781,
      "rium": 7782,
      "Ġmeaningful": 7783,
      "zen": 7784,
      "Ġtension": 7785,
      "arest": 7786,
      "Ġregarded": 7787,
      "Ġfunding": 7788,
      "Ġinclusive": 7789,
      "oles": 7790,
      "Ġserving": 7791,
      "LO": 7792,
      "Ġbiggest": 7793,
      "ĠSign": 7794,
      "Ġbattery": 7795,
      "++": 7796,
      "inity": 7797,
      "eries": 7798,
      "Ġchemicals": 7799,
      "ĠBrown": 7800,
      "Ġorb": 7801,
      "Ġprofessionals": 7802,
      "oto": 7803,
      "Ġroutes": 7804,
      "fortunately": 7805,
      "08": 7806,
      "Ġroughly": 7807,
      "itis": 7808,
      "Ġurl": 7809,
      "Ġattached": 7810,
      "Ġtensor": 7811,
      "Ġsmooth": 7812,
      "Ġboundary": 7813,
      "ĠÎ±": 7814,
      "ĠCommit": 7815,
      "Ġeigen": 7816,
      "Ġcarrying": 7817,
      "ĠFlor": 7818,
      "amily": 7819,
      "Ġbattles": 7820,
      "ĠMexican": 7821,
      "Ġeleph": 7822,
      "ĠFour": 7823,
      "solving": 7824,
      "Ġthread": 7825,
      "ĠAcad": 7826,
      "Ġ95": 7827,
      "Ġprosper": 7828,
      "Ġdrinking": 7829,
      "ĠJeff": 7830,
      "Ġpropos": 7831,
      "Ġsupports": 7832,
      "Ġdance": 7833,
      "fix": 7834,
      "Ġdriven": 7835,
      "Ġmaxim": 7836,
      "Ġaccommod": 7837,
      "Ġstrike": 7838,
      "Ġcommitted": 7839,
      "ocial": 7840,
      "ciences": 7841,
      "orough": 7842,
      "Ġimmigrants": 7843,
      "Ġscene": 7844,
      "find": 7845,
      "Ġpreced": 7846,
      "Ġtested": 7847,
      "Ġgeometry": 7848,
      "Ġexplicit": 7849,
      "ien": 7850,
      "ĠEv": 7851,
      "Ġdinosaurs": 7852,
      "Ġsensitive": 7853,
      "hav": 7854,
      "Ġlie": 7855,
      "Ġovercome": 7856,
      "ala": 7857,
      "Ġdrugs": 7858,
      "Ġdemands": 7859,
      "400": 7860,
      "acu": 7861,
      "Ġfab": 7862,
      "ogen": 7863,
      "Ġfocusing": 7864,
      "irty": 7865,
      "race": 7866,
      "Ġhier": 7867,
      "ĠEnvironment": 7868,
      "Ġplease": 7869,
      "Ġplus": 7870,
      "Ġruler": 7871,
      "Ġhistorians": 7872,
      "dev": 7873,
      "Ġlinks": 7874,
      "Ġegg": 7875,
      ")))": 7876,
      "ĠGermans": 7877,
      "Ġwheel": 7878,
      "ĠJSON": 7879,
      "Ġhusband": 7880,
      "Ġoverwhel": 7881,
      "Ġdrug": 7882,
      "Ġ39": 7883,
      "oston": 7884,
      "Ġpurchase": 7885,
      "Ġstones": 7886,
      "Ġemphasis": 7887,
      "Ġflying": 7888,
      "\\\\": 7889,
      "Ġancestors": 7890,
      "ilib": 7891,
      "Ġintersect": 7892,
      "Ġkilometers": 7893,
      "Ġbalanced": 7894,
      "Ġdesert": 7895,
      "Ġemergency": 7896,
      "filename": 7897,
      "Ġbabies": 7898,
      "Hist": 7899,
      "âĪĤ": 7900,
      "Solving": 7901,
      "Ġkinetic": 7902,
      "Ġtons": 7903,
      "Read": 7904,
      "Ġprem": 7905,
      "everal": 7906,
      "uts": 7907,
      "erior": 7908,
      "Rec": 7909,
      "ustom": 7910,
      "Ġju": 7911,
      "Ġ600": 7912,
      "Ġbringing": 7913,
      "Ġmarkets": 7914,
      "apse": 7915,
      "Ġruns": 7916,
      "ittle": 7917,
      "ĠDifferent": 7918,
      "ÃŃ": 7919,
      "Config": 7920,
      "umes": 7921,
      "Ġboat": 7922,
      "Ġmanif": 7923,
      "Ġseparated": 7924,
      "ĠGraph": 7925,
      "Ġhospital": 7926,
      "Ġknowing": 7927,
      "Ġtips": 7928,
      "Ġregression": 7929,
      "Ġbigger": 7930,
      "ogether": 7931,
      "abeth": 7932,
      "free": 7933,
      "ĠWood": 7934,
      "Ġworse": 7935,
      "Ġemotion": 7936,
      "Ġinsight": 7937,
      "Ġ56": 7938,
      "Ġil": 7939,
      "ĠAbout": 7940,
      "sey": 7941,
      "Ġcounting": 7942,
      "Ġunity": 7943,
      "Ġmountains": 7944,
      "Ġdiplom": 7945,
      "ĠBefore": 7946,
      "plete": 7947,
      "Ġcrime": 7948,
      "ĠVik": 7949,
      "PA": 7950,
      "ĠRad": 7951,
      "desc": 7952,
      "Ġadequ": 7953,
      "python": 7954,
      "dule": 7955,
      "ĠProtest": 7956,
      "Ġreactions": 7957,
      "Ġreflection": 7958,
      "Ġpaintings": 7959,
      "PO": 7960,
      "Ġreaching": 7961,
      "Ġprohib": 7962,
      "Ġdisrupt": 7963,
      "Ġunderlying": 7964,
      "Ġhappening": 7965,
      "ĠPoint": 7966,
      "Question": 7967,
      "Ġcouple": 7968,
      "Ġguard": 7969,
      "Ġlic": 7970,
      "Cont": 7971,
      "lobal": 7972,
      "achus": 7973,
      "next": 7974,
      "rypt": 7975,
      "Ġmaintained": 7976,
      "issipp": 7977,
      "ĠQuestions": 7978,
      "ĠMet": 7979,
      "Ġinsert": 7980,
      "ĠTy": 7981,
      "82": 7982,
      "Ġlibrary": 7983,
      "gment": 7984,
      "Ã¼": 7985,
      "Ġkings": 7986,
      "Ġdynamic": 7987,
      "Ġstead": 7988,
      "dec": 7989,
      "ĠProgram": 7990,
      "Ġcorpor": 7991,
      "Ġprogramming": 7992,
      "04": 7993,
      "ĠHindu": 7994,
      "Ġvegetables": 7995,
      "Ġfulf": 7996,
      "Ġtransmission": 7997,
      "anta": 7998,
      "Ġargue": 7999,
      "Ġlosses": 8000,
      "Ġfilename": 8001,
      "Ġthreatened": 8002,
      "Ġnit": 8003,
      "Ġweb": 8004,
      "Ġforming": 8005,
      "Ġdriver": 8006,
      "Ġnurs": 8007,
      "ĠStat": 8008,
      "âģ": 8009,
      "Today": 8010,
      "learn": 8011,
      "Ġquot": 8012,
      "Ġpredictions": 8013,
      "Ġmuscles": 8014,
      "Total": 8015,
      "Ġcrow": 8016,
      "icing": 8017,
      "Ġ250": 8018,
      "ani": 8019,
      "Ġath": 8020,
      "ĠTake": 8021,
      "squ": 8022,
      "initely": 8023,
      "that": 8024,
      "onia": 8025,
      "Ġrulers": 8026,
      "mir": 8027,
      "iability": 8028,
      "Ġengagement": 8029,
      "Ġdefeated": 8030,
      "Ġcontinent": 8031,
      "ĠWrit": 8032,
      "IL": 8033,
      "width": 8034,
      "Ġrituals": 8035,
      "reet": 8036,
      "Ġcovers": 8037,
      "token": 8038,
      "Ġcomputers": 8039,
      "Ġessentially": 8040,
      "Ġdynasty": 8041,
      "itors": 8042,
      "cribed": 8043,
      "Ġpreserve": 8044,
      "div": 8045,
      "ĠPy": 8046,
      "Ġethical": 8047,
      "annels": 8048,
      "ĠIntroduction": 8049,
      "Ġadds": 8050,
      "ultane": 8051,
      "Ġvaccines": 8052,
      "Ġgiant": 8053,
      "Ġunless": 8054,
      "zed": 8055,
      "Ġcotton": 8056,
      "Ġdisplacement": 8057,
      "aming": 8058,
      "ĠDynasty": 8059,
      "ĠVictor": 8060,
      "Ġborrow": 8061,
      "Ġholiday": 8062,
      "itory": 8063,
      "Ġsurfaces": 8064,
      "usalem": 8065,
      "Ġcomplicated": 8066,
      "Ġbeings": 8067,
      "esar": 8068,
      "kg": 8069,
      "Ġadjacent": 8070,
      "umin": 8071,
      "ĠChristians": 8072,
      "Ġwarri": 8073,
      "Ġarc": 8074,
      "lights": 8075,
      "Ġfever": 8076,
      "Ġphrase": 8077,
      "Ġeliminate": 8078,
      "Ġfrequent": 8079,
      "Ġ1930": 8080,
      "ĠBill": 8081,
      "Ġmask": 8082,
      "ĠPass": 8083,
      "ĠToy": 8084,
      "Ġdiagonal": 8085,
      "Ġconfident": 8086,
      "{(": 8087,
      "rh": 8088,
      "rog": 8089,
      "Ġdistinctive": 8090,
      "words": 8091,
      "atter": 8092,
      "ĠChristmas": 8093,
      "osaur": 8094,
      "Ġjudge": 8095,
      "Ġshop": 8096,
      "Ġmuse": 8097,
      "Ġsimplifies": 8098,
      "Ġharsh": 8099,
      "ĠGroup": 8100,
      "Ġachievement": 8101,
      "Ġcutting": 8102,
      "izabeth": 8103,
      "Or": 8104,
      ".**": 8105,
      "urches": 8106,
      "labels": 8107,
      "Ġtemplate": 8108,
      "Ġmit": 8109,
      "Ġ2022": 8110,
      "Ġtechnical": 8111,
      "Man": 8112,
      "Ġgravitational": 8113,
      "irs": 8114,
      "Ġtooth": 8115,
      "Ġgone": 8116,
      "Ġracism": 8117,
      "Ġshot": 8118,
      "Ġprovin": 8119,
      "Ġmechanism": 8120,
      "Ġexponential": 8121,
      "Ġ2011": 8122,
      "57": 8123,
      "Ġchick": 8124,
      "Ġconstitutional": 8125,
      "ranean": 8126,
      "aul": 8127,
      "Ġwis": 8128,
      "Ġaccurately": 8129,
      "Ġcrim": 8130,
      "Ġahead": 8131,
      "Ġhaz": 8132,
      "Ġenth": 8133,
      "ĠOutput": 8134,
      "ĠHIV": 8135,
      "Ġintegr": 8136,
      "dimensional": 8137,
      "query": 8138,
      "Ġtherap": 8139,
      "Ġtransformed": 8140,
      "Ġchannel": 8141,
      "Ġpasses": 8142,
      "ĠGood": 8143,
      "Ġproceed": 8144,
      "Ġconsecutive": 8145,
      "Ġadvantages": 8146,
      "Ġtherm": 8147,
      "ĠLim": 8148,
      "Ġ52": 8149,
      "Ġ41": 8150,
      "ĠUser": 8151,
      "Ġvoting": 8152,
      "theless": 8153,
      "Ġcylinder": 8154,
      "Ġblow": 8155,
      "Ġ2012": 8156,
      "uler": 8157,
      "ĠScotland": 8158,
      "Ġdf": 8159,
      "Gen": 8160,
      "US": 8161,
      "ĠTer": 8162,
      "Test": 8163,
      "Ġmoist": 8164,
      "Ġfertil": 8165,
      "ĠColor": 8166,
      "ĠModern": 8167,
      "ĠCy": 8168,
      "Ġchronic": 8169,
      "Ġinfinite": 8170,
      "hedule": 8171,
      "Ġsupposed": 8172,
      "ĠWhere": 8173,
      "Ġprocedure": 8174,
      "ĠMic": 8175,
      "intercept": 8176,
      "inn": 8177,
      "ĠMississipp": 8178,
      "ĠUs": 8179,
      "HO": 8180,
      "ĠLuther": 8181,
      "ĠKorea": 8182,
      "Ġvent": 8183,
      "Ġdiscussions": 8184,
      "Ġ54": 8185,
      "Ġhumanity": 8186,
      "Ġusername": 8187,
      "Ġ2013": 8188,
      "ceptions": 8189,
      "Ġestablishing": 8190,
      "Ġsurre": 8191,
      "ĠRichard": 8192,
      "lets": 8193,
      "Ġdiagram": 8194,
      "Form": 8195,
      "ĠDen": 8196,
      "Ġswitch": 8197,
      "ilibrium": 8198,
      "Ġoral": 8199,
      "othe": 8200,
      "opher": 8201,
      "ĠProt": 8202,
      "Ġexceptions": 8203,
      "Overall": 8204,
      "ĠNazi": 8205,
      "etts": 8206,
      "Le": 8207,
      "Ġtrip": 8208,
      "such": 8209,
      "Ġdisability": 8210,
      "Ġmotivation": 8211,
      "Ġarmed": 8212,
      "Ġcomfortable": 8213,
      "ĠJerusalem": 8214,
      "ĠBrazil": 8215,
      "CM": 8216,
      "Ġinfluences": 8217,
      "orean": 8218,
      "ĠCode": 8219,
      "Ġplanned": 8220,
      "Ġdrink": 8221,
      "ĠNon": 8222,
      "Ġrecovery": 8223,
      "ĠLiber": 8224,
      "Ġenforce": 8225,
      "Ġvolunte": 8226,
      "car": 8227,
      "Ġcompass": 8228,
      "Ġauthent": 8229,
      "ĠQueen": 8230,
      "Ġevident": 8231,
      "update": 8232,
      "pop": 8233,
      "Ġlake": 8234,
      "Ġilleg": 8235,
      "}_{": 8236,
      "Ġdetermining": 8237,
      "Ġrecycl": 8238,
      "Ġreflects": 8239,
      "....": 8240,
      "Ġatoms": 8241,
      "ĠCast": 8242,
      "Ġiter": 8243,
      "Ġpeas": 8244,
      "Ġdepart": 8245,
      "bmatrix": 8246,
      "ĠFood": 8247,
      "Ġmarginal": 8248,
      "ĠDivide": 8249,
      "Ġcelebrate": 8250,
      "Ġlots": 8251,
      "Ġdivisors": 8252,
      "Ġdenote": 8253,
      "Ġmanaging": 8254,
      "Ġcollaboration": 8255,
      "case": 8256,
      "features": 8257,
      "UL": 8258,
      "Alternatively": 8259,
      "Ġcollective": 8260,
      "Ġwarfare": 8261,
      "Ġspecialized": 8262,
      "ĠBig": 8263,
      "Ġeld": 8264,
      "06": 8265,
      "ĠPan": 8266,
      "ĠForce": 8267,
      "param": 8268,
      "arters": 8269,
      "irt": 8270,
      "char": 8271,
      "Ġpeak": 8272,
      "Ġhence": 8273,
      "ĠCat": 8274,
      "Ġduty": 8275,
      "Ġassigned": 8276,
      "just": 8277,
      "Ġâī¥": 8278,
      "cers": 8279,
      "cription": 8280,
      "Ġ\\,": 8281,
      "ĠVis": 8282,
      "Ġbarriers": 8283,
      "ĠDecl": 8284,
      "Supp": 8285,
      "Ġmining": 8286,
      "Ġsuperior": 8287,
      "ĠEvaluate": 8288,
      "Ġdense": 8289,
      "lv": 8290,
      "Ġalle": 8291,
      "Ġreforms": 8292,
      "Ġinnovation": 8293,
      "Ġasks": 8294,
      "Ġregist": 8295,
      "Ġprobabilities": 8296,
      "Ġcompr": 8297,
      "Ġfishing": 8298,
      "ĠDan": 8299,
      "Ġfalls": 8300,
      "ĠChild": 8301,
      "irus": 8302,
      "ĠBoston": 8303,
      "Î»": 8304,
      "ĠMr": 8305,
      "Ġthanks": 8306,
      "Ġtheme": 8307,
      "Two": 8308,
      "Ġprotecting": 8309,
      "Ġenorm": 8310,
      ":\")": 8311,
      "rowing": 8312,
      "Ġrhyth": 8313,
      "phone": 8314,
      "Ġdoubt": 8315,
      "Ġmood": 8316,
      "ackson": 8317,
      "ĠRepresent": 8318,
      "ĠRh": 8319,
      "Ġwalking": 8320,
      "Ġinstall": 8321,
      "argets": 8322,
      "Ġprecise": 8323,
      ":\",": 8324,
      "Ġarrival": 8325,
      "Ġprinting": 8326,
      "IG": 8327,
      "Ġembed": 8328,
      "Ġoperating": 8329,
      "{-": 8330,
      "ĠFlorida": 8331,
      "Ġpreval": 8332,
      "ĠMinister": 8333,
      "Ġsatisfy": 8334,
      "ading": 8335,
      "1000": 8336,
      "Ġcontrad": 8337,
      "ano": 8338,
      "asp": 8339,
      "Ġsuffer": 8340,
      "ĠEnergy": 8341,
      "Ġnorms": 8342,
      "Ġconj": 8343,
      "actions": 8344,
      "Finally": 8345,
      "ĠAsian": 8346,
      "Ġflows": 8347,
      "Ġphon": 8348,
      "Ġvariation": 8349,
      "Ġexamine": 8350,
      "Ġintric": 8351,
      "Ġtum": 8352,
      "Ġdifferently": 8353,
      "Ġconstants": 8354,
      "Ġreinfor": 8355,
      "Ġquarter": 8356,
      "eor": 8357,
      "Ġcharged": 8358,
      "Ġdrag": 8359,
      "Ġwinning": 8360,
      "Ġteen": 8361,
      "ĠWall": 8362,
      "Ġparameter": 8363,
      "DP": 8364,
      "Em": 8365,
      "Ġstere": 8366,
      "Ġcriminal": 8367,
      "300": 8368,
      "gence": 8369,
      "Ġbroke": 8370,
      "Ġdistur": 8371,
      "Ġvaried": 8372,
      "ĠChic": 8373,
      "Ġpages": 8374,
      "Ġportray": 8375,
      "Ġintervals": 8376,
      "ĠFunctions": 8377,
      "ĠSwed": 8378,
      "Ġstrings": 8379,
      "ĠColon": 8380,
      "ĠNature": 8381,
      "Ġangular": 8382,
      "hyd": 8383,
      "ruption": 8384,
      "Ġreliable": 8385,
      "ĠWithout": 8386,
      "Ġfunds": 8387,
      "Ġcircul": 8388,
      "sim": 8389,
      "lik": 8390,
      "Ġwider": 8391,
      "TH": 8392,
      "Ġresolution": 8393,
      "Ġintent": 8394,
      "Ġcorrelation": 8395,
      "ĠPop": 8396,
      "Ġsnakes": 8397,
      "atom": 8398,
      "acles": 8399,
      "Ġfeathers": 8400,
      "Ġlogical": 8401,
      "ĠIslamic": 8402,
      "achusetts": 8403,
      "ĠBro": 8404,
      "Ġexercises": 8405,
      "Ġroof": 8406,
      "ĠShow": 8407,
      "oths": 8408,
      "Reg": 8409,
      "ĠMartin": 8410,
      "check": 8411,
      "Ġinfinity": 8412,
      "Ġparliament": 8413,
      "Ġtraffic": 8414,
      "inition": 8415,
      "Ġremote": 8416,
      "oured": 8417,
      "Ġalgorithms": 8418,
      "Set": 8419,
      "holds": 8420,
      "Ġwait": 8421,
      "ĠIN": 8422,
      "Ġcraft": 8423,
      "pa": 8424,
      "UM": 8425,
      "under": 8426,
      "irth": 8427,
      "ĠJul": 8428,
      "esh": 8429,
      "ĠBaby": 8430,
      "ĠGreeks": 8431,
      "Ġamaz": 8432,
      "ĠÂ£": 8433,
      "Ġspoken": 8434,
      "ĠDivision": 8435,
      "Ġclot": 8436,
      "Invalid": 8437,
      "ĠLu": 8438,
      "Ġdeer": 8439,
      "iture": 8440,
      "Ġpump": 8441,
      "pd": 8442,
      "email": 8443,
      "Ġcandidate": 8444,
      "Rep": 8445,
      "Ġcareful": 8446,
      "icy": 8447,
      "Ġprivile": 8448,
      "Ġprotest": 8449,
      "kwargs": 8450,
      "Ġsacred": 8451,
      "Ġlisted": 8452,
      "%,": 8453,
      "Ġneutral": 8454,
      "Ġteams": 8455,
      "Ġpunishment": 8456,
      "Ġspectrum": 8457,
      "Ġspan": 8458,
      "Ġboxes": 8459,
      "Ġclosest": 8460,
      "Ġassumed": 8461,
      "Ġfires": 8462,
      "ĠAustralian": 8463,
      "etary": 8464,
      "Ġidentifying": 8465,
      "Ġsyndrome": 8466,
      "03": 8467,
      "Ġalongside": 8468,
      "Ġcycl": 8469,
      "ĠJac": 8470,
      "Ġzone": 8471,
      "oices": 8472,
      "illa": 8473,
      "Ġpasseng": 8474,
      "Ġentertain": 8475,
      "Ġdealing": 8476,
      "Ġputting": 8477,
      "wa": 8478,
      "Ġvictims": 8479,
      "ĠHom": 8480,
      "ĠMah": 8481,
      "ĠMississippi": 8482,
      "itz": 8483,
      "Am": 8484,
      "ny": 8485,
      "sts": 8486,
      "imental": 8487,
      "Ġtrading": 8488,
      "aining": 8489,
      "Ġinspire": 8490,
      "Ġconsumer": 8491,
      "âĪ«": 8492,
      "Ġ2008": 8493,
      "Ġattempted": 8494,
      "vol": 8495,
      "ften": 8496,
      "Ġsensory": 8497,
      "rage": 8498,
      "Ġburied": 8499,
      "Ġlowest": 8500,
      "Ġencount": 8501,
      "Ġepis": 8502,
      "eras": 8503,
      "ventional": 8504,
      "Ġscal": 8505,
      "Ġbreaking": 8506,
      "Ġempathy": 8507,
      "ocked": 8508,
      "acci": 8509,
      "ĠPeter": 8510,
      "Ġourselves": 8511,
      "ĠPlot": 8512,
      "save": 8513,
      "raham": 8514,
      "Ġfocuses": 8515,
      "Ġdollars": 8516,
      "wing": 8517,
      "ady": 8518,
      "aph": 8519,
      "advant": 8520,
      "elihood": 8521,
      "aria": 8522,
      "Ġcalculator": 8523,
      "Ġreceiving": 8524,
      "Ġcopper": 8525,
      "Ġnerv": 8526,
      "ĠMuslims": 8527,
      "ivals": 8528,
      "Ġqueue": 8529,
      "ĠEdward": 8530,
      "Ġbiod": 8531,
      "mean": 8532,
      "ĠNavy": 8533,
      "Ġbreathing": 8534,
      "ĠIndependence": 8535,
      "ĠÏĥ": 8536,
      "Ġlatest": 8537,
      "ĠRob": 8538,
      "ĠPoland": 8539,
      "ĠYoung": 8540,
      "Ġmerely": 8541,
      "umental": 8542,
      "Ġelectron": 8543,
      "iana": 8544,
      "Ġ$$": 8545,
      "target": 8546,
      "brew": 8547,
      "ĠToyota": 8548,
      "Ġconsiderable": 8549,
      "Ġconsumers": 8550,
      "ĠLab": 8551,
      "kin": 8552,
      "iterranean": 8553,
      "cover": 8554,
      "Ġexperiencing": 8555,
      "Ġapproxim": 8556,
      "Through": 8557,
      "Ġoutdo": 8558,
      "Ġpartner": 8559,
      "Ġfinite": 8560,
      "ĠMen": 8561,
      "ĠBetween": 8562,
      "Ġshorter": 8563,
      "ĠArctic": 8564,
      "Ġneighborhood": 8565,
      "Ġpit": 8566,
      "Ġphotos": 8567,
      "Ġmodified": 8568,
      "Ġpreserved": 8569,
      "comp": 8570,
      "Ġsnake": 8571,
      "ĠMassachusetts": 8572,
      "edge": 8573,
      "Ġmand": 8574,
      "icts": 8575,
      "rot": 8576,
      "gans": 8577,
      "tenance": 8578,
      "Ġdecay": 8579,
      "ĠCSV": 8580,
      "default": 8581,
      "Ġsequences": 8582,
      "Ġ('": 8583,
      "color": 8584,
      "Ġcontributing": 8585,
      "oving": 8586,
      "Ġadvent": 8587,
      "Ġoptimal": 8588,
      "Ġbears": 8589,
      "Ġrespir": 8590,
      "Ġnotation": 8591,
      "normal": 8592,
      "Ġsevent": 8593,
      "ĠExper": 8594,
      "omega": 8595,
      "lt": 8596,
      "ĠAz": 8597,
      "Ġblank": 8598,
      "RA": 8599,
      "Ġextend": 8600,
      "Ġhistoric": 8601,
      "ĠCall": 8602,
      "ĠElizabeth": 8603,
      "original": 8604,
      "Ġinjury": 8605,
      "aska": 8606,
      "Ġprisoners": 8607,
      "Ġfellow": 8608,
      "Ġforg": 8609,
      "Ġrecurs": 8610,
      "Ġcattle": 8611,
      "Ġperception": 8612,
      "inson": 8613,
      "Ab": 8614,
      "ĠDev": 8615,
      "eping": 8616,
      "Ġparse": 8617,
      "Ġcham": 8618,
      "ctu": 8619,
      "ogram": 8620,
      "58": 8621,
      "Ġenum": 8622,
      "Ġsocietal": 8623,
      "Ġmixture": 8624,
      "Ã³": 8625,
      "ĠJournal": 8626,
      "Ġsimultane": 8627,
      "ĠOpen": 8628,
      "Ġintroduce": 8629,
      "ĠâĪĪ": 8630,
      "ĠNorm": 8631,
      "ĠSometimes": 8632,
      "Ġcoordinate": 8633,
      "Class": 8634,
      "elfare": 8635,
      ")=": 8636,
      "Ġbonds": 8637,
      "ĠEnc": 8638,
      "Ġsup": 8639,
      "Ġrose": 8640,
      "velt": 8641,
      "Ġalter": 8642,
      "ĠMediterranean": 8643,
      "Ġtribe": 8644,
      "Ġpropag": 8645,
      "Ġrid": 8646,
      "Ġalive": 8647,
      "ĠEth": 8648,
      "Ġremoving": 8649,
      "Ġencouraging": 8650,
      "Ġgrams": 8651,
      "ivered": 8652,
      "example": 8653,
      "Ġextinction": 8654,
      "Ġhoney": 8655,
      "Ġjur": 8656,
      "ĠLeague": 8657,
      "Ġattacked": 8658,
      "ĠAmong": 8659,
      "Ġtit": 8660,
      "Ġfossils": 8661,
      "ĠPur": 8662,
      "Ġclassified": 8663,
      "Ġsampl": 8664,
      "Ġroutine": 8665,
      "ENT": 8666,
      "adel": 8667,
      "ilation": 8668,
      "inate": 8669,
      "Ġwhatever": 8670,
      "}.": 8671,
      "Ġran": 8672,
      "Ġdiffer": 8673,
      "Ġlabour": 8674,
      "Ġmerc": 8675,
      "expected": 8676,
      "essions": 8677,
      "Ġinterview": 8678,
      "ĠStandard": 8679,
      "ĠSimilarly": 8680,
      "Ġcas": 8681,
      "jud": 8682,
      "Ġ(\\": 8683,
      "Ġearned": 8684,
      "allow": 8685,
      "Ġconvey": 8686,
      "Ġdism": 8687,
      "Ġunusual": 8688,
      "ĠMill": 8689,
      "Ġmyst": 8690,
      "Ġvaries": 8691,
      "ĠJohnson": 8692,
      "Ã¶": 8693,
      "Ġbag": 8694,
      "Ġconven": 8695,
      "Ġgreenhouse": 8696,
      "Ġscenario": 8697,
      "Ġsunlight": 8698,
      "Ġrestric": 8699,
      "Ġbreast": 8700,
      "erts": 8701,
      "Ġtemporary": 8702,
      "Ġhur": 8703,
      "Ġdirected": 8704,
      "Ġoccurring": 8705,
      "Ġisolated": 8706,
      "ĠHoly": 8707,
      "Ġachievements": 8708,
      "predict": 8709,
      "ba": 8710,
      "Ġmonarch": 8711,
      "Ġimagine": 8712,
      "Additionally": 8713,
      "Ġownership": 8714,
      "Ġtrouble": 8715,
      "Ġtropical": 8716,
      "contin": 8717,
      "Ġconsume": 8718,
      "shaped": 8719,
      "53": 8720,
      "Ġfrust": 8721,
      "Ġperceived": 8722,
      "Ġowner": 8723,
      "Ġcamera": 8724,
      "zero": 8725,
      "Ġcaught": 8726,
      "Ġdrought": 8727,
      "Ġmeal": 8728,
      "Ġloved": 8729,
      "herent": 8730,
      "insett": 8731,
      "eger": 8732,
      "Ġessay": 8733,
      "Ġexcav": 8734,
      "ĠLanguage": 8735,
      "Ġburning": 8736,
      "Ġspin": 8737,
      "ĠIndust": 8738,
      "Ġsport": 8739,
      "Ġviolent": 8740,
      "cap": 8741,
      "ora": 8742,
      "mun": 8743,
      "ĠCost": 8744,
      "}^{\\": 8745,
      "ĠJackson": 8746,
      "Ġscientist": 8747,
      "ĠCommittee": 8748,
      "Fact": 8749,
      "Ġdimension": 8750,
      "Ġmovie": 8751,
      "acher": 8752,
      "format": 8753,
      "Ġreminder": 8754,
      "sylv": 8755,
      "Ġproven": 8756,
      "ĠReview": 8757,
      "ĠĠĠĠĠ": 8758,
      "itative": 8759,
      "ĠFormula": 8760,
      "Ġshut": 8761,
      "ĠHawai": 8762,
      "ĠMovement": 8763,
      "ĠGand": 8764,
      "Ġpersonality": 8765,
      "'d": 8766,
      "Ġestimates": 8767,
      "ĠSolving": 8768,
      "Ġasc": 8769,
      "Sp": 8770,
      "ĠLabor": 8771,
      "adow": 8772,
      "fulness": 8773,
      "Ġimprovement": 8774,
      "Ġcharges": 8775,
      "Art": 8776,
      "ronze": 8777,
      "ĠMer": 8778,
      "teenth": 8779,
      ",\\": 8780,
      "Ġmild": 8781,
      "Ġreprodu": 8782,
      "ĠPen": 8783,
      "exts": 8784,
      "argument": 8785,
      "Ġsurprising": 8786,
      "anned": 8787,
      "ounce": 8788,
      "Ġcoff": 8789,
      "Ġneck": 8790,
      "oven": 8791,
      "Ġchose": 8792,
      "Ġ43": 8793,
      "Ġreson": 8794,
      "Ġinstances": 8795,
      "Ġbases": 8796,
      "Ġweaken": 8797,
      "ibon": 8798,
      "Ġchurches": 8799,
      "Sc": 8800,
      "Ġpretty": 8801,
      "Ġcongru": 8802,
      "Ġ1940": 8803,
      "ĠFile": 8804,
      "ĠTemple": 8805,
      "Ġ2009": 8806,
      "sigma": 8807,
      "Ġcubes": 8808,
      "kl": 8809,
      "ĠArist": 8810,
      "ĠÎ»": 8811,
      "Ġsurvived": 8812,
      "coming": 8813,
      "Ġloan": 8814,
      "Understanding": 8815,
      "vas": 8816,
      "Ġstrongly": 8817,
      "GE": 8818,
      "ĠCaesar": 8819,
      "Ġtrauma": 8820,
      "ĠAges": 8821,
      "ĠPythagorean": 8822,
      "Ġsurgery": 8823,
      "Ġalph": 8824,
      "Ġnearest": 8825,
      "ĠJefferson": 8826,
      "Ġcompute": 8827,
      "ĠOrder": 8828,
      "bur": 8829,
      "Co": 8830,
      "Ġmasses": 8831,
      "ĠWild": 8832,
      "insettia": 8833,
      "Ġduration": 8834,
      "ogle": 8835,
      "ĠLater": 8836,
      "dr": 8837,
      "Ġ1800": 8838,
      "Ġending": 8839,
      "Ġspark": 8840,
      "Ġcompens": 8841,
      "ĠDisc": 8842,
      "Ġrod": 8843,
      "={": 8844,
      "Ġbask": 8845,
      "ami": 8846,
      "Ġaims": 8847,
      "Ġinhabitants": 8848,
      "}+": 8849,
      "Ġordinary": 8850,
      "Ġcrown": 8851,
      "Ġcamps": 8852,
      "ita": 8853,
      "Ġcup": 8854,
      "inant": 8855,
      "gers": 8856,
      "distance": 8857,
      "ĠFinding": 8858,
      "Ġstruggles": 8859,
      "Ġnaval": 8860,
      "Ġavailability": 8861,
      "onym": 8862,
      "real": 8863,
      "MS": 8864,
      "Ġhighlights": 8865,
      "Ġreaches": 8866,
      "Ġwooden": 8867,
      "ĠPersian": 8868,
      "Ġselling": 8869,
      "Ġingred": 8870,
      "Ġveter": 8871,
      "Ġtechnological": 8872,
      "Ġfavorite": 8873,
      "Ġintensity": 8874,
      "ĠOttoman": 8875,
      "ceans": 8876,
      "teries": 8877,
      "Ġinvolvement": 8878,
      "Ġaggressive": 8879,
      "Subtract": 8880,
      "Ġconclude": 8881,
      "Children": 8882,
      "Ġbutter": 8883,
      "Ġoperator": 8884,
      "ette": 8885,
      "HT": 8886,
      "Ġsemi": 8887,
      "Ġgovernance": 8888,
      "Ġenduring": 8889,
      "connection": 8890,
      "Ġstood": 8891,
      "Ġassociation": 8892,
      "Ġnutrition": 8893,
      "Ġpreventing": 8894,
      "adata": 8895,
      "Ġdescend": 8896,
      "Ġbee": 8897,
      "aland": 8898,
      "Get": 8899,
      "loss": 8900,
      "Ġcourage": 8901,
      "Ġdiver": 8902,
      "ĠPoinsettia": 8903,
      "Ġdisaster": 8904,
      "ĠFactor": 8905,
      "Ġdys": 8906,
      "Ġmonitoring": 8907,
      "Exp": 8908,
      "Ġmonitor": 8909,
      "oup": 8910,
      "Ġaccompan": 8911,
      "Ġdelivered": 8912,
      "Ġgases": 8913,
      "heses": 8914,
      "Ġblind": 8915,
      "Ġacquired": 8916,
      "rels": 8917,
      "ĠTree": 8918,
      "Ġrevers": 8919,
      "sylvania": 8920,
      "osh": 8921,
      "Ġ360": 8922,
      "olesc": 8923,
      "Ġwages": 8924,
      "Ġdescript": 8925,
      "Ġmechanical": 8926,
      "ographical": 8927,
      "Ġknows": 8928,
      "Ġ$$\\": 8929,
      "uels": 8930,
      "ĠLinear": 8931,
      "dess": 8932,
      "erated": 8933,
      "Ġensures": 8934,
      ")^{": 8935,
      "olla": 8936,
      "Ġabsence": 8937,
      "achment": 8938,
      "Ġacknowled": 8939,
      "Ġlimitations": 8940,
      "agement": 8941,
      "forward": 8942,
      "ĠHome": 8943,
      "angers": 8944,
      "ĠSee": 8945,
      "Ġpione": 8946,
      "Ġelabor": 8947,
      "mn": 8948,
      "Ġprocessed": 8949,
      "ĠWho": 8950,
      "ĠCamp": 8951,
      "Ġrelax": 8952,
      "Ġfinds": 8953,
      "Ġnom": 8954,
      "Ġenormous": 8955,
      "Ġvillages": 8956,
      "Ġencounter": 8957,
      "Ġaward": 8958,
      "azz": 8959,
      "ĠEnd": 8960,
      "Ġdramatic": 8961,
      "Ġcomplement": 8962,
      "Ġwhales": 8963,
      "Ġbuff": 8964,
      "Ġoperate": 8965,
      "Ġ99": 8966,
      "Ġminority": 8967,
      "ifice": 8968,
      "Ġequilibrium": 8969,
      "Ġkilling": 8970,
      "icity": 8971,
      "iah": 8972,
      "lan": 8973,
      "Ġinputs": 8974,
      "itarian": 8975,
      "ibonacci": 8976,
      "igned": 8977,
      "Ġseat": 8978,
      "Ġ['": 8979,
      "ĠNap": 8980,
      "Ġpackage": 8981,
      "ĠHam": 8982,
      "Ġcalendar": 8983,
      "Ġrecognizing": 8984,
      "ĠArticle": 8985,
      "Ġmatches": 8986,
      "Ġoverl": 8987,
      "'])": 8988,
      "Ġchoosing": 8989,
      "author": 8990,
      "Requ": 8991,
      "Ġvocal": 8992,
      "graph": 8993,
      "Ġ'__": 8994,
      "Ġrarely": 8995,
      "ĠPlease": 8996,
      "ĠConfederate": 8997,
      "Ġ(âĪļ": 8998,
      "09": 8999,
      "parent": 9000,
      "Ġsomewhat": 9001,
      "Ġdestination": 9002,
      "Ġinnovative": 9003,
      "ĠPeriod": 9004,
      "Ġrecover": 9005,
      "ĠBoard": 9006,
      "Ġcustoms": 9007,
      "files": 9008,
      "emies": 9009,
      "Ġkeys": 9010,
      "athered": 9011,
      "Ġattributes": 9012,
      "Ġorgans": 9013,
      "Because": 9014,
      "Ġexceed": 9015,
      "Ġchrom": 9016,
      "ĠRoose": 9017,
      "Ġcourses": 9018,
      "Ġtoys": 9019,
      "Ġwithdraw": 9020,
      "inci": 9021,
      "earing": 9022,
      "ao": 9023,
      "agraph": 9024,
      "reating": 9025,
      "Log": 9026,
      "ĠGrand": 9027,
      "Ġfed": 9028,
      "Ġdoct": 9029,
      "Ġcorn": 9030,
      ")**:": 9031,
      "ributed": 9032,
      "hematic": 9033,
      "Ġprocedures": 9034,
      "ĠHebrew": 9035,
      "Ġoppon": 9036,
      "Ġdraft": 9037,
      "Ġlens": 9038,
      "Ġox": 9039,
      "Ġworkshe": 9040,
      "FA": 9041,
      "Ġlosing": 9042,
      "Ġversions": 9043,
      "Ġoccupation": 9044,
      "ĠRoosevelt": 9045,
      "clude": 9046,
      "Ġfalling": 9047,
      "Ġsubtraction": 9048,
      "Ġattitudes": 9049,
      "Ġfifth": 9050,
      "ĠSir": 9051,
      "non": 9052,
      "Ġraising": 9053,
      "ĠDoes": 9054,
      "requency": 9055,
      "Ġgovernor": 9056,
      "Ġrealized": 9057,
      "My": 9058,
      "ki": 9059,
      "ifference": 9060,
      "ĠWars": 9061,
      "Ġrevolutionary": 9062,
      "Ġcert": 9063,
      "Ġclay": 9064,
      "iblical": 9065,
      "ĠRule": 9066,
      "Ġconfirmed": 9067,
      "ois": 9068,
      "Ġresid": 9069,
      "ĠOrig": 9070,
      "Ġinvention": 9071,
      "Ġwealthy": 9072,
      "Ġma": 9073,
      "Ġperforming": 9074,
      "Ġclinical": 9075,
      "Ġreflecting": 9076,
      "Ġstereot": 9077,
      "Ġmilit": 9078,
      "Ġpopularity": 9079,
      "roat": 9080,
      "Ġdepicted": 9081,
      "reek": 9082,
      "rightarrow": 9083,
      "Ġsettlements": 9084,
      "pox": 9085,
      "Ġaccident": 9086,
      "ĠPennsylvania": 9087,
      "Ġworker": 9088,
      "Ġisinstance": 9089,
      "Ġpossibilities": 9090,
      "*(": 9091,
      "Ġdress": 9092,
      "Ġinvented": 9093,
      "Ġdynamics": 9094,
      "ourse": 9095,
      "ĠFred": 9096,
      "Ġwish": 9097,
      "ket": 9098,
      "ĠVietnam": 9099,
      "Ġcriteria": 9100,
      "ĠIll": 9101,
      "Ġquiet": 9102,
      "Ġmosquit": 9103,
      "Ġfleet": 9104,
      "vin": 9105,
      "Ġenthus": 9106,
      "Ġabstract": 9107,
      "ĠGeorgia": 9108,
      "Ġbull": 9109,
      "ineteenth": 9110,
      "Ġassets": 9111,
      "Ġtargets": 9112,
      "Ġdiagnosed": 9113,
      "ansas": 9114,
      "mm": 9115,
      "Ġconcluded": 9116,
      "07": 9117,
      "Ġ2007": 9118,
      "ĠJustice": 9119,
      "Before": 9120,
      "Ġaddressing": 9121,
      "Ġpreferred": 9122,
      "Ġremoval": 9123,
      "cat": 9124,
      "ĠSud": 9125,
      "Ġthrone": 9126,
      "abetes": 9127,
      "Ġsoph": 9128,
      "parts": 9129,
      "Ġ2023": 9130,
      "Ġremem": 9131,
      "51": 9132,
      "Area": 9133,
      "ĠNet": 9134,
      "Ġcul": 9135,
      "Ġgrows": 9136,
      "Ġcolonists": 9137,
      "Ġcloud": 9138,
      "Ġcombine": 9139,
      "Ġcook": 9140,
      "Ġregime": 9141,
      "Enter": 9142,
      "ston": 9143,
      "Ġcontribution": 9144,
      "Ġextension": 9145,
      "ih": 9146,
      "EP": 9147,
      "quir": 9148,
      "height": 9149,
      "Ġabolition": 9150,
      "Ġminerals": 9151,
      "idate": 9152,
      "izers": 9153,
      "Ġruling": 9154,
      "ĠEngine": 9155,
      "yme": 9156,
      "Ġexpedition": 9157,
      "Ġpassion": 9158,
      "Ġfarms": 9159,
      "Ġbrings": 9160,
      "Out": 9161,
      "command": 9162,
      "ref": 9163,
      "ĠUk": 9164,
      "Ġclick": 9165,
      "Ġcandidates": 9166,
      "__':": 9167,
      "Ġrepet": 9168,
      "Ġcovering": 9169,
      "Ġopinions": 9170,
      "Ġfunctioning": 9171,
      "Ġowned": 9172,
      "Ġmetric": 9173,
      "Ġdeleg": 9174,
      "Ġadministrative": 9175,
      "Ġforth": 9176,
      "ĠUnlike": 9177,
      "akespe": 9178,
      "Ġrelief": 9179,
      "Ġevaluation": 9180,
      "125": 9181,
      "$=": 9182,
      "Ġvisitors": 9183,
      "Ġcontamin": 9184,
      "Ġsys": 9185,
      "Ġdiscoveries": 9186,
      "Ġstatistical": 9187,
      "search": 9188,
      "ĠChange": 9189,
      "Ġrice": 9190,
      "ĠConnect": 9191,
      "Ġexhibit": 9192,
      "Ġmoles": 9193,
      "cur": 9194,
      "People": 9195,
      "ĠProduct": 9196,
      "Ġelectrons": 9197,
      "Ġchances": 9198,
      "Yes": 9199,
      "Ġefficiently": 9200,
      "Ġduties": 9201,
      "Ġcollapse": 9202,
      "oves": 9203,
      "ĠAnn": 9204,
      "Ġaer": 9205,
      "Ġampl": 9206,
      "angered": 9207,
      "Ġtemples": 9208,
      "ĠIncre": 9209,
      "Ġqualities": 9210,
      "Ġnose": 9211,
      "Ġmechanisms": 9212,
      "Ġmatrices": 9213,
      "Ġtraveling": 9214,
      "dataset": 9215,
      "Ġceleb": 9216,
      "ĠStudies": 9217,
      "ĠOhio": 9218,
      "Ġdamaged": 9219,
      "ĠWell": 9220,
      "Ġencourages": 9221,
      "ĠImage": 9222,
      "Ġvotes": 9223,
      "ĠLess": 9224,
      "ĠInterest": 9225,
      "Ġidentical": 9226,
      "Ġcampaigns": 9227,
      "Ġeffectiveness": 9228,
      "Ġped": 9229,
      "Ġrebellion": 9230,
      "Ġwisdom": 9231,
      "Ġpivotal": 9232,
      "ears": 9233,
      "Ġreveal": 9234,
      "ĠVolume": 9235,
      "CA": 9236,
      "ĠCop": 9237,
      "Ġofficially": 9238,
      "Ġtot": 9239,
      "rection": 9240,
      "Ġwavelength": 9241,
      "Ġlegend": 9242,
      "Ġfabric": 9243,
      "akespeare": 9244,
      "ĠEuropeans": 9245,
[...]
