{
  "version": "1.0",
  "truncation": null,
  "padding": null,
  "added_tokens": [
    {
      "id": 0,
      "content": "<unk>",
      "single_word": false,
      "lstrip": false,
      "rstrip": false,
      "normalized": false,
      "special": true
    },
    {
      "id": 1,
      "content": "<pad>",
      "single_word": false,
      "lstrip": false,
      "rstrip": false,
      "normalized": false,
      "special": true
    },
    {
      "id": 2,
      "content": "<bos>",
      "single_word": false,
      "lstrip": false,
      "rstrip": false,
      "normalized": false,
      "special": true
    },
    {
      "id": 3,
      "content": "<eos>",
      "single_word": false,
      "lstrip": false,
      "rstrip": false,
      "normalized": false,
      "special": true
    }
  ],
  "normalizer": null,
  "pre_tokenizer": {
    "type": "ByteLevel",
    "add_prefix_space": false,
    "trim_offsets": true,
    "use_regex": true
  },
  "post_processor": {
    "type": "TemplateProcessing",
    "single": [
      {
        "SpecialToken": {
          "id": "<bos>",
          "type_id": 0
        }
      },
      {
        "Sequence": {
          "id": "A",
          "type_id": 0
        }
      },
      {
        "SpecialToken": {
          "id": "<eos>",
          "type_id": 0
        }
      }
    ],
    "pair": [
      {
        "SpecialToken": {
          "id": "<bos>",
          "type_id": 0
        }
      },
      {
        "Sequence": {
          "id": "A",
          "type_id": 0
        }
      },
      {
        "SpecialToken": {
          "id": "<eos>",
          "type_id": 0
        }
      },
      {
        "SpecialToken": {
          "id": "<bos>",
          "type_id": 0
        }
      },
      {
        "Sequence": {
          "id": "B",
          "type_id": 0
        }
      },
      {
        "SpecialToken": {
          "id": "<eos>",
          "type_id": 0
        }
      }
    ],
    "special_tokens": {
      "<bos>": {
        "id": "<bos>",
        "ids": [
          2
        ],
        "tokens": [
          "<bos>"
        ]
      },
      "<eos>": {
        "id": "<eos>",
        "ids": [
          3
        ],
        "tokens": [
          "<eos>"
        ]
      }
    }
  },
  "decoder": {
    "type": "ByteLevel",
    "add_prefix_space": true,
    "trim_offsets": true,
    "use_regex": true
  },
  "model": {
    "type": "BPE",
    "dropout": null,
    "unk_token": "<unk>",
    "continuing_subword_prefix": null,
    "end_of_word_suffix": null,
    "fuse_unk": false,
    "byte_fallback": false,
    "ignore_merges": false,
    "vocab": {
      "<unk>": 0,
      "<pad>": 1,
      "<bos>": 2,
      "<eos>": 3,
      "!": 4,
      "\"": 5,
      "#": 6,
      "$": 7,
      "%": 8,
      "&": 9,
      "'": 10,
      "(": 11,
      ")": 12,
      "*": 13,
      "+": 14,
      ",": 15,
      "-": 16,
      ".": 17,
      "/": 18,
      "0": 19,
      "1": 20,
      "2": 21,
      "3": 22,
      "4": 23,
      "5": 24,
      "6": 25,
      "7": 26,
      "8": 27,
      "9": 28,
      ":": 29,
      ";": 30,
      "<": 31,
      "=": 32,
      ">": 33,
      "?": 34,
      "@": 35,
      "A": 36,
      "B": 37,
      "C": 38,
      "D": 39,
      "E": 40,
      "F": 41,
      "G": 42,
      "H": 43,
      "I": 44,
      "J": 45,
      "K": 46,
      "L": 47,
      "M": 48,
      "N": 49,
      "O": 50,
      "P": 51,
      "Q": 52,
      "R": 53,
      "S": 54,
      "T": 55,
      "U": 56,
      "V": 57,
      "W": 58,
      "X": 59,
      "Y": 60,
      "Z": 61,
      "[": 62,
      "\\": 63,
      "]": 64,
      "^": 65,
      "_": 66,
      "`": 67,
      "a": 68,
      "b": 69,
      "c": 70,
      "d": 71,
      "e": 72,
      "f": 73,
      "g": 74,
      "h": 75,
      "i": 76,
      "j": 77,
      "k": 78,
      "l": 79,
      "m": 80,
      "n": 81,
      "o": 82,
      "p": 83,
      "q": 84,
      "r": 85,
      "s": 86,
      "t": 87,
      "u": 88,
      "v": 89,
      "w": 90,
      "x": 91,
      "y": 92,
      "z": 93,
      "{": 94,
      "|": 95,
      "}": 96,
      "~": 97,
      "¡": 98,
      "¢": 99,
      "£": 100,
      "¤": 101,
      "¥": 102,
      "¦": 103,
      "§": 104,
      "¨": 105,
      "©": 106,
      "ª": 107,
      "«": 108,
      "¬": 109,
      "®": 110,
      "¯": 111,
      "°": 112,
      "±": 113,
      "²": 114,
      "³": 115,
      "´": 116,
      "µ": 117,
      "¶": 118,
      "·": 119,
      "¸": 120,
      "¹": 121,
      "º": 122,
      "»": 123,
      "¼": 124,
      "½": 125,
      "¾": 126,
      "¿": 127,
      "À": 128,
      "Á": 129,
      "Â": 130,
      "Ã": 131,
      "Ä": 132,
      "Å": 133,
      "Æ": 134,
      "Ç": 135,
      "È": 136,
      "É": 137,
      "Ê": 138,
      "Ë": 139,
      "Ì": 140,
      "Í": 141,
      "Î": 142,
      "Ï": 143,
      "Ð": 144,
      "Ñ": 145,
      "Ò": 146,
      "Ó": 147,
      "Ô": 148,
      "Õ": 149,
      "Ö": 150,
      "×": 151,
      "Ø": 152,
      "Ù": 153,
      "Ú": 154,
      "Û": 155,
      "Ü": 156,
      "Ý": 157,
      "Þ": 158,
      "ß": 159,
      "à": 160,
      "á": 161,
      "â": 162,
      "ã": 163,
      "ä": 164,
      "å": 165,
      "æ": 166,
      "ç": 167,
      "è": 168,
      "é": 169,
      "ê": 170,
      "ë": 171,
      "ì": 172,
      "í": 173,
      "î": 174,
      "ï": 175,
      "ð": 176,
      "ñ": 177,
      "ò": 178,
      "ó": 179,
      "ô": 180,
      "õ": 181,
      "ö": 182,
      "÷": 183,
      "ø": 184,
      "ù": 185,
      "ú": 186,
      "û": 187,
      "ü": 188,
      "ý": 189,
      "þ": 190,
      "ÿ": 191,
      "Ā": 192,
      "ā": 193,
      "Ă": 194,
      "ă": 195,
      "Ą": 196,
      "ą": 197,
      "Ć": 198,
      "ć": 199,
      "Ĉ": 200,
      "ĉ": 201,
      "Ċ": 202,
      "ċ": 203,
      "Č": 204,
      "č": 205,
      "Ď": 206,
      "ď": 207,
      "Đ": 208,
      "đ": 209,
      "Ē": 210,
      "ē": 211,
      "Ĕ": 212,
      "ĕ": 213,
      "Ė": 214,
      "ė": 215,
      "Ę": 216,
      "ę": 217,
      "Ě": 218,
      "ě": 219,
      "Ĝ": 220,
      "ĝ": 221,
      "Ğ": 222,
      "ğ": 223,
      "Ġ": 224,
      "ġ": 225,
      "Ģ": 226,
      "ģ": 227,
      "Ĥ": 228,
      "ĥ": 229,
      "Ħ": 230,
      "ħ": 231,
      "Ĩ": 232,
      "ĩ": 233,
      "Ī": 234,
      "ī": 235,
      "Ĭ": 236,
      "ĭ": 237,
      "Į": 238,
      "į": 239,
      "İ": 240,
      "ı": 241,
      "Ĳ": 242,
      "ĳ": 243,
      "Ĵ": 244,
      "ĵ": 245,
      "Ķ": 246,
      "ķ": 247,
      "ĸ": 248,
      "Ĺ": 249,
      "ĺ": 250,
      "Ļ": 251,
      "ļ": 252,
      "Ľ": 253,
      "ľ": 254,
      "Ŀ": 255,
      "ŀ": 256,
      "Ł": 257,
      "ł": 258,
      "Ń": 259,
      "Ġt": 260,
      "he": 261,
      "Ġa": 262,
      "in": 263,
      "Ġthe": 264,
      "re": 265,
      "čĊ": 266,
      "ĠĠ": 267,
      "on": 268,
      "er": 269,
      "at": 270,
      "Ġs": 271,
      "Ġo": 272,
      "Ġc": 273,
      "en": 274,
      "is": 275,
      "es": 276,
      "Ġw": 277,
      "nd": 278,
      "it": 279,
      "or": 280,
      "al": 281,
      "Ġf": 282,
      "Ġp": 283,
      "Ġof": 284,
      "an": 285,
      "Ġb": 286,
      "ed": 287,
      "ing": 288,
      "Ġin": 289,
      "ion": 290,
      "ar": 291,
      "Ġm": 292,
      "Ġand": 293,
      "Ġto": 294,
      "Ġd": 295,
      "ro": 296,
      "ic": 297,
      "le": 298,
      "ou": 299,
      "ĠĠĠĠ": 300,
      "as": 301,
      "ent": 302,
      "Ġe": 303,
      "ct": 304,
      "Ġth": 305,
      "Ġh": 306,
      "Ġn": 307,
      "Ġre": 308,
      "Ġis": 309,
      "Ġl": 310,
      "ve": 311,
      "st": 312,
      "il": 313,
      "om": 314,
      "et": 315,
      "ĠT": 316,
      "im": 317,
      "ol": 318,
      "ra": 319,
      "Ġ=": 320,
      "ation": 321,
      "ĠĠĠ": 322,
      "Ġg": 323,
      "ce": 324,
      "se": 325,
      "ly": 326,
      "Ġ1": 327,
      "ut": 328,
      "id": 329,
      "ot": 330,
      "Ġbe": 331,
      "Ġfor": 332,
      "ur": 333,
      "ow": 334,
      "ul": 335,
      "âĢ": 336,
      "ig": 337,
      "ĠA": 338,
      "Ġu": 339,
      "ir": 340,
      "Ġst": 341,
      "ch": 342,
      "Ġthat": 343,
      "ver": 344,
      "Ġ(": 345,
      "ĠS": 346,
      "am": 347,
      "um": 348,
      "if": 349,
      "Ġon": 350,
      "ĠC": 351,
      "Ġas": 352,
      "ĠThe": 353,
      "el": 354,
      "Ġcon": 355,
      "ĠI": 356,
      "qu": 357,
      "ith": 358,
      "Ġpro": 359,
      "Ġan": 360,
      "ate": 361,
      "ad": 362,
      "Ġare": 363,
      "ay": 364,
      "Ġwe": 365,
      "Ġy": 366,
      "her": 367,
      "ĠĠĠĠĠĠĠ": 368,
      "ist": 369,
      "Ġwith": 370,
      "Ġit": 371,
      "ers": 372,
      "Ġ2": 373,
      "Ġwh": 374,
      "iv": 375,
      "od": 376,
      "ge": 377,
      "Ġal": 378,
      "Ġde": 379,
      "Ġor": 380,
      "Ġex": 381,
      "Ġv": 382,
      "th": 383,
      "res": 384,
      "Ġ-": 385,
      "ĠP": 386,
      "est": 387,
      "ab": 388,
      "pe": 389,
      "ies": 390,
      "nt": 391,
      "Ġcan": 392,
      "ity": 393,
      "os": 394,
      "ment": 395,
      "Ġby": 396,
      "us": 397,
      "ĠM": 398,
      "ive": 399,
      "and": 400,
      "ore": 401,
      "ĠB": 402,
      "rom": 403,
      "Ġ+": 404,
      "ess": 405,
      "op": 406,
      "Ġcom": 407,
      "ter": 408,
      "Ġsu": 409,
      "ac": 410,
      "ri": 411,
      "igh": 412,
      "ain": 413,
      "Ġhe": 414,
      "The": 415,
      "âĢĻ": 416,
      "ĠR": 417,
      "00": 418,
      "Ġch": 419,
      "ke": 420,
      "Ġwas": 421,
      "te": 422,
      "Ġr": 423,
      "ĠE": 424,
      "ant": 425,
      "pp": 426,
      "ill": 427,
      "ction": 428,
      "ial": 429,
      "ort": 430,
      "ld": 431,
      "ĠH": 432,
      "ĠF": 433,
      "Ġfrom": 434,
      "Ġyou": 435,
      "Ġse": 436,
      "ĠW": 437,
      "ud": 438,
      "Ġne": 439,
      "oc": 440,
      "un": 441,
      "##": 442,
      "Ġat": 443,
      "Ġha": 444,
      "em": 445,
      "Ġle": 446,
      "ĠD": 447,
      "**": 448,
      "pl": 449,
      "Ġ$": 450,
      "ight": 451,
      "Ġ3": 452,
      "Ġnot": 453,
      "Ġtheir": 454,
      "Ġ\\": 455,
      "art": 456,
      "ĠN": 457,
      "pt": 458,
      "ure": 459,
      "fe": 460,
      "Ġen": 461,
      "ult": 462,
      "Ġhave": 463,
      "rou": 464,
      "ich": 465,
      "ical": 466,
      "Ġim": 467,
      "Ġus": 468,
      "ĠL": 469,
      "all": 470,
      "Ġsh": 471,
      "red": 472,
      "ine": 473,
      "ĠG": 474,
      "Ġthis": 475,
      "umb": 476,
      "iz": 477,
      "ind": 478,
      "\"\"": 479,
      "Ġk": 480,
      "ple": 481,
      "ther": 482,
      "ĠâĢ": 483,
      "og": 484,
      "ble": 485,
      "per": 486,
      "Ġwor": 487,
      "Ġpl": 488,
      "ue": 489,
      "age": 490,
      "Ġwhe": 491,
      "ans": 492,
      "Ġwhich": 493,
      "ide": 494,
      "gh": 495,
      "ould": 496,
      "act": 497,
      "Ġ4": 498,
      "int": 499,
      "ions": 500,
      "ations": 501,
      "ated": 502,
      "Ġthey": 503,
      "ag": 504,
      "ome": 505,
      "Ġint": 506,
      "end": 507,
      "Ġres": 508,
      "Ġnumb": 509,
      "ame": 510,
      "Ġ0": 511,
      "ost": 512,
      "our": 513,
      "cl": 514,
      "ance": 515,
      "ard": 516,
      "du": 517,
      "Ġab": 518,
      "ach": 519,
      "ass": 520,
      "out": 521,
      "ak": 522,
      "Ġx": 523,
      "ous": 524,
      "Ġad": 525,
      "Ġwere": 526,
      "ime": 527,
      "Ġall": 528,
      "his": 529,
      "Ġ5": 530,
      "ents": 531,
      "ang": 532,
      "ild": 533,
      "ren": 534,
      "ĠU": 535,
      "ong": 536,
      "ĠO": 537,
      "ast": 538,
      "ary": 539,
      "vel": 540,
      "ip": 541,
      "ust": 542,
      "so": 543,
      "ence": 544,
      "cc": 545,
      "ell": 546,
      "orm": 547,
      "Ġcont": 548,
      "ep": 549,
      "Ġequ": 550,
      "Ġar": 551,
      "ress": 552,
      "Ġimp": 553,
      "Ġme": 554,
      "Ġcl": 555,
      "ap": 556,
      "Ġhas": 557,
      "Ġmore": 558,
      "rent": 559,
      "rac": 560,
      "Ġother": 561,
      "'s": 562,
      "Ġalso": 563,
      "Ġper": 564,
      "Ġdis": 565,
      "ount": 566,
      "Ġun": 567,
      "able": 568,
      "ear": 569,
      "ĠĠĠĠĠĠĠĠĠĠĠ": 570,
      "ĠIn": 571,
      "ile": 572,
      "ie": 573,
      "ater": 574,
      "ition": 575,
      "Ġro": 576,
      "ĠJ": 577,
      "ual": 578,
      "ks": 579,
      "ign": 580,
      "one": 581,
      "ect": 582,
      "ric": 583,
      "âĢĿ": 584,
      "Ġone": 585,
      "ru": 586,
      "urn": 587,
      "Ġbut": 588,
      "ry": 589,
      "av": 590,
      "Ġman": 591,
      "Ġnumber": 592,
      "rit": 593,
      "Ġif": 594,
      "Ġthem": 595,
      "ace": 596,
      "ood": 597,
      "cul": 598,
      "Ġform": 599,
      "Ġev": 600,
      "ake": 601,
      "Ġte": 602,
      "ia": 603,
      "Ġ*": 604,
      "Ġdo": 605,
      "ors": 606,
      "Ġpart": 607,
      "con": 608,
      "erm": 609,
      "ire": 610,
      "Ġdif": 611,
      "Ġspe": 612,
      "ase": 613,
      "Ġ6": 614,
      "ces": 615,
      "Ġtw": 616,
      "Ġout": 617,
      "Ġwill": 618,
      "ath": 619,
      "Ġits": 620,
      "ory": 621,
      "Ġj": 622,
      "Ġqu": 623,
      "ose": 624,
      "ĠThis": 625,
      "ates": 626,
      "ound": 627,
      "are": 628,
      "ord": 629,
      "Ġsp": 630,
      "ub": 631,
      "ĠâĢľ": 632,
      "ish": 633,
      "ens": 634,
      "Ġpe": 635,
      "ree": 636,
      "ack": 637,
      "Ġcomm": 638,
      "low": 639,
      "nder": 640,
      "Ġ#": 641,
      "Ġstud": 642,
      "Ġbec": 643,
      "Ġhis": 644,
      "Ġval": 645,
      "now": 646,
      "Ġinto": 647,
      "Ġ|": 648,
      "Ġapp": 649,
      "Ġtime": 650,
      "we": 651,
      "Ġbet": 652,
      "Ġso": 653,
      "ution": 654,
      "Ġcomp": 655,
      "au": 656,
      "\"\"\"": 657,
      "}{": 658,
      "Ġsy": 659,
      "irst": 660,
      "ĠIt": 661,
      "Ġtwo": 662,
      "Ġsol": 663,
      ").": 664,
      "ice": 665,
      "Ġthese": 666,
      "les": 667,
      "Ġwho": 668,
      "ph": 669,
      "alcul": 670,
      "Ġ19": 671,
      "ef": 672,
      "Ġpr": 673,
      "ike": 674,
      "reat": 675,
      "frac": 676,
      "Ġabout": 677,
      "ian": 678,
      "Ġ/": 679,
      "Ġpo": 680,
      "Ġthan": 681,
      "Ġ\"\"\"": 682,
      "very": 683,
      "ĠV": 684,
      "Ġra": 685,
      "Ġ\"": 686,
      "):": 687,
      "ific": 688,
      "Ġup": 689,
      "Ġfe": 690,
      "ople": 691,
      "Ġdiffe": 692,
      "Ġuse": 693,
      "ci": 694,
      "Ġ**": 695,
      "Ġfind": 696,
      "Ġtra": 697,
      "form": 698,
      "Ġyour": 699,
      "Ġchild": 700,
      "Ġcol": 701,
      "rough": 702,
      "Ġwhen": 703,
      "ities": 704,
      "ative": 705,
      "ays": 706,
      "Ġneed": 707,
      "Ġhad": 708,
      "iven": 709,
      "),": 710,
      "Ġsuch": 711,
      "Ġthere": 712,
      "ok": 713,
      "Ġrel": 714,
      "ari": 715,
      "Ġtr": 716,
      "blem": 717,
      "ite": 718,
      "xt": 719,
      "ings": 720,
      "ne": 721,
      "ject": 722,
      "Ġunder": 723,
      "Ġem": 724,
      "ata": 725,
      "ĠK": 726,
      "Ġhow": 727,
      "Ġind": 728,
      "Ġyear": 729,
      "Ġ10": 730,
      "sel": 731,
      "Ġpos": 732,
      "ict": 733,
      "ĠčĊ": 734,
      "clud": 735,
      "rib": 736,
      "Ġgo": 737,
      "Ġcons": 738,
      "ĠSt": 739,
      "Ġpeople": 740,
      "Ġover": 741,
      "Ġknow": 742,
      "Ġwork": 743,
      "ove": 744,
      "Ġpre": 745,
      "ween": 746,
      "cre": 747,
      "ĠCh": 748,
      "Ġ7": 749,
      "Ġwould": 750,
      "Ġfirst": 751,
      "ample": 752,
      "Ġsome": 753,
      "ility": 754,
      "oth": 755,
      "Ġ8": 756,
      "Ġbetween": 757,
      "Ġexp": 758,
      "Ġag": 759,
      "ft": 760,
      "Ġhel": 761,
      "Ġwhere": 762,
      "arn": 763,
      "ange": 764,
      "ail": 765,
      "ating": 766,
      "Ġob": 767,
      "###": 768,
      "unction": 769,
      "Ġco": 770,
      "Ġeach": 771,
      "Ġlike": 772,
      "Ġprov": 773,
      "Ġâ": 774,
      "ds": 775,
      "fect": 776,
      "Ġstr": 777,
      "round": 778,
      "Ġget": 779,
      "ib": 780,
      "erv": 781,
      "Ġhelp": 782,
      "cess": 783,
      "ments": 784,
      "ff": 785,
      "ever": 786,
      "Ġinter": 787,
      "ons": 788,
      "Ġ20": 789,
      "row": 790,
      "Ġbeen": 791,
      "Ġact": 792,
      "Ġimport": 793,
      "**:": 794,
      "Ġmay": 795,
      "als": 796,
      "Ġused": 797,
      "uring": 798,
      "Ġinclud": 799,
      "ally": 800,
      "ough": 801,
      "hat": 802,
      "vers": 803,
      "ause": 804,
      "Ġmany": 805,
      "Ġ9": 806,
      "Ġnew": 807,
      "Ġspec": 808,
      "Ġrep": 809,
      "Ġdef": 810,
      "elf": 811,
      "ram": 812,
      "cept": 813,
      "its": 814,
      "lo": 815,
      "ues": 816,
      "Ġdist": 817,
      "Ġret": 818,
      "Ġsub": 819,
      "aw": 820,
      "Ġrec": 821,
      "stem": 822,
      "Ġmost": 823,
      "ys": 824,
      "In": 825,
      "Ġset": 826,
      "Ġmod": 827,
      "Ġdes": 828,
      "ert": 829,
      "lect": 830,
      "Ġthrough": 831,
      "Ġproblem": 832,
      "velop": 833,
      "Ġaf": 834,
      "eth": 835,
      "Ġpol": 836,
      "mer": 837,
      "ize": 838,
      "Ġdifferent": 839,
      "Ġacc": 840,
      "ract": 841,
      "Ġpoint": 842,
      "ower": 843,
      "Ġinte": 844,
      "ible": 845,
      "eng": 846,
      "Ġself": 847,
      "Ġam": 848,
      "Ġrem": 849,
      "Ġfunction": 850,
      "str": 851,
      "Ġvari": 852,
      "ll": 853,
      "000": 854,
      "__": 855,
      "Ġonly": 856,
      "ular": 857,
      "Ġgen": 858,
      "fore": 859,
      "Ġgiven": 860,
      "olog": 861,
      "Ġany": 862,
      "Ġinv": 863,
      "Ġsim": 864,
      "ise": 865,
      "ax": 866,
      "Ġreg": 867,
      "ied": 868,
      "hed": 869,
      "Ġcor": 870,
      "Ġadd": 871,
      "ced": 872,
      "Ġcalcul": 873,
      "ten": 874,
      "Ġcent": 875,
      "ics": 876,
      "Ġprodu": 877,
      "Ġno": 878,
      "Ġdevelop": 879,
      "ures": 880,
      "Ġthen": 881,
      "Ġac": 882,
      "Ġwhat": 883,
      "hes": 884,
      "ov": 885,
      "Ġlearn": 886,
      "Ġ18": 887,
      "ational": 888,
      "}$": 889,
      "Ġfol": 890,
      "Ġfact": 891,
      "Ġusing": 892,
      "tep": 893,
      "ĠHow": 894,
      "put": 895,
      "hen": 896,
      "get": 897,
      "Ġass": 898,
      "ern": 899,
      "self": 900,
      "Ġbl": 901,
      "ince": 902,
      "To": 903,
      "Ġequation": 904,
      "uc": 905,
      "ĠY": 906,
      "ĠAr": 907,
      "pect": 908,
      "ful": 909,
      "Ġbo": 910,
      "Ġ'": 911,
      "Ġsystem": 912,
      "Ġresult": 913,
      "Ġsoc": 914,
      "Ġreturn": 915,
      "Ġboth": 916,
      "ng": 917,
      "Ġsc": 918,
      "stand": 919,
      "Ġsign": 920,
      "Ġour": 921,
      "Ġcount": 922,
      "Ġmat": 923,
      "sw": 924,
      "Ġyears": 925,
      "ars": 926,
      "Ġsur": 927,
      "Ġph": 928,
      "imes": 929,
      "10": 930,
      "ark": 931,
      "resent": 932,
      "Ġfollow": 933,
      "ĠStep": 934,
      "ĠUn": 935,
      "Ġgra": 936,
      "Ġcould": 937,
      "Ġsm": 938,
      "ased": 939,
      "Ġ$\\": 940,
      "ism": 941,
      "Ġstudents": 942,
      "))": 943,
      "Ġlo": 944,
      "Ġvalue": 945,
      "ade": 946,
      "ident": 947,
      "own": 948,
      "Ġcur": 949,
      "ivid": 950,
      "Ġlar": 951,
      "Ġ12": 952,
      "Ġdec": 953,
      "Ġ{": 954,
      "Ġsupp": 955,
      "gs": 956,
      "ife": 957,
      "yp": 958,
      "alth": 959,
      "meric": 960,
      "ives": 961,
      "ool": 962,
      "lic": 963,
      "ural": 964,
      "ew": 965,
      "ĠIf": 966,
      "Ġoff": 967,
      "Ġchildren": 968,
      "ists": 969,
      "inal": 970,
      "Ġappro": 971,
      "ĠHe": 972,
      "Ġtrans": 973,
      "Ġfound": 974,
      "ĠCon": 975,
      "iss": 976,
      "Ġdi": 977,
      "Ġmake": 978,
      "erg": 979,
      "wn": 980,
      "Ġnumbers": 981,
      "Ġsame": 982,
      "Ġcre": 983,
      "Ġdata": 984,
      "ss": 985,
      "ify": 986,
      "ps": 987,
      "Ġpers": 988,
      "Ġright": 989,
      "der": 990,
      "ĠPro": 991,
      "ines": 992,
      "ctions": 993,
      "ĠThey": 994,
      "Ġdet": 995,
      "ĠEx": 996,
      "ides": 997,
      "ĠAmeric": 998,
      "Ġwater": 999,
      "ink": 1000,
      "Ġwell": 1001,
      "Ġbu": 1002,
      "Ġbecause": 1003,
      "ĠFor": 1004,
      "^{": 1005,
      "ited": 1006,
      "Ġed": 1007,
      "aking": 1008,
      "ick": 1009,
      "Ġinf": 1010,
      "ious": 1011,
      "Ġke": 1012,
      "swer": 1013,
      "ob": 1014,
      "ily": 1015,
      "ting": 1016,
      "hip": 1017,
      "ĠâĢĵ": 1018,
      "Ġafter": 1019,
      "Ġfl": 1020,
      "Ġterm": 1021,
      "uch": 1022,
      "land": 1023,
      "Ġlong": 1024,
      "gan": 1025,
      "Ġear": 1026,
      "ants": 1027,
      "other": 1028,
      "Ġmin": 1029,
      "Ġher": 1030,
      "ential": 1031,
      "Ġeven": 1032,
      "iel": 1033,
      "Ġatt": 1034,
      "Ġpa": 1035,
      "rect": 1036,
      "Ġgener": 1037,
      "ĠâĪ": 1038,
      "ins": 1039,
      "Ġway": 1040,
      "ex": 1041,
      "ck": 1042,
      "Ġconst": 1043,
      "Ġmain": 1044,
      "Ġduring": 1045,
      "ature": 1046,
      "vern": 1047,
      "Ġsa": 1048,
      "Ġexample": 1049,
      "ability": 1050,
      "val": 1051,
      "Ġimportant": 1052,
      "Ġsum": 1053,
      "Ġcomple": 1054,
      "Ġshould": 1055,
      "Ġline": 1056,
      "Ġ`": 1057,
      "ĠRe": 1058,
      "--": 1059,
      "ute": 1060,
      "arch": 1061,
      "ient": 1062,
      "olv": 1063,
      "tern": 1064,
      "Ġpower": 1065,
      "Ġinst": 1066,
      "Ġrequ": 1067,
      "Ġlead": 1068,
      "imate": 1069,
      "enc": 1070,
      "Ġexper": 1071,
      "Ġsk": 1072,
      "chool": 1073,
      "Ġworld": 1074,
      "Ġincre": 1075,
      "..": 1076,
      "Ġhum": 1077,
      "ĠĠĠĠĠĠĠĠ": 1078,
      "Ġclass": 1079,
      "Ġ[": 1080,
      "Ġart": 1081,
      "ĠInd": 1082,
      "Ġunderstand": 1083,
      "ized": 1084,
      "ula": 1085,
      "tal": 1086,
      "Ġwrit": 1087,
      "Ġsmall": 1088,
      "20": 1089,
      "Ġdisc": 1090,
      "ward": 1091,
      "Ġend": 1092,
      "Ġhist": 1093,
      "ically": 1094,
      "Ġdep": 1095,
      "mb": 1096,
      "()": 1097,
      "Ġoften": 1098,
      "Ġstate": 1099,
      "Ġgrou": 1100,
      "Ġcommun": 1101,
      "Ġexpl": 1102,
      "ined": 1103,
      "ength": 1104,
      "Ġext": 1105,
      "Ġmult": 1106,
      "Ġhigh": 1107,
      "Ġ->": 1108,
      "cial": 1109,
      "Ġcall": 1110,
      "ger": 1111,
      "Ġdire": 1112,
      "ually": 1113,
      "old": 1114,
      "Ġprocess": 1115,
      "ffect": 1116,
      "Ġposs": 1117,
      "ety": 1118,
      "port": 1119,
      "Ġbeing": 1120,
      "ty": 1121,
      "Ġref": 1122,
      "12": 1123,
      "dition": 1124,
      "ts": 1125,
      "Ġplay": 1126,
      "Ġjust": 1127,
      "Ġ15": 1128,
      "Ġpop": 1129,
      "ases": 1130,
      "Ġwhile": 1131,
      "Ġarea": 1132,
      "Ġchar": 1133,
      "de": 1134,
      "Ġlist": 1135,
      "$.": 1136,
      "ruct": 1137,
      "Ġmade": 1138,
      "Ġele": 1139,
      "Ġpartic": 1140,
      "Ġfam": 1141,
      "tle": 1142,
      "Ġlife": 1143,
      "ethod": 1144,
      "the": 1145,
      "led": 1146,
      "ator": 1147,
      "ral": 1148,
      "cent": 1149,
      "oy": 1150,
      "pon": 1151,
      "cient": 1152,
      "Ġtri": 1153,
      "ĠAs": 1154,
      "irc": 1155,
      ")^": 1156,
      "_{": 1157,
      "itive": 1158,
      "read": 1159,
      "Ġstart": 1160,
      "Ġevery": 1161,
      "This": 1162,
      "ices": 1163,
      "Ġcar": 1164,
      "Ġdoes": 1165,
      "Ġcontin": 1166,
      "ider": 1167,
      "ĠWe": 1168,
      "ages": 1169,
      "rest": 1170,
      "Ġperson": 1171,
      "ode": 1172,
      "Ġmon": 1173,
      "Ġhealth": 1174,
      "ather": 1175,
      "ale": 1176,
      "ock": 1177,
      "Ġinc": 1178,
      "``": 1179,
      "Ġeffect": 1180,
      "Ġent": 1181,
      "Ġsee": 1182,
      "cond": 1183,
      "Ġless": 1184,
      "ĠCom": 1185,
      "Ġown": 1186,
      "Ġshe": 1187,
      "Ġca": 1188,
      "Ġexpress": 1189,
      "ĠQ": 1190,
      "arm": 1191,
      "iron": 1192,
      "Ġobject": 1193,
      "ix": 1194,
      "Ġgovern": 1195,
      "ional": 1196,
      "Ġread": 1197,
      "Ġconf": 1198,
      "iqu": 1199,
      "Ġz": 1200,
      "ray": 1201,
      "Ġsqu": 1202,
      "Ġtest": 1203,
      "Ġshow": 1204,
      "Ġknown": 1205,
      "Ġthree": 1206,
      "Ġagain": 1207,
      "ĠÃ": 1208,
      "rt": 1209,
      "Ġquest": 1210,
      "els": 1211,
      "itions": 1212,
      "Ġformula": 1213,
      "ality": 1214,
      "up": 1215,
      "rence": 1216,
      "any": 1217,
      "ĠHowever": 1218,
      "hem": 1219,
      "Ġthose": 1220,
      "ted": 1221,
      ".âĢĿ": 1222,
      "Ġloc": 1223,
      "ĠAn": 1224,
      "Ġaround": 1225,
      "olution": 1226,
      "formation": 1227,
      "Ġcorrect": 1228,
      "Ġest": 1229,
      "Ġcommon": 1230,
      "ury": 1231,
      "ave": 1232,
      "Ġland": 1233,
      "Ġsupport": 1234,
      "omen": 1235,
      "akes": 1236,
      "chn": 1237,
      "ning": 1238,
      "ror": 1239,
      "Ġcult": 1240,
      "Ġback": 1241,
      "Ġins": 1242,
      "io": 1243,
      "ĠAl": 1244,
      "Ġ16": 1245,
      "Ġmuch": 1246,
      "Ġocc": 1247,
      "iod": 1248,
      "Ġpar": 1249,
      "vent": 1250,
      "Ġtotal": 1251,
      "Ġincluding": 1252,
      "Ġvery": 1253,
      "Ġbel": 1254,
      "Ġaut": 1255,
      "Ġschool": 1256,
      "here": 1257,
      "Ġgrow": 1258,
      "ets": 1259,
      "ĠTh": 1260,
      "qrt": 1261,
      "ĠThese": 1262,
      "Ġmean": 1263,
      "19": 1264,
      "Ġang": 1265,
      "ross": 1266,
      "gg": 1267,
      "Ġplan": 1268,
      "Ġanswer": 1269,
      "Ġeduc": 1270,
      "How": 1271,
      "Ġsocial": 1272,
      "ividual": 1273,
      "Ġpat": 1274,
      "Ġvalues": 1275,
      "emb": 1276,
      "und": 1277,
      "omet": 1278,
      "Ġdown": 1279,
      "ness": 1280,
      "Ġrese": 1281,
      "Ġprint": 1282,
      "ples": 1283,
      "ork": 1284,
      "ield": 1285,
      "Ġbeh": 1286,
      "Ġallow": 1287,
      "ron": 1288,
      "Ġser": 1289,
      "ĠAf": 1290,
      "ec": 1291,
      "We": 1292,
      "viron": 1293,
      "ier": 1294,
      "right": 1295,
      "ision": 1296,
      "Ġsignific": 1297,
      "Ġmethod": 1298,
      "Ġremain": 1299,
      "oss": 1300,
      "Ġdid": 1301,
      "ublic": 1302,
      "Ġfood": 1303,
      "iew": 1304,
      "Ġsl": 1305,
      "Ġstep": 1306,
      "ergy": 1307,
      "Ġve": 1308,
      "ĠThere": 1309,
      "Ġmust": 1310,
      "Ġap": 1311,
      "Ġmed": 1312,
      "Ġlearning": 1313,
      "Ġprob": 1314,
      "Ġmeas": 1315,
      "ody": 1316,
      "Ġmet": 1317,
      "Ġactiv": 1318,
      "15": 1319,
      "Ġtake": 1320,
      "$,": 1321,
      "Ġequal": 1322,
      "Ġindividual": 1323,
      "Ġopp": 1324,
      "uss": 1325,
      "ĠÎ": 1326,
      "ology": 1327,
      "Ġbefore": 1328,
      "Ġdiv": 1329,
      "Ġlarge": 1330,
      "day": 1331,
      "Ġtyp": 1332,
      "Ġhand": 1333,
      "There": 1334,
      "name": 1335,
      "Ġlaw": 1336,
      "atic": 1337,
      "com": 1338,
      "Ġlength": 1339,
      "ulation": 1340,
      "25": 1341,
      "to": 1342,
      "Ġprog": 1343,
      "Ġpass": 1344,
      "fic": 1345,
      "angle": 1346,
      "lu": 1347,
      "Ġel": 1348,
      "conom": 1349,
      "Ġtechn": 1350,
      "Ġchange": 1351,
      "Ġsecond": 1352,
      "Ġstand": 1353,
      "ĠRet": 1354,
      "Ġinteg": 1355,
      "ills": 1356,
      "Ġmove": 1357,
      "Ġrepresent": 1358,
      "Ġide": 1359,
      "Ġident": 1360,
      "stit": 1361,
      "\")": 1362,
      "Ġorig": 1363,
      "ired": 1364,
      "itial": 1365,
      "Ġlit": 1366,
      "An": 1367,
      "vert": 1368,
      "ĠNone": 1369,
      "Ġlevel": 1370,
      "ĠWhat": 1371,
      "ided": 1372,
      "ven": 1373,
      "11": 1374,
      "Ġperiod": 1375,
      "Ġ100": 1376,
      "ency": 1377,
      "Ġfollowing": 1378,
      "ĠCalcul": 1379,
      "Ġinformation": 1380,
      "Ġpossible": 1381,
      "ared": 1382,
      "Ġday": 1383,
      "Ġgre": 1384,
      "gin": 1385,
      "Ġmil": 1386,
      "ished": 1387,
      "angu": 1388,
      "Ġgood": 1389,
      "Ġhuman": 1390,
      "par": 1391,
      "Ġpract": 1392,
      "urns": 1393,
      "Ġcurrent": 1394,
      "Ġserv": 1395,
      "iving": 1396,
      "Ġenviron": 1397,
      "ination": 1398,
      "ians": 1399,
      "mpt": 1400,
      "Ġtem": 1401,
      "Ġdem": 1402,
      "Ġmeans": 1403,
      "Ġ<": 1404,
      "Ġsolve": 1405,
      "Ġer": 1406,
      "ots": 1407,
      "ĠWh": 1408,
      "Ġlet": 1409,
      "Ġ17": 1410,
      "uro": 1411,
      "aj": 1412,
      "âĪ": 1413,
      "Ġexperi": 1414,
      "def": 1415,
      "Ġvol": 1416,
      "Ġcalled": 1417,
      "Ġproper": 1418,
      "ization": 1419,
      "ull": 1420,
      "Ġprote": 1421,
      "Ġorder": 1422,
      "Ġproduct": 1423,
      "Ġcalculate": 1424,
      "ĠÃĹ": 1425,
      "ĠTo": 1426,
      "Ġhim": 1427,
      "Ġstill": 1428,
      "acter": 1429,
      "ense": 1430,
      "hers": 1431,
      "ĠAd": 1432,
      "Ġchang": 1433,
      "Ġinterest": 1434,
      "ior": 1435,
      "Ġbuild": 1436,
      "Ġlog": 1437,
      "Ġdeterm": 1438,
      "ran": 1439,
      "16": 1440,
      "lish": 1441,
      "18": 1442,
      "Ġname": 1443,
      "Ġadv": 1444,
      "Ġcirc": 1445,
      "Ġgovernment": 1446,
      "Ġgreat": 1447,
      "ved": 1448,
      "ves": 1449,
      "Ġwithout": 1450,
      "',": 1451,
      "ived": 1452,
      "Ġplace": 1453,
      "Ġsignificant": 1454,
      "ring": 1455,
      "Ġlook": 1456,
      "Ġav": 1457,
      "Ġop": 1458,
      "Ġhistory": 1459,
      "Ġlim": 1460,
      "ving": 1461,
      "Ġnum": 1462,
      "ctor": 1463,
      "Ġanother": 1464,
      "Ġenergy": 1465,
      "Ġbelie": 1466,
      "ype": 1467,
      "Ġwar": 1468,
      "rodu": 1469,
      "Ġfre": 1470,
      "ote": 1471,
      "Ġbre": 1472,
      "50": 1473,
      "oint": 1474,
      "cos": 1475,
      "rix": 1476,
      "sqrt": 1477,
      "text": 1478,
      "Ġcle": 1479,
      "ertain": 1480,
      "ĠArgs": 1481,
      "Ġconsider": 1482,
      "ĠĠĠĠĠĠĠĠĠĠĠĠĠĠĠ": 1483,
      "outh": 1484,
      "Ġpres": 1485,
      "Ġeconom": 1486,
      "ences": 1487,
      "ccess": 1488,
      "urs": 1489,
      "ĠEng": 1490,
      "ental": 1491,
      "ĠAt": 1492,
      "Ġeng": 1493,
      "Ġelect": 1494,
      "ining": 1495,
      "Ġreal": 1496,
      "ified": 1497,
      "ape": 1498,
      "Ġearly": 1499,
      "imal": 1500,
      "Ġmass": 1501,
      "ta": 1502,
      "Ġ14": 1503,
      "}\\": 1504,
      ",âĢĿ": 1505,
      "Ġrad": 1506,
      "Ġmulti": 1507,
      "Ġcontro": 1508,
      "Ġsides": 1509,
      "ats": 1510,
      "ĠNew": 1511,
      "ash": 1512,
      "Ġstudy": 1513,
      "yn": 1514,
      "Ġwomen": 1515,
      "Ġ&": 1516,
      "ĠAmerican": 1517,
      "ĠBrit": 1518,
      "Ġcontain": 1519,
      "Ġlangu": 1520,
      "ateg": 1521,
      "Ġmus": 1522,
      "Ġoper": 1523,
      "bo": 1524,
      "Ġthough": 1525,
      "Ġwithin": 1526,
      "ivers": 1527,
      "Ġgroup": 1528,
      "Ġdevelopment": 1529,
      "heck": 1530,
      "Ġleg": 1531,
      "Ġmy": 1532,
      "ume": 1533,
      "osed": 1534,
      "Ġdesc": 1535,
      "Ġinvolv": 1536,
      "Ġnow": 1537,
      "ital": 1538,
      "ration": 1539,
      "Ġforce": 1540,
      "âĢĶ": 1541,
      "Ġsolution": 1542,
      "Ġprovide": 1543,
      "Ġorgan": 1544,
      "ids": 1545,
      "Ġtimes": 1546,
      "ton": 1547,
      "Ġenvironment": 1548,
      "Ġpolit": 1549,
      "14": 1550,
      "Ġbody": 1551,
      "Ġdirect": 1552,
      "be": 1553,
      "ption": 1554,
      "What": 1555,
      "ĠIs": 1556,
      "Ġtry": 1557,
      "Ġaw": 1558,
      "utions": 1559,
      "Ġeff": 1560,
      "Ġmodel": 1561,
      "Ġi": 1562,
      "ogn": 1563,
      "sc": 1564,
      "Ġcap": 1565,
      "Ġthink": 1566,
      "ner": 1567,
      "Ġ13": 1568,
      "ler": 1569,
      "Ġsquare": 1570,
      "orth": 1571,
      "Ġagainst": 1572,
      "Ġgu": 1573,
      "Ġside": 1574,
      "Ġmight": 1575,
      "Ġdesign": 1576,
      "ĠSe": 1577,
      "Ġredu": 1578,
      "Ġrange": 1579,
      "ĠX": 1580,
      "ĠReturns": 1581,
      "Ġdig": 1582,
      "Ġterms": 1583,
      "Ġleft": 1584,
      "Ġamount": 1585,
      "Ġspecies": 1586,
      "Ġspecific": 1587,
      "ouse": 1588,
      "Ġbir": 1589,
      "Ġlast": 1590,
      "oms": 1591,
      "app": 1592,
      "verse": 1593,
      "Ġcreate": 1594,
      "mp": 1595,
      "Ġvarious": 1596,
      "iety": 1597,
      "Ġrelations": 1598,
      "Ġbased": 1599,
      "ames": 1600,
      "Ġprof": 1601,
      "ule": 1602,
      "Ġappe": 1603,
      "Ġpot": 1604,
      "raph": 1605,
      "ĠâĢĺ": 1606,
      "Ġsince": 1607,
      "tain": 1608,
      "orn": 1609,
      "agn": 1610,
      "Ġsaid": 1611,
      "ources": 1612,
      "Ġdra": 1613,
      "me": 1614,
      "Ġdue": 1615,
      "Ġ30": 1616,
      "ication": 1617,
      "Ġeas": 1618,
      "Ġcentury": 1619,
      "imum": 1620,
      "For": 1621,
      "Ġsever": 1622,
      "{\\": 1623,
      "ĠSp": 1624,
      "Ġpoints": 1625,
      "ilar": 1626,
      "\",": 1627,
      "Ġconcept": 1628,
      "Ġcase": 1629,
      "ĠDe": 1630,
      "Ġinclude": 1631,
      "Ġimpact": 1632,
      "min": 1633,
      "urope": 1634,
      "17": 1635,
      "Ġdistance": 1636,
      ")(": 1637,
      "ug": 1638,
      "ĠInt": 1639,
      "ason": 1640,
      "Ġbehav": 1641,
      "ÏĢ": 1642,
      "Ġcomb": 1643,
      "Ġphys": 1644,
      "Ġtext": 1645,
      "Ġnat": 1646,
      "ĠBut": 1647,
      "(\"": 1648,
      "Ġfin": 1649,
      "ditions": 1650,
      "ah": 1651,
      "aterial": 1652,
      "eral": 1653,
      "Â°": 1654,
      "Ġkey": 1655,
      "Ġrole": 1656,
      "Ġfour": 1657,
      "Ġcost": 1658,
      "sin": 1659,
      "air": 1660,
      "Ġbecome": 1661,
      "Ġproblems": 1662,
      "Ġcour": 1663,
      "not": 1664,
      "Â²": 1665,
      "Ġmar": 1666,
      "13": 1667,
      "Ġ25": 1668,
      "Ġsuccess": 1669,
      "co": 1670,
      "Ġsit": 1671,
      "Ġmark": 1672,
      "ank": 1673,
      "Ġcare": 1674,
      "Ġwant": 1675,
      "ond": 1676,
      "Ġtop": 1677,
      "Ġens": 1678,
      "Ġinflu": 1679,
      "ique": 1680,
      "ajor": 1681,
      "ĠEurope": 1682,
      "rees": 1683,
      "Ġrest": 1684,
      "left": 1685,
      "Ġvis": 1686,
      "eter": 1687,
      "ĠUnited": 1688,
      "utes": 1689,
      "Ġcho": 1690,
      "Ġseveral": 1691,
      "Ġaddition": 1692,
      "Ġinput": 1693,
      "Ġfew": 1694,
      "ĠCalculate": 1695,
      "Ġtreat": 1696,
      "etic": 1697,
      "Ġlight": 1698,
      "ĠWhen": 1699,
      "Ġparticular": 1700,
      "Ġpositive": 1701,
      "Ġskills": 1702,
      "epend": 1703,
      "Ġimpro": 1704,
      "Ġothers": 1705,
      "Ġnon": 1706,
      "face": 1707,
      "Ġcomplex": 1708,
      "oman": 1709,
      "pr": 1710,
      "urther": 1711,
      "Ġ200": 1712,
      "ories": 1713,
      "data": 1714,
      "Ġbecame": 1715,
      "Ġways": 1716,
      "Ġneg": 1717,
      "Ġareas": 1718,
      "ries": 1719,
      "rain": 1720,
      "Ġunt": 1721,
      "Ġmax": 1722,
      "Ġmaking": 1723,
      "Ġmill": 1724,
      "Ġfra": 1725,
      "idence": 1726,
      "Ġbas": 1727,
      "ards": 1728,
      "ĠSh": 1729,
      "Ġcaus": 1730,
      "lying": 1731,
      "Ġdev": 1732,
      "from": 1733,
      "Ġmaterial": 1734,
      "omin": 1735,
      "hor": 1736,
      "ways": 1737,
      "ead": 1738,
      "It": 1739,
      "ering": 1740,
      "ithm": 1741,
      "Ġrate": 1742,
      "aces": 1743,
      "Ġcell": 1744,
      "Ġimm": 1745,
      "Ġmov": 1746,
      "Ġlab": 1747,
      "Ġfore": 1748,
      "Ġsize": 1749,
      "Ġlanguage": 1750,
      "Ġeducation": 1751,
      "ators": 1752,
      "less": 1753,
      "Ġris": 1754,
      "$$": 1755,
      "Ġmeasure": 1756,
      "ording": 1757,
      "Ġiss": 1758,
      "Ġable": 1759,
      "Ġpublic": 1760,
      "ĠStates": 1761,
      "Ġhapp": 1762,
      "Ġ11": 1763,
      "Ġprobability": 1764,
      "Ġpresent": 1765,
      "Ġchall": 1766,
      "(-": 1767,
      "Ġfamily": 1768,
      "verage": 1769,
      "Ġfile": 1770,
      "Ġhour": 1771,
      "iation": 1772,
      "ole": 1773,
      "ables": 1774,
      "Ġpred": 1775,
      "rop": 1776,
      "path": 1777,
      "Ġpopulation": 1778,
      "Ġstruct": 1779,
      "ances": 1780,
      "Ġess": 1781,
      "sing": 1782,
      "60": 1783,
      "Ġanal": 1784,
      "ges": 1785,
      "Ġprogram": 1786,
      "ival": 1787,
      "Ġunderstanding": 1788,
      "Ġrelationship": 1789,
      "ention": 1790,
      "ĠFind": 1791,
      "Ġfeel": 1792,
      "Ġage": 1793,
      "Ġtype": 1794,
      "Ġsimpl": 1795,
      "amples": 1796,
      "ered": 1797,
      "ends": 1798,
      "Ġes": 1799,
      "alk": 1800,
      "Ġmot": 1801,
      "Ġmajor": 1802,
      "Ġcertain": 1803,
      "Ġenc": 1804,
      "ĠWar": 1805,
      "Ġâī": 1806,
      "ĠAfric": 1807,
      "ocus": 1808,
      "ĠGerm": 1809,
      "Ġmemb": 1810,
      "40": 1811,
      "Ġbetter": 1812,
      "ik": 1813,
      "Ġcreat": 1814,
      "ĠBy": 1815,
      "Ġamong": 1816,
      "ero": 1817,
      "ource": 1818,
      "Ġobs": 1819,
      "Ġdr": 1820,
      "Ġtoget": 1821,
      "Ġtogether": 1822,
      "Ġcountry": 1823,
      "ilities": 1824,
      "line": 1825,
      "Ġmen": 1826,
      "ĠPl": 1827,
      "Ġdistrib": 1828,
      "Ġresearch": 1829,
      "Ġopen": 1830,
      "ius": 1831,
      "Ġcharacter": 1832,
      "ere": 1833,
      "ively": 1834,
      "Ġden": 1835,
      "Let": 1836,
      "30": 1837,
      "Ġ==": 1838,
      "play": 1839,
      "Ġdeg": 1840,
      "Ġperform": 1841,
      "If": 1842,
      "ĠCan": 1843,
      "âĢľ": 1844,
      "Ġdays": 1845,
      "az": 1846,
      "ĠZ": 1847,
      "rist": 1848,
      "Ġspace": 1849,
      "man": 1850,
      "Ġstates": 1851,
      "Ġuntil": 1852,
      "Ġteac": 1853,
      "aves": 1854,
      "Ġprovided": 1855,
      "Ġnatural": 1856,
      "Ġfactor": 1857,
      "Ġold": 1858,
      "istic": 1859,
      "Ġestab": 1860,
      "Ġhead": 1861,
      "Ġspeed": 1862,
      "oh": 1863,
      "Ġben": 1864,
      "Ġpur": 1865,
      "ĠAnd": 1866,
      "Ġquestion": 1867,
      "Ġrespon": 1868,
      "idd": 1869,
      "Ġwords": 1870,
      "imately": 1871,
      "Ġindu": 1872,
      "99": 1873,
      "Ġlater": 1874,
      "Ġstat": 1875,
      "ems": 1876,
      "Ġdise": 1877,
      "Ġpotential": 1878,
      "```": 1879,
      "Ġapproach": 1880,
      "Ġpolitical": 1881,
      "Ġevent": 1882,
      "Ġhig": 1883,
      "Ġangle": 1884,
      "ortun": 1885,
      "ĠEar": 1886,
      "ivil": 1887,
      "Ġaffect": 1888,
      "Ġparent": 1889,
      "clus": 1890,
      "lished": 1891,
      "ĠOn": 1892,
      "yle": 1893,
      "So": 1894,
      "ised": 1895,
      "Ġhome": 1896,
      "amp": 1897,
      "ression": 1898,
      "Ġpercent": 1899,
      "Ġfocus": 1900,
      "Ex": 1901,
      "Ġalong": 1902,
      "Ġexpression": 1903,
      "pos": 1904,
      "ently": 1905,
      "Ġfinal": 1906,
      "Ġmonth": 1907,
      "for": 1908,
      "Ġopt": 1909,
      "However": 1910,
      "Ġbest": 1911,
      "Ġcontrol": 1912,
      "Ġgraph": 1913,
      "ling": 1914,
      "Ġpath": 1915,
      "imals": 1916,
      "ument": 1917,
      "ask": 1918,
      "Ġrev": 1919,
      "Ġnext": 1920,
      "equ": 1921,
      ".,": 1922,
      "Ġ50": 1923,
      "ficult": 1924,
      "(\\": 1925,
      "olve": 1926,
      "ĠBritish": 1927,
      "Ġconditions": 1928,
      "orts": 1929,
      "Ġscient": 1930,
      "Ġsimilar": 1931,
      "ales": 1932,
      "Ġair": 1933,
      "though": 1934,
      "rid": 1935,
      "Ġkeep": 1936,
      "ĠTr": 1937,
      "ĠQu": 1938,
      "Ġfactors": 1939,
      "],": 1940,
      "Ġacross": 1941,
      "over": 1942,
      "log": 1943,
      "umber": 1944,
      "bs": 1945,
      "ending": 1946,
      "ĠYou": 1947,
      "ological": 1948,
      "Ġsequ": 1949,
      "Ġcontinu": 1950,
      "Ġweight": 1951,
      "Ġcrit": 1952,
      "Ġ>": 1953,
      "Ġcm": 1954,
      "Ġparts": 1955,
      "Ġrespect": 1956,
      "Ġsing": 1957,
      "uture": 1958,
      "itud": 1959,
      "Ġnear": 1960,
      "atch": 1961,
      "ended": 1962,
      "Ġdifference": 1963,
      "ĠâĪļ": 1964,
      "Ġtemper": 1965,
      "by": 1966,
      "Ġnorm": 1967,
      "math": 1968,
      "nect": 1969,
      "Ġdifficult": 1970,
      "Ġyoung": 1971,
      "Ġexist": 1972,
      "ĠCre": 1973,
      "Ġfield": 1974,
      "asing": 1975,
      "of": 1976,
      "Ġrat": 1977,
      "apt": 1978,
      ")$": 1979,
      "Ġpric": 1980,
      "Ġexpect": 1981,
      "ĠLe": 1982,
      "aced": 1983,
      "icle": 1984,
      "pi": 1985,
      "ission": 1986,
      "Ġcos": 1987,
      "cing": 1988,
      "Ġ40": 1989,
      "Ġequations": 1990,
      "Ġrul": 1991,
      "Ġarm": 1992,
      "Ġder": 1993,
      "Ġheight": 1994,
      "ĠCl": 1995,
      "Ġoccur": 1996,
      "ĠPr": 1997,
      "Ġresp": 1998,
      "Ġinitial": 1999,
      "iversity": 2000,
      "atures": 2001,
      "Ġrun": 2002,
      "Ġtoday": 2003,
      "ploy": 2004,
      "Ġflow": 2005,
      "oura": 2006,
      "oney": 2007,
      "Ġsin": 2008,
      "Ġarr": 2009,
      "ma": 2010,
      "istance": 2011,
      "')": 2012,
      "bal": 2013,
      "iness": 2014,
      "Ġ__": 2015,
      "Ġsw": 2016,
      "ither": 2017,
      "24": 2018,
      "aring": 2019,
      "Ġrelig": 2020,
      "Ġcr": 2021,
      "Ġalways": 2022,
      "pre": 2023,
      "ding": 2024,
      "pecial": 2025,
      "Ġgroups": 2026,
      "Ġsurface": 2027,
      "pro": 2028,
      "alf": 2029,
      "Ġquestions": 2030,
      "Ġlikely": 2031,
      "ĠCol": 2032,
      "Ġ24": 2033,
      "selves": 2034,
      "}}": 2035,
      "aken": 2036,
      "Ġdescrib": 2037,
      "Ġoriginal": 2038,
      "Ġturn": 2039,
      "ledge": 2040,
      "Ġconstant": 2041,
      "arc": 2042,
      "oid": 2043,
      "Ġessential": 2044,
      "Ġrecogn": 2045,
      "Ġthings": 2046,
      "Now": 2047,
      "orld": 2048,
      "py": 2049,
      "Ġpain": 2050,
      "Ġrece": 2051,
      "ina": 2052,
      "Ġbro": 2053,
      "mod": 2054,
      "Ġpattern": 2055,
      "Ġstandard": 2056,
      "ĠSo": 2057,
      "itary": 2058,
      "Ġlow": 2059,
      "Ġcontrib": 2060,
      "Ġdel": 2061,
      "Ġapprox": 2062,
      "\":": 2063,
      "omes": 2064,
      "Wh": 2065,
      "ored": 2066,
      "Ġtriangle": 2067,
      "Ġview": 2068,
      "Ġfrequ": 2069,
      "Ġpress": 2070,
      "Ġ(-": 2071,
      "mbol": 2072,
      "Ġgeneral": 2073,
      "Ġleast": 2074,
      "ruction": 2075,
      "set": 2076,
      "array": 2077,
      "Ġge": 2078,
      "Ġcome": 2079,
      "chie": 2080,
      "Ġseries": 2081,
      "ĠDef": 2082,
      "Ġimage": 2083,
      "ery": 2084,
      "Ġbenef": 2085,
      "Ġstrong": 2086,
      "iet": 2087,
      "ests": 2088,
      "Ġindepend": 2089,
      "Ġfurther": 2090,
      "Ġdivid": 2091,
      "Ġshort": 2092,
      "Ġchanges": 2093,
      "Ġarg": 2094,
      "Ġposition": 2095,
      "Ġexcept": 2096,
      "Ġdon": 2097,
      "Ġauthor": 2098,
      "ĠChrist": 2099,
      "work": 2100,
      "Ġsay": 2101,
      "Ġcy": 2102,
      "Ġteach": 2103,
      "Ġfuture": 2104,
      "umn": 2105,
      "Ġrights": 2106,
      "Ġtoo": 2107,
      "inary": 2108,
      "hemat": 2109,
      "Ġresults": 2110,
      "cd": 2111,
      "oun": 2112,
      "Ġaverage": 2113,
      "mon": 2114,
      "Ġcity": 2115,
      "As": 2116,
      "Ġneeds": 2117,
      "Ġsociety": 2118,
      "Ġnecess": 2119,
      "ium": 2120,
      "cience": 2121,
      "Ġproject": 2122,
      "ird": 2123,
      "ĠPh": 2124,
      "iction": 2125,
      "Ġmodern": 2126,
      "wards": 2127,
      "Ġsent": 2128,
      "ately": 2129,
      "ties": 2130,
      "vious": 2131,
      "Ġnegative": 2132,
      "Ġmusic": 2133,
      "Ġword": 2134,
      "sh": 2135,
      "Ġtypes": 2136,
      "acy": 2137,
      "Ġaccess": 2138,
      "St": 2139,
      "Ġbegan": 2140,
      "ilt": 2141,
      "Ġbus": 2142,
      "Ġcolon": 2143,
      "Ġactivities": 2144,
      "Ġbase": 2145,
      "Ġput": 2146,
      "Ġtravel": 2147,
      "file": 2148,
      "Ġnumer": 2149,
      "rror": 2150,
      "unt": 2151,
      "Ġsugg": 2152,
      "Ġcommunity": 2153,
      ")/": 2154,
      "oci": 2155,
      "Ġtrue": 2156,
      "ison": 2157,
      "Ġbat": 2158,
      "Ġclear": 2159,
      "Ġvir": 2160,
      "'t": 2161,
      "Ġchalleng": 2162,
      "...": 2163,
      "Ġplant": 2164,
      "where": 2165,
      "use": 2166,
      "Ġprom": 2167,
      "Ġindividuals": 2168,
      "ged": 2169,
      "oks": 2170,
      "Ġprotect": 2171,
      "ĠExample": 2172,
      "Ġled": 2173,
      "Ġfree": 2174,
      "Ġlocal": 2175,
      "ocity": 2176,
      "Ġconc": 2177,
      "aster": 2178,
      "Ġachie": 2179,
      "li": 2180,
      "ĠBl": 2181,
      "Ġfig": 2182,
      "ĠRes": 2183,
      "erc": 2184,
      "Ġcause": 2185,
      "Ġprim": 2186,
      "Ġmatrix": 2187,
      "alle": 2188,
      "80": 2189,
      "loat": 2190,
      "Ġanimals": 2191,
      "Ġworks": 2192,
      "Ġstudent": 2193,
      "Ġsound": 2194,
      "aps": 2195,
      "':": 2196,
      "Ġant": 2197,
      "Ġunique": 2198,
      "Ġcomplete": 2199,
      "Ġwhy": 2200,
      "Ġ}": 2201,
      "Ġcannot": 2202,
      "Ġrespons": 2203,
      "Ġaccount": 2204,
      "Ġdetermine": 2205,
      "Ġbegin": 2206,
      "Ġgreater": 2207,
      "Ġdiscuss": 2208,
      "Ġground": 2209,
      "Ġpay": 2210,
      "gen": 2211,
      "75": 2212,
      "22": 2213,
      "('": 2214,
      "ann": 2215,
      "Therefore": 2216,
      "arget": 2217,
      "Ġsteps": 2218,
      "----": 2219,
      "ones": 2220,
      "Ġobserv": 2221,
      "Ġincrease": 2222,
      "ĠâĢĶ": 2223,
      "Ġinvest": 2224,
      "dd": 2225,
      "Ġfar": 2226,
      "Ġabove": 2227,
      "lection": 2228,
      "inter": 2229,
      "amb": 2230,
      "Ġspecial": 2231,
      "ĠSome": 2232,
      "ĠEarth": 2233,
      "Ġexperience": 2234,
      "ference": 2235,
      "When": 2236,
      "ograph": 2237,
      "Ġelements": 2238,
      "ze": 2239,
      "Ġeconomic": 2240,
      "Ġ60": 2241,
      "Ġask": 2242,
      "Ġstrateg": 2243,
      "Ġthemselves": 2244,
      "ches": 2245,
      "ils": 2246,
      "Ġemot": 2247,
      "Ġtradition": 2248,
      "rict": 2249,
      "Ġvel": 2250,
      "Ġregion": 2251,
      "Ġability": 2252,
      "Ġver": 2253,
      "Ġhowever": 2254,
      "100": 2255,
      "mat": 2256,
      "Ġgive": 2257,
      "side": 2258,
      "ĠEnglish": 2259,
      "Ġter": 2260,
      "pecially": 2261,
      "Ġintern": 2262,
      "idered": 2263,
      "Ġavail": 2264,
      "33": 2265,
      "Ġcountries": 2266,
      "âĢĵ": 2267,
      "ires": 2268,
      "Ġnp": 2269,
      "ĠOne": 2270,
      "Ġpost": 2271,
      "fer": 2272,
      "Ġcreated": 2273,
      "ething": 2274,
      "ably": 2275,
      "$\\": 2276,
      "Error": 2277,
      "Given": 2278,
      "Ġgives": 2279,
      "ĠBe": 2280,
      "Ġprin": 2281,
      "Ġdeath": 2282,
      "Since": 2283,
      "Ġhistor": 2284,
      "Ġhere": 2285,
      "omething": 2286,
      "Ġrequired": 2287,
      "Ġphysical": 2288,
      "Ġbi": 2289,
      "Ġknowledge": 2290,
      "iding": 2291,
      "Ġuser": 2292,
      "Ġopportun": 2293,
      "Ġconsidered": 2294,
      "sy": 2295,
      "Ġroot": 2296,
      "Ġloss": 2297,
      "Ġseen": 2298,
      "Ġsitu": 2299,
      "sequ": 2300,
      "Ġteam": 2301,
      "Ġaway": 2302,
      "Ġwhether": 2303,
      "class": 2304,
      "Pro": 2305,
      "Ġsymbol": 2306,
      "Ġsystems": 2307,
      "Ġrule": 2308,
      "mber": 2309,
      "osp": 2310,
      "Ġsubject": 2311,
      "Ġbehavior": 2312,
      "overed": 2313,
      "rel": 2314,
      "ĠSince": 2315,
      "iply": 2316,
      "Ġhours": 2317,
      "tt": 2318,
      "ivity": 2319,
      "Ġstory": 2320,
      "Ġancient": 2321,
      "itude": 2322,
      "ults": 2323,
      "ands": 2324,
      "lim": 2325,
      "ele": 2326,
      "Ġsequence": 2327,
      "ĠOr": 2328,
      "iver": 2329,
      "Ġworking": 2330,
      "mit": 2331,
      "ights": 2332,
      "Ġrisk": 2333,
      "ĠAmerica": 2334,
      "Ġwee": 2335,
      "aut": 2336,
      "Ġusually": 2337,
      "abit": 2338,
      "cy": 2339,
      "Ġwhole": 2340,
      "place": 2341,
      "oot": 2342,
      "Ġsays": 2343,
      "izing": 2344,
      "Ġblack": 2345,
      "Ġtool": 2346,
      "Ġgrowth": 2347,
      "Ġcases": 2348,
      "Ġmillion": 2349,
      "Ġculture": 2350,
      "ordin": 2351,
      "ane": 2352,
      "Ġclose": 2353,
      "Ġsomething": 2354,
      "ĠIndia": 2355,
      "ĠCreate": 2356,
      "Ġrecord": 2357,
      "Ġhigher": 2358,
      "ox": 2359,
      "ĠWith": 2360,
      "Ġdone": 2361,
      "Ġindic": 2362,
      "Ġdistribution": 2363,
      "Ġcircle": 2364,
      "Ġvelocity": 2365,
      "rences": 2366,
      "Ġespecially": 2367,
      "Ġsingle": 2368,
      "times": 2369,
      "Ġfeet": 2370,
      "Ġresources": 2371,
      "Ġfil": 2372,
      "ises": 2373,
      "Ġpolic": 2374,
      "icial": 2375,
      "Ġhaving": 2376,
      "tract": 2377,
      "import": 2378,
      "Ġ\\(": 2379,
      "ging": 2380,
      "Ġsimple": 2381,
      "Ġprevent": 2382,
      "Con": 2383,
      "ured": 2384,
      "Ġdisease": 2385,
      "Ġmeaning": 2386,
      "version": 2387,
      "ĠGod": 2388,
      "ae": 2389,
      "ndom": 2390,
      "oring": 2391,
      "Ġ:": 2392,
      "ĠEn": 2393,
      "âĪļ": 2394,
      "Ġelse": 2395,
      "ĠGen": 2396,
      "Ġmembers": 2397,
      "ĠNorth": 2398,
      "ĠPar": 2399,
      "Ġill": 2400,
      "cle": 2401,
      "Ġball": 2402,
      "Ġresponse": 2403,
      "iddle": 2404,
      "Ġhalf": 2405,
      "Ġwhite": 2406,
      "ĠSc": 2407,
      "Ġrather": 2408,
      "ohn": 2409,
      "une": 2410,
      "ipp": 2411,
      "ĠĠĠĠčĊ": 2412,
      "Ġelement": 2413,
      "ready": 2414,
      "Ġred": 2415,
      "Ch": 2416,
      "Ġcru": 2417,
      "Ġhard": 2418,
      "Ġrelated": 2419,
      "Ġtook": 2420,
      "ĠApp": 2421,
      "ification": 2422,
      "Ġabs": 2423,
      "Ġexplain": 2424,
      "])": 2425,
      "Ġassoci": 2426,
      "aim": 2427,
      "Ġhy": 2428,
      ":**": 2429,
      "Ġbook": 2430,
      "Ġreason": 2431,
      "ters": 2432,
      "uted": 2433,
      "Ġlive": 2434,
      "Ġmoney": 2435,
      "Ġpast": 2436,
      "icient": 2437,
      "ients": 2438,
      "Ġgr": 2439,
      "Ġmilitary": 2440,
      "Ġmathemat": 2441,
      "}$.": 2442,
      "Ġlay": 2443,
      "test": 2444,
      "Al": 2445,
      "most": 2446,
      "Ġapplic": 2447,
      "Ġdat": 2448,
      "theta": 2449,
      "ĠUniversity": 2450,
      "Ġlittle": 2451,
      "ĠSouth": 2452,
      "Ġevents": 2453,
      "Ġneeded": 2454,
      "ĠWest": 2455,
      "Ġglo": 2456,
      "omial": 2457,
      "Ġimprove": 2458,
      "aries": 2459,
      "gest": 2460,
      "Ġcame": 2461,
      "ĠJew": 2462,
      "Ġbreak": 2463,
      "ĠAll": 2464,
      "Ġenough": 2465,
      "Ġsurv": 2466,
      "ush": 2467,
      "Ġrele": 2468,
      "Ġlines": 2469,
      "Ġplants": 2470,
      "ĠPer": 2471,
      "illed": 2472,
      "alse": 2473,
      "Ġdest": 2474,
      "Ġmess": 2475,
      "Ġfunctions": 2476,
      "ĠIm": 2477,
      "23": 2478,
      "ĠRoman": 2479,
      "Ġnature": 2480,
      "45": 2481,
      "ĠÂ": 2482,
      "ĠNe": 2483,
      "Ġmom": 2484,
      "oph": 2485,
      "Ġconnect": 2486,
      "reg": 2487,
      "ĠHis": 2488,
      "Ġdraw": 2489,
      "Ġmakes": 2490,
      "rate": 2491,
      "Ġsense": 2492,
      "Ġinvolves": 2493,
      "Ġmath": 2494,
      "ĠWorld": 2495,
      "Ġpie": 2496,
      "Ġsat": 2497,
      "Ġfall": 2498,
      "ifying": 2499,
      "Ġpractice": 2500,
      "Ġalready": 2501,
      "Ġcondition": 2502,
      "dis": 2503,
      "list": 2504,
      "Ġintrodu": 2505,
      "Answer": 2506,
      "Ġeither": 2507,
      "Ġfund": 2508,
      "cdot": 2509,
      "Ġmaintain": 2510,
      "action": 2511,
      "ites": 2512,
      "Ġwide": 2513,
      "}{\\": 2514,
      "Ġvolume": 2515,
      "Ġprime": 2516,
      "ĠAct": 2517,
      "col": 2518,
      "Ġprice": 2519,
      "90": 2520,
      "Ġratio": 2521,
      "Ġnet": 2522,
      "Ġreport": 2523,
      "Ġcolor": 2524,
      "Ġgame": 2525,
      "Ġtaken": 2526,
      "Ġoutput": 2527,
      "Ġavailable": 2528,
      "Ġkind": 2529,
      "ibility": 2530,
      "plic": 2531,
      "uments": 2532,
      "order": 2533,
      "Ġmovement": 2534,
      "ĠProblem": 2535,
      "Ġmaximum": 2536,
      "acc": 2537,
      "Ġcultural": 2538,
      "iol": 2539,
      "Ġunit": 2540,
      "Ġcivil": 2541,
      "Ġrow": 2542,
      "Ġthroughout": 2543,
      "Ġmagn": 2544,
      "ĠSim": 2545,
      "Ġarch": 2546,
      "uting": 2547,
      "Ġgl": 2548,
      "Ġsepar": 2549,
      "Ġgain": 2550,
      "Ġexact": 2551,
      "rench": 2552,
      "Ġlower": 2553,
      "rite": 2554,
      "Ġlimit": 2555,
      "Ġey": 2556,
      "enn": 2557,
      "Ġwritten": 2558,
      "gor": 2559,
      "Ġtarget": 2560,
      "Ġhol": 2561,
      "ising": 2562,
      "Ġerror": 2563,
      "Ġcub": 2564,
      "70": 2565,
      "celer": 2566,
      "Ġnational": 2567,
      "Ġemploy": 2568,
      "ĠPol": 2569,
      "Ġtable": 2570,
      "21": 2571,
      "Ġcalculated": 2572,
      "Ġcheck": 2573,
      "reme": 2574,
      "sum": 2575,
      "Ġri": 2576,
      "Ġspread": 2577,
      "Ġmultiple": 2578,
      "Ġhelps": 2579,
      "arr": 2580,
      "Ġfive": 2581,
      "ott": 2582,
      "Ġdirection": 2583,
      "istics": 2584,
      "Ġnever": 2585,
      "ĠUS": 2586,
      "Ġonce": 2587,
      "Ġfem": 2588,
      "Ġensure": 2589,
      "ares": 2590,
      "ĠRep": 2591,
      "Ġidea": 2592,
      "Ġcoll": 2593,
      "Ġclimate": 2594,
      "Ġaddress": 2595,
      "Ġcells": 2596,
      "Ġitself": 2597,
      "Ġdeveloped": 2598,
      "Ġbig": 2599,
      "Ġindust": 2600,
      "36": 2601,
      "ĠKing": 2602,
      "Ġvector": 2603,
      "Ġwrite": 2604,
      "urch": 2605,
      "Ġsource": 2606,
      "Ġshape": 2607,
      "Ġapproximately": 2608,
      "Ġactivity": 2609,
      "ĠSy": 2610,
      "ratic": 2611,
      "ĠWhile": 2612,
      "Ġreading": 2613,
      "apan": 2614,
      "####": 2615,
      "Ġforces": 2616,
      "ams": 2617,
      "ops": 2618,
      "por": 2619,
      "Ġmethods": 2620,
      "ĠVal": 2621,
      "Ġprofess": 2622,
      "Ġgoing": 2623,
      "Ġfamil": 2624,
      "augh": 2625,
      "Ġfri": 2626,
      "orem": 2627,
      "Ġinstance": 2628,
      "Ġport": 2629,
      "Ġsample": 2630,
      ".\"": 2631,
      "Ġzero": 2632,
      "Ġparents": 2633,
      "ĠGree": 2634,
      "ĠGe": 2635,
      "gorithm": 2636,
      "ysis": 2637,
      "Ġlarger": 2638,
      "ender": 2639,
      "ips": 2640,
      "Ġtemperature": 2641,
      "Ġhouse": 2642,
      "date": 2643,
      "Ġtree": 2644,
      "af": 2645,
      "Ġquick": 2646,
      "Ġliving": 2647,
      "Using": 2648,
      "Ġ.": 2649,
      "gy": 2650,
      "Ġdivis": 2651,
      "mptoms": 2652,
      "Ġflu": 2653,
      "Ġliter": 2654,
      "ĠShe": 2655,
      "Ġwind": 2656,
      "Ġpair": 2657,
      "Ġfull": 2658,
      "Ġresearc": 2659,
      "Ġtax": 2660,
      "Ġtechnology": 2661,
      "Ġlevels": 2662,
      "Ġbal": 2663,
      "know": 2664,
      "let": 2665,
      "atives": 2666,
      "Ġencoura": 2667,
      "ls": 2668,
      "Ġfarm": 2669,
      "ĠTe": 2670,
      "ĠMe": 2671,
      "Ġentire": 2672,
      "Ġfac": 2673,
      "like": 2674,
      "Ġrequire": 2675,
      "aches": 2676,
      "ometimes": 2677,
      "Ġnormal": 2678,
      "acks": 2679,
      "Ġlives": 2680,
      "Ġwriting": 2681,
      "Ġdecl": 2682,
      "Ġhor": 2683,
      "Ġfeed": 2684,
      "Ġevidence": 2685,
      "ĠII": 2686,
      "Ġfail": 2687,
      "Ġbuilding": 2688,
      "Ġnecessary": 2689,
      "ĠAm": 2690,
      "Ġbound": 2691,
      "ĠJohn": 2692,
      "imens": 2693,
      "duct": 2694,
      "Ġprevious": 2695,
      "rame": 2696,
      "Ġur": 2697,
      "Ġstructure": 2698,
      "iment": 2699,
      "otal": 2700,
      "rown": 2701,
      "estion": 2702,
      "Ġthought": 2703,
      "Ġrelative": 2704,
      "effic": 2705,
      "nderstand": 2706,
      "Ġunits": 2707,
      "Ġdefin": 2708,
      "ĠAfter": 2709,
      "Ġmeet": 2710,
      "bra": 2711,
      "oon": 2712,
      "edi": 2713,
      "resents": 2714,
      "Ġsec": 2715,
      "ming": 2716,
      "inct": 2717,
      "Ġlinear": 2718,
      "Ġpressure": 2719,
      "bon": 2720,
      "part": 2721,
      "Ġpopular": 2722,
      "Ġbar": 2723,
      "Ġcontext": 2724,
      "reng": 2725,
      "Ġtre": 2726,
      "Ġsold": 2727,
      "ope": 2728,
      "Ġcapt": 2729,
      "Ġsuff": 2730,
      "Ġcompon": 2731,
      "Ġdirectly": 2732,
      "Ġvariable": 2733,
      "stitute": 2734,
      "ened": 2735,
      "Ġstre": 2736,
      "Ġshap": 2737,
      "respon": 2738,
      "ĠJapan": 2739,
      "Ġincor": 2740,
      "rad": 2741,
      "tempt": 2742,
      "rim": 2743,
      "Ġobjects": 2744,
      "Ġincreasing": 2745,
      "enced": 2746,
      "ift": 2747,
      "sp": 2748,
      "son": 2749,
      "Ġtreatment": 2750,
      "clusion": 2751,
      "Ġrandom": 2752,
      "Ġinfluence": 2753,
      "Ġdeep": 2754,
      "ĠLet": 2755,
      "Ġbusiness": 2756,
      "ĠCent": 2757,
      "cer": 2758,
      "Ġparticip": 2759,
      "Ġreach": 2760,
      "Ġdeb": 2761,
      "ields": 2762,
      "Ġax": 2763,
      "bb": 2764,
      "plement": 2765,
      "ĠFrench": 2766,
      "Ġcrucial": 2767,
      "ĠThen": 2768,
      "Ġcontinue": 2769,
      "Ġbrain": 2770,
      "lict": 2771,
      "Ġleaders": 2772,
      "Ġintegral": 2773,
      "Ġdetail": 2774,
      "Here": 2775,
      "aging": 2776,
      "Ġconcern": 2777,
      "Ġquant": 2778,
      "Ġcolumn": 2779,
      "ament": 2780,
      "}^{": 2781,
      "Ġmind": 2782,
      "Ġface": 2783,
      "Com": 2784,
      "Ġdefined": 2785,
      "ĠIndian": 2786,
      "Ġsolutions": 2787,
      "Ġproduction": 2788,
      "Ġmonths": 2789,
      "pite": 2790,
      "Ġcourse": 2791,
      "Ġblood": 2792,
      "thing": 2793,
      "Ġparticularly": 2794,
      "leep": 2795,
      "Ġadapt": 2796,
      "ried": 2797,
      "ĠUse": 2798,
      "ront": 2799,
      "Sub": 2800,
      "Ġreflect": 2801,
      "igen": 2802,
      "Ġcenter": 2803,
      "Ġpersonal": 2804,
      "Ġcalculation": 2805,
      "Ġaction": 2806,
      "Ġmem": 2807,
      "Ġtheory": 2808,
      "28": 2809,
      "Ġdam": 2810,
      "Ġ36": 2811,
      "Ġmanage": 2812,
      "Ġorigin": 2813,
      "word": 2814,
      "point": 2815,
      "hood": 2816,
      "Ġeffective": 2817,
      "time": 2818,
      "Ġissues": 2819,
      "Th": 2820,
      "ĠNational": 2821,
      "Ġproperties": 2822,
      "Ġincreased": 2823,
      "Ġshows": 2824,
      "ores": 2825,
      "Ġmoment": 2826,
      "eters": 2827,
      "Ġcomput": 2828,
      "ening": 2829,
      "Ġminutes": 2830,
      "Ġtakes": 2831,
      "rack": 2832,
      "Ġtrade": 2833,
      "Ġdegrees": 2834,
      "One": 2835,
      "oll": 2836,
      "ĠAfrican": 2837,
      "ER": 2838,
      "ĠMon": 2839,
      "ĠBC": 2840,
      "Ġpri": 2841,
      "Ġbuilt": 2842,
      "Ġsymptoms": 2843,
      "Ġsmaller": 2844,
      "Ġstring": 2845,
      "Ġcross": 2846,
      "olving": 2847,
      "izes": 2848,
      "Ġderiv": 2849,
      "ĠList": 2850,
      "elling": 2851,
      "iting": 2852,
      "Ġsuper": 2853,
      "Ġann": 2854,
      "Ġsix": 2855,
      "rought": 2856,
      "AT": 2857,
      "Ġkg": 2858,
      "Ġstreng": 2859,
      "Ġoppos": 2860,
      "stitution": 2861,
      "Ġengine": 2862,
      "Ġprovides": 2863,
      "Ġmaterials": 2864,
      "Ġ21": 2865,
      "Ġhumans": 2866,
      "raft": 2867,
      "ypot": 2868,
      "go": 2869,
      "alu": 2870,
      "value": 2871,
      "dx": 2872,
      "sec": 2873,
      "Ġacceler": 2874,
      "ĠAust": 2875,
      "Ġreligious": 2876,
      "Ġactually": 2877,
      "ĠInitial": 2878,
      "Ġstru": 2879,
      "35": 2880,
      "Ġfraction": 2881,
      "Ġarticle": 2882,
      "ene": 2883,
      "arily": 2884,
      "ms": 2885,
      "Ġcut": 2886,
      "32": 2887,
      "Ġstra": 2888,
      "Ġimportance": 2889,
      "sect": 2890,
      "ĠTherefore": 2891,
      "aged": 2892,
      "Ġconsum": 2893,
      "Ġbelow": 2894,
      "Ġprinci": 2895,
      "ixed": 2896,
      "Ġpaper": 2897,
      "Ġvert": 2898,
      "anced": 2899,
      "Ġassociated": 2900,
      "Ġideas": 2901,
      "Ġproperty": 2902,
      "Ġthird": 2903,
      "NA": 2904,
      "ĠAss": 2905,
      "gypt": 2906,
      "Ġprop": 2907,
      "Ġsun": 2908,
      "Ġexpected": 2909,
      "Ġlot": 2910,
      "Ġheat": 2911,
      "lex": 2912,
      "light": 2913,
      "Ġsens": 2914,
      "Ġpub": 2915,
      "Ġcollect": 2916,
      "Ġkm": 2917,
      "Ġteachers": 2918,
      "Ġmodels": 2919,
      "By": 2920,
      "Ġtaking": 2921,
      "Ġload": 2922,
      "ney": 2923,
      "Ġregular": 2924,
      "Ġforms": 2925,
      "Ġcomes": 2926,
      "wh": 2927,
      "racy": 2928,
      "Ġinteger": 2929,
      "onstr": 2930,
      "Ġking": 2931,
      "On": 2932,
      "Ġreduce": 2933,
      "ĠGerman": 2934,
      "Ġlaws": 2935,
      "ulations": 2936,
      "lands": 2937,
      "Ġradius": 2938,
      "way": 2939,
      "ĠMar": 2940,
      "Ġmental": 2941,
      "ung": 2942,
      "ii": 2943,
      "ched": 2944,
      "emic": 2945,
      "Ġconne": 2946,
      "Ġvariables": 2947,
      "Ġfish": 2948,
      "Ġviol": 2949,
      "Ġregard": 2950,
      "Ġbirds": 2951,
      "Ġtowards": 2952,
      "eterm": 2953,
      "add": 2954,
      "yth": 2955,
      "['": 2956,
      "Ġeffects": 2957,
      "iles": 2958,
      "ĠCheck": 2959,
      "ript": 2960,
      "Ġforest": 2961,
      "0000": 2962,
      "ĠCar": 2963,
      "agon": 2964,
      "Ġangles": 2965,
      "ederal": 2966,
      "Ġachieve": 2967,
      "aving": 2968,
      "Ġclaim": 2969,
      "Ġhabit": 2970,
      "wo": 2971,
      "room": 2972,
      "Ġaccording": 2973,
      "uple": 2974,
      "Ġproduce": 2975,
      "Ġleading": 2976,
      "Ġsuccessful": 2977,
      "itiz": 2978,
      "Ġconvert": 2979,
      "rated": 2980,
      "ese": 2981,
      "xy": 2982,
      "Ġestablished": 2983,
      "Ġscience": 2984,
      "Î¸": 2985,
      "cles": 2986,
      "Ġschools": 2987,
      "^{-": 2988,
      "ĠGo": 2989,
      "Ġchallenges": 2990,
      "iers": 2991,
      "atory": 2992,
      "main": 2993,
      "ensity": 2994,
      "Ġmor": 2995,
      "wise": 2996,
      "Ġjob": 2997,
      "ĠEgypt": 2998,
      "Ġarray": 2999,
      "Ġdom": 3000,
      "vere": 3001,
      "Ġheav": 3002,
      "Ġrot": 3003,
      "hest": 3004,
      "rance": 3005,
      "==": 3006,
      "Ġthreat": 3007,
      "Ġcritical": 3008,
      "Ġlonger": 3009,
      "erate": 3010,
      "Ġgas": 3011,
      "ctors": 3012,
      "Ġpredict": 3013,
      "style": 3014,
      "Ġanaly": 3015,
      "ĠStud": 3016,
      "met": 3017,
      "64": 3018,
      "erve": 3019,
      "uck": 3020,
      "Ġappear": 3021,
      "Ġresearchers": 3022,
      "Ġet": 3023,
      "ĠÏ": 3024,
      "Ġcommunities": 3025,
      "dom": 3026,
      "ccording": 3027,
      "Ġsuggest": 3028,
      "uit": 3029,
      "isions": 3030,
      "ey": 3031,
      "Ġvariety": 3032,
      "Ġtraditional": 3033,
      "Ġupon": 3034,
      "ĠDes": 3035,
      "Ġremains": 3036,
      "Ġdenomin": 3037,
      "Ġglobal": 3038,
      "Ġhold": 3039,
      "Ġelectric": 3040,
      "ĠSub": 3041,
      "Ġwild": 3042,
      "ades": 3043,
      "Ġbecomes": 3044,
      "abor": 3045,
      "display": 3046,
      "Ġformed": 3047,
      "Ġremov": 3048,
      "ĠGet": 3049,
      "Ġla": 3050,
      "ĠThat": 3051,
      "ĠComm": 3052,
      "Ġmiles": 3053,
      "ached": 3054,
      "Ġfight": 3055,
      "Ġlargest": 3056,
      "upp": 3057,
      "Ġcentral": 3058,
      "ought": 3059,
      "ĠPe": 3060,
      "Ġalgorithm": 3061,
      "eleb": 3062,
      "ĠDis": 3063,
      "ump": 3064,
      "Ġjour": 3065,
      "Ġalmost": 3066,
      "Ġtypically": 3067,
      "27": 3068,
      "Ġquad": 3069,
      "oes": 3070,
      "Ġ27": 3071,
      "Ġcaused": 3072,
      "Ġdemonstr": 3073,
      "ameter": 3074,
      "Ġconsist": 3075,
      "ĠPart": 3076,
      "lope": 3077,
      "ued": 3078,
      "Ġconflict": 3079,
      "astic": 3080,
      "eration": 3081,
      "Ġ90": 3082,
      "undred": 3083,
      "Ġaccept": 3084,
      "Ġearth": 3085,
      "Ġrepresents": 3086,
      "}\")": 3087,
      "Ġattempt": 3088,
      "Ġtrees": 3089,
      "Ġ28": 3090,
      "ĠState": 3091,
      "Ġallowed": 3092,
      "ĠBo": 3093,
      "ĠCanad": 3094,
      "amed": 3095,
      "ĠBlack": 3096,
      "osa": 3097,
      "Ġrefer": 3098,
      "Ġstress": 3099,
      "raw": 3100,
      "Ġthous": 3101,
      "ĠEuropean": 3102,
      "Ġevalu": 3103,
      "pose": 3104,
      "Ġexamples": 3105,
      "Ġallows": 3106,
      "Ġdou": 3107,
      "Ġsal": 3108,
      "Ġcop": 3109,
      "Ġsafe": 3110,
      "Ġshare": 3111,
      "ĠMany": 3112,
      "Ġdecre": 3113,
      "Ġavoid": 3114,
      "fact": 3115,
      "Ġrect": 3116,
      "ricult": 3117,
      "Ġappl": 3118,
      "come": 3119,
      "Ġtens": 3120,
      "Ġinvolved": 3121,
      "ensive": 3122,
      "Ġtraining": 3123,
      "These": 3124,
      "Ġmach": 3125,
      "plication": 3126,
      "ĠHist": 3127,
      "Ġmatter": 3128,
      "Ġstatement": 3129,
      "Ġuses": 3130,
      "Ġcommand": 3131,
      "Ġestablish": 3132,
      "ĠPres": 3133,
      "48": 3134,
      "Ġcal": 3135,
      "ndarray": 3136,
      "ervation": 3137,
      "ceed": 3138,
      "Ġnut": 3139,
      "Ġaspect": 3140,
      "ply": 3141,
      "amm": 3142,
      "ception": 3143,
      "uel": 3144,
      "Ġcat": 3145,
      "Ġscientists": 3146,
      "Ġharm": 3147,
      "Ġproport": 3148,
      "ĠÏĢ": 3149,
      "Ġreally": 3150,
      "Ġdivided": 3151,
      "Ġfire": 3152,
      "Ġcir": 3153,
      "new": 3154,
      "Ġparalle": 3155,
      "Ġidentity": 3156,
      "Ġincludes": 3157,
      "Ġvirus": 3158,
      "ĠAmericans": 3159,
      "ads": 3160,
      "Ġdigits": 3161,
      "Ġterrit": 3162,
      "ID": 3163,
      "Ġstrugg": 3164,
      "Ġslow": 3165,
      "aly": 3166,
      "Ġdivide": 3167,
      "Ġfreed": 3168,
      "Ġteaching": 3169,
      "AS": 3170,
      "uries": 3171,
      "Ġincluded": 3172,
      "Ġsn": 3173,
      "]:": 3174,
      "Ġvalid": 3175,
      "ĠEngland": 3176,
      "lation": 3177,
      ");": 3178,
      "ternative": 3179,
      "Ġinequ": 3180,
      "Ġindependent": 3181,
      "Ġsett": 3182,
      "abilities": 3183,
      "matrix": 3184,
      "ĠSoc": 3185,
      "Ġmessage": 3186,
      "Ġlate": 3187,
      "65": 3188,
      "eg": 3189,
      "fig": 3190,
      "sych": 3191,
      "Ġlack": 3192,
      "view": 3193,
      "Ġwood": 3194,
      "box": 3195,
      "Ġpowerful": 3196,
      "Ġtalk": 3197,
      "^(": 3198,
      "Ġcontent": 3199,
      "ĠEqu": 3200,
      "Ġcoeffic": 3201,
      "ber": 3202,
      "Tr": 3203,
      "odes": 3204,
      "ometric": 3205,
      "Ġstop": 3206,
      "Ġfloat": 3207,
      "ynomial": 3208,
      "Ġchem": 3209,
      "chan": 3210,
      "ĠRed": 3211,
      "Ġbox": 3212,
      "ĠMay": 3213,
      "Ġsea": 3214,
      "Ġproducts": 3215,
      "Ġwall": 3216,
      "Ġwest": 3217,
      "Ġemerg": 3218,
      "Ġtransform": 3219,
      "ĠMult": 3220,
      "Ġquality": 3221,
      "key": 3222,
      "ON": 3223,
      "Ġsoil": 3224,
      "Ġpriv": 3225,
      "displaystyle": 3226,
      "67": 3227,
      "Ġspir": 3228,
      "Ġmid": 3229,
      "Ġ22": 3230,
      "Ġceleb": 3231,
      "Ġsure": 3232,
      "ancial": 3233,
      "Ġoutside": 3234,
      "Ġcitiz": 3235,
      "Ġmultiply": 3236,
      "Ġoperations": 3237,
      "Ġcreating": 3238,
      "Ġcode": 3239,
      "Ġquickly": 3240,
      "Ġtell": 3241,
      "Ġprogress": 3242,
      "Ġcoordin": 3243,
      "Ġlink": 3244,
      "Ġ45": 3245,
      "Ġconver": 3246,
      "Ġste": 3247,
      "size": 3248,
      "Ġq": 3249,
      "Ġtrib": 3250,
      "Ġlib": 3251,
      "Ġ...": 3252,
      "ground": 3253,
      "Ġrules": 3254,
      "Ġheld": 3255,
      "idth": 3256,
      "hern": 3257,
      "Ġnation": 3258,
      "ĠCo": 3259,
      "rm": 3260,
      "Ġbelieved": 3261,
      "Ġones": 3262,
      "Ġhypot": 3263,
      "Ġcorrespon": 3264,
      "Ġbasic": 3265,
      "ĠTheir": 3266,
      "Ġattention": 3267,
      "Ġstarted": 3268,
      "Ġservices": 3269,
      "Ġestim": 3270,
      "tr": 3271,
      "Ġfeatures": 3272,
      "isf": 3273,
      "Ġdoc": 3274,
      "Ġadj": 3275,
      "Ġexplore": 3276,
      "Ġexam": 3277,
      "\\[": 3278,
      "Ġbring": 3279,
      "ellow": 3280,
      "Ġinstr": 3281,
      "Ġbr": 3282,
      "Ġseem": 3283,
      "Ġidentify": 3284,
      "Ġsometimes": 3285,
      "het": 3286,
      "But": 3287,
      "Ġjo": 3288,
      "Ġbehavi": 3289,
      "Ġsleep": 3290,
      "Ġimplement": 3291,
      "icro": 3292,
      "thern": 3293,
      "Ġcompet": 3294,
      "ĠCor": 3295,
      "ym": 3296,
      "='": 3297,
      "angles": 3298,
      "ĠFirst": 3299,
      "Ġcust": 3300,
      "Ġofficial": 3301,
      "Ġbooks": 3302,
      "ĠCal": 3303,
      "Ġever": 3304,
      "ĠChina": 3305,
      "cular": 3306,
      "Ġfav": 3307,
      "Ġresistance": 3308,
      "Ġwhose": 3309,
      "Ġinstead": 3310,
      "Ġrac": 3311,
      "Ġwon": 3312,
      "Ġattack": 3313,
      "Ġplaces": 3314,
      "ounds": 3315,
      "âĢ¦": 3316,
      "bor": 3317,
      "outhern": 3318,
      "Ġinside": 3319,
      "Ġextreme": 3320,
      "Ġnode": 3321,
      "Ġstatus": 3322,
      "rial": 3323,
      "Ġago": 3324,
      "ĠAre": 3325,
      "Ġcamp": 3326,
      "raction": 3327,
      "Ġchoose": 3328,
      "Ġmarket": 3329,
      "Ġstudies": 3330,
      "Ġbill": 3331,
      "Ġselect": 3332,
      "Ġkids": 3333,
      "pha": 3334,
      "bit": 3335,
      "ĠAB": 3336,
      "Ġpatterns": 3337,
      "orthern": 3338,
      "Ġdemand": 3339,
      "Ġmeters": 3340,
      "Ġcontinued": 3341,
      "ĠAfrica": 3342,
      "asc": 3343,
      "pid": 3344,
      "Ġmoving": 3345,
      "irm": 3346,
      "29": 3347,
      "._": 3348,
      "Ġhundred": 3349,
      "ains": 3350,
      "Ġfamilies": 3351,
      "Ġdistinct": 3352,
      "ĠCong": 3353,
      "ST": 3354,
      "'(": 3355,
      "Ġanalysis": 3356,
      "Ġcarbon": 3357,
      "Ġdate": 3358,
      "IN": 3359,
      "ault": 3360,
      ",\"": 3361,
      "Ġconcepts": 3362,
      "Ġproduced": 3363,
      "my": 3364,
      "ister": 3365,
      "Ġhealthy": 3366,
      "Ġgrav": 3367,
      "fs": 3368,
      "ĠEmp": 3369,
      "Ġbur": 3370,
      "ley": 3371,
      "Ġminimum": 3372,
      "arent": 3373,
      "Ġplayed": 3374,
      "Ġmotion": 3375,
      "})": 3376,
      "Ġful": 3377,
      "Ġvacc": 3378,
      "Ġraise": 3379,
      "Ġ23": 3380,
      "Ġgoal": 3381,
      "Ġcapac": 3382,
      "ĠValue": 3383,
      "Ġbrought": 3384,
      "Ġfinding": 3385,
      "Ġ199": 3386,
      "dent": 3387,
      "Ġconduct": 3388,
      "Ġdx": 3389,
      "Ġcommit": 3390,
      "Ġprec": 3391,
      "ĠMake": 3392,
      "ban": 3393,
      "âĤ": 3394,
      "Ġpow": 3395,
      "Ġindex": 3396,
      "Ġcommunication": 3397,
      "Ġfigure": 3398,
      "ĠGreat": 3399,
      "ech": 3400,
      "Ġemb": 3401,
      "Ġyet": 3402,
      "Ġassess": 3403,
      "Ġsources": 3404,
      "Ġshown": 3405,
      "Ġut": 3406,
      "Ġintegers": 3407,
      "Ġweek": 3408,
      "Ġthinking": 3409,
      "Ġfollows": 3410,
      "ĠUnderstand": 3411,
      "Ġrepe": 3412,
      "ĠCO": 3413,
      "uge": 3414,
      "ĠLaw": 3415,
      "Ġinfe": 3416,
      "Ġproviding": 3417,
      "Ġphot": 3418,
      "ĠMed": 3419,
      "aily": 3420,
      "num": 3421,
      "ĠâīĪ": 3422,
      "known": 3423,
      "Ġteacher": 3424,
      "You": 3425,
      "Ġfrequency": 3426,
      "Ġassum": 3427,
      "((": 3428,
      "cont": 3429,
      "ember": 3430,
      "pper": 3431,
      "Ġ80": 3432,
      "Ġlooking": 3433,
      "itle": 3434,
      "Ġequival": 3435,
      "ĠComp": 3436,
      "Ġ35": 3437,
      "Ġemp": 3438,
      "Ġanimal": 3439,
      "ĠRuss": 3440,
      "Ġeth": 3441,
      "Ġsomeone": 3442,
      "ience": 3443,
      "Ġlif": 3444,
      "back": 3445,
      "Ġbenefits": 3446,
      "ĠUnion": 3447,
      "ĠAI": 3448,
      "Ġheart": 3449,
      "Ġobtain": 3450,
      "44": 3451,
      "Ġstri": 3452,
      "Ġsimply": 3453,
      "Ġdesigned": 3454,
      "200": 3455,
      "ĠFe": 3456,
      "ai": 3457,
      "onom": 3458,
      "Ġdifferences": 3459,
      "Ġderivative": 3460,
      "Ġinterpre": 3461,
      "Ġworkers": 3462,
      "ilos": 3463,
      "anish": 3464,
      "ĠGermany": 3465,
      "iques": 3466,
      "ĠNumber": 3467,
      "Ġsurround": 3468,
      "ĠDefine": 3469,
      "Ġclean": 3470,
      "Ġmiddle": 3471,
      "uth": 3472,
      "Ġsituation": 3473,
      "illi": 3474,
      "ĠChar": 3475,
      "Ġund": 3476,
      "urity": 3477,
      "Ġrequest": 3478,
      "itual": 3479,
      "Ġbeginning": 3480,
      "Ġsimplify": 3481,
      "iter": 3482,
      "']": 3483,
      "Ġjud": 3484,
      "ying": 3485,
      "Ġplanet": 3486,
      "Ġpict": 3487,
      "minist": 3488,
      "Ġcapital": 3489,
      "Ġgreen": 3490,
      "ĠChristian": 3491,
      "rast": 3492,
      "hel": 3493,
      "Ġseems": 3494,
      "ĠMat": 3495,
      "Ġclos": 3496,
      "requ": 3497,
      "Ġfinancial": 3498,
      "Ġgetting": 3499,
      "Ġapply": 3500,
      "Ġslope": 3501,
      "Ġbehind": 3502,
      "Ġice": 3503,
      "ĠYork": 3504,
      "Ġpoll": 3505,
      "hib": 3506,
      "Ġsearch": 3507,
      "da": 3508,
      "Ġbirth": 3509,
      "Ġefforts": 3510,
      "Ġvict": 3511,
      "aling": 3512,
      "tan": 3513,
      "Ġagricult": 3514,
      "First": 3515,
      "ĠNo": 3516,
      "Ġrequires": 3517,
      "Ġaim": 3518,
      "ĠĠĠĠĠĠĠĠčĊ": 3519,
      "Ġroots": 3520,
      "bre": 3521,
      "Ġtown": 3522,
      "Ġaccom": 3523,
      "ĠRiver": 3524,
      "Ġ180": 3525,
      "ĠMin": 3526,
      "Ġcompany": 3527,
      "anks": 3528,
      "Ġdepend": 3529,
      "ĠMan": 3530,
      "actions": 3531,
      "Ġdenominator": 3532,
      "Ġhistorical": 3533,
      "hesis": 3534,
      "resh": 3535,
      "ĠUsing": 3536,
      "Ġpublished": 3537,
      "ĠFrom": 3538,
      "Ġcontact": 3539,
      "Ġtransport": 3540,
      "Ġ32": 3541,
      "Ġprimary": 3542,
      "inf": 3543,
      "Ġaff": 3544,
      "itect": 3545,
      "odies": 3546,
      "Ġadded": 3547,
      "Ġrock": 3548,
      "Ġsaw": 3549,
      "rams": 3550,
      "eds": 3551,
      "Ġconstruct": 3552,
      "Ġexerc": 3553,
      "erson": 3554,
      "ĠFrance": 3555,
      "que": 3556,
      "Ġblock": 3557,
      "Ġcover": 3558,
      "vant": 3559,
      "Ġtrain": 3560,
      "Ġir": 3561,
      "Ġlost": 3562,
      "ditionally": 3563,
      "Ġlegal": 3564,
      "Ġfractions": 3565,
      "Ġmiss": 3566,
      "77": 3567,
      "Ġissue": 3568,
      "Ġdecision": 3569,
      "ĠTest": 3570,
      "uff": 3571,
      "Sim": 3572,
      "ription": 3573,
      "asons": 3574,
      "Ġacceleration": 3575,
      "Ġeat": 3576,
      "ĠOther": 3577,
      "Ġsort": 3578,
      "Ġnorth": 3579,
      "utive": 3580,
      "Ġpractices": 3581,
      "Ġseg": 3582,
      "Ġdecimal": 3583,
      "Ġsatisf": 3584,
      "Ġ_": 3585,
      "Ġinches": 3586,
      "ildren": 3587,
      "cean": 3588,
      "icles": 3589,
      "yond": 3590,
      "volution": 3591,
      "66": 3592,
      "Ġbelieve": 3593,
      "Ġconstit": 3594,
      "Ġservice": 3595,
      "ulate": 3596,
      "Ġresulting": 3597,
      "ĠLo": 3598,
      "Ġperfect": 3599,
      "Ġhunt": 3600,
      "ictionary": 3601,
      "Ġstay": 3602,
      "ĠĠĠĠĠĠĠĠĠĠĠĠĠĠĠĠĠĠĠ": 3603,
      "Ġscale": 3604,
      "Ġopportunities": 3605,
      "Ġstrength": 3606,
      "ĠGu": 3607,
      "Ġexperiences": 3608,
      "Ġexec": 3609,
      "//": 3610,
      "Ġpolynomial": 3611,
      "Solution": 3612,
      "phas": 3613,
      "hens": 3614,
      "izon": 3615,
      "input": 3616,
      "irect": 3617,
      "Ġthus": 3618,
      "Ġlat": 3619,
      "Ġrepresented": 3620,
      "ici": 3621,
      "Ġeconomy": 3622,
      "Ġrelationships": 3623,
      "Ġlimited": 3624,
      "Ġtask": 3625,
      "Ġlove": 3626,
      "},": 3627,
      "Int": 3628,
      "abase": 3629,
      "Ġmechan": 3630,
      "inese": 3631,
      "ĠAng": 3632,
      "based": 3633,
      "Ġbalance": 3634,
      "Ġcontains": 3635,
      "Ġmother": 3636,
      "Ġfreedom": 3637,
      "ĠDiv": 3638,
      "Ġdoing": 3639,
      "ĠTra": 3640,
      "uration": 3641,
      "Ġbul": 3642,
      "Ġexpand": 3643,
      "Ġexactly": 3644,
      "Ġtools": 3645,
      "ĠDuring": 3646,
      "ĠFl": 3647,
      "Ġgenerally": 3648,
      "Ġtherefore": 3649,
      "avery": 3650,
      "Ġsqrt": 3651,
      "Ġmedical": 3652,
      "ĠNot": 3653,
      "Ġsex": 3654,
      "oles": 3655,
      "duc": 3656,
      "Ġappears": 3657,
      "fty": 3658,
      "Ġcauses": 3659,
      "Ġrise": 3660,
      "Ġactive": 3661,
      "Ġ26": 3662,
      "Ġwent": 3663,
      "Af": 3664,
      "Ġgrowing": 3665,
      "umbers": 3666,
      "tage": 3667,
      "Ġround": 3668,
      "pri": 3669,
      "mar": 3670,
      "Ġdiet": 3671,
      "exic": 3672,
      "Ġlabor": 3673,
      "izations": 3674,
      "Ġpolicy": 3675,
      "Ġimag": 3676,
      "conds": 3677,
      "etermine": 3678,
      "Ġfront": 3679,
      "ĠEmpire": 3680,
      "Ġmathematical": 3681,
      "arrow": 3682,
      "Ġregions": 3683,
      "Ġpoor": 3684,
      "plit": 3685,
      "Ġcontaining": 3686,
      "Ġstage": 3687,
      "Ġfemale": 3688,
      "Ġdyn": 3689,
      "Ġnight": 3690,
      "head": 3691,
      "king": 3692,
      "Ġeasily": 3693,
      "Ġsite": 3694,
      "Ġdigit": 3695,
      "Ġfit": 3696,
      "yl": 3697,
      "34": 3698,
      "ĠAD": 3699,
      "ĠMus": 3700,
      "ĠAdd": 3701,
      "omb": 3702,
      "Ġdeveloping": 3703,
      "Ġcitizens": 3704,
      "26": 3705,
      "Ġoccurs": 3706,
      "omm": 3707,
      "rs": 3708,
      "ocks": 3709,
      "Ġspeak": 3710,
      "Ġinn": 3711,
      "oming": 3712,
      "Ġcateg": 3713,
      "Ġenj": 3714,
      "Ġoffer": 3715,
      "ously": 3716,
      "ĠGreek": 3717,
      "Ġeasy": 3718,
      "stituting": 3719,
      "Ġdoesn": 3720,
      "Ġarmy": 3721,
      "Ġcompos": 3722,
      "ĠCount": 3723,
      "Ġactions": 3724,
      "Ġcoast": 3725,
      "Ġsubtract": 3726,
      "Ġinstit": 3727,
      "Ġinterval": 3728,
      "Ġwin": 3729,
      "Ġaccur": 3730,
      "38": 3731,
      "enth": 3732,
      "ĠTrue": 3733,
      "Ġcolle": 3734,
      "infty": 3735,
      "ĠHere": 3736,
      "}}{": 3737,
      "Ġhighly": 3738,
      "Ġgold": 3739,
      "elt": 3740,
      "Ġadditional": 3741,
      "Ġtechniques": 3742,
      "39": 3743,
      "rap": 3744,
      "type": 3745,
      "ĠCont": 3746,
      "Ġcarry": 3747,
      "Ġtas": 3748,
      "Ġsust": 3749,
      "count": 3750,
      "Ġindustry": 3751,
      "Ġrecent": 3752,
      "Ġdaily": 3753,
      "Ġtend": 3754,
      "37": 3755,
      "ĠForm": 3756,
      "ellig": 3757,
      "Ġenvironmental": 3758,
      "lier": 3759,
      "Ġfields": 3760,
      "itor": 3761,
      "Ġinfin": 3762,
      "ĠPresident": 3763,
      "pty": 3764,
      "Ġnav": 3765,
      "max": 3766,
      "Ġsubst": 3767,
      "Ġdog": 3768,
      "Ġmeasures": 3769,
      "Ġpsych": 3770,
      "Ġgod": 3771,
      "Ġmig": 3772,
      "Ġinsp": 3773,
      "At": 3774,
      "Ġoverall": 3775,
      "image": 3776,
      "Ġhands": 3777,
      "Ġmount": 3778,
      "ĠChinese": 3779,
      "gebra": 3780,
      "ashing": 3781,
      "__(": 3782,
      "ĠCour": 3783,
      "Ġnote": 3784,
      "Ġthr": 3785,
      "ĠCongress": 3786,
      "Ġapplied": 3787,
      "AR": 3788,
      "Ġsouth": 3789,
      "Ġche": 3790,
      "Ġreve": 3791,
      "Ġwa": 3792,
      "Ġdegree": 3793,
      "anger": 3794,
      "ĠMexic": 3795,
      "Ġatm": 3796,
      "Ġexpon": 3797,
      "}$,": 3798,
      "Ġcities": 3799,
      "Ġclassroom": 3800,
      "Ġbeyond": 3801,
      "ĠSet": 3802,
      "Ġfru": 3803,
      "Ġconcent": 3804,
      "Ġefficient": 3805,
      "ĠAlthough": 3806,
      "Ġ)": 3807,
      "olic": 3808,
      "ha": 3809,
      "ĠCons": 3810,
      "Ġtro": 3811,
      "ĠFunction": 3812,
      "Ġsets": 3813,
      "OR": 3814,
      "rael": 3815,
      "Ġten": 3816,
      "Ġbab": 3817,
      "Ġhost": 3818,
      "Ad": 3819,
      "ecause": 3820,
      "While": 3821,
      "Ġcenturies": 3822,
      "Ġemotional": 3823,
      "85": 3824,
      "Ġconstruction": 3825,
      "Ġtur": 3826,
      "Ġstrategies": 3827,
      "Ġwarm": 3828,
      "Ġsil": 3829,
      "Ġequivalent": 3830,
      "ĠEm": 3831,
      "Ġmicro": 3832,
      "Ġopposite": 3833,
      "used": 3834,
      "Ġalthough": 3835,
      "leg": 3836,
      "Ġoccup": 3837,
      "Ġpassed": 3838,
      "Ġprior": 3839,
      "ession": 3840,
      "Ġvot": 3841,
      "Ġconnection": 3842,
      "Ġfoot": 3843,
      "ĠAb": 3844,
      "^-": 3845,
      "rand": 3846,
      "Ġbattle": 3847,
      "Ġthing": 3848,
      "Ġemphas": 3849,
      "Ġtrig": 3850,
      "Ġconfig": 3851,
      "Ġ---": 3852,
      "05": 3853,
      "imeter": 3854,
      "Ġhelped": 3855,
      "Ġdomin": 3856,
      "Ġborn": 3857,
      "Ġphilos": 3858,
      "Ġcharge": 3859,
      "Ġplane": 3860,
      "^(-": 3861,
      "Ġappropri": 3862,
      "Ġblue": 3863,
      "Ġengage": 3864,
      "Ġimmedi": 3865,
      "Ġadop": 3866,
      "olved": 3867,
      "olute": 3868,
      "Ġfriends": 3869,
      "cret": 3870,
      "Ġparallel": 3871,
      "Ġcomputer": 3872,
      "ĠAustral": 3873,
      "Ġscientific": 3874,
      "Ġenjoy": 3875,
      "ĠEd": 3876,
      "Ġkil": 3877,
      "Ġeventually": 3878,
      "Ġpurpose": 3879,
      "ios": 3880,
      "anging": 3881,
      "Ġprep": 3882,
      "amental": 3883,
      "Ġconsequ": 3884,
      "load": 3885,
      "men": 3886,
      "ĠFran": 3887,
      "enge": 3888,
      "Ġeg": 3889,
      "ners": 3890,
      "ĠBritain": 3891,
      "Ġstraight": 3892,
      "zz": 3893,
      "Ġarchitect": 3894,
      "ln": 3895,
      "anation": 3896,
      "Ġoptions": 3897,
      "Ġ1000": 3898,
      "Ġcourt": 3899,
      "ES": 3900,
      "Ġtor": 3901,
      "rapy": 3902,
      "vention": 3903,
      "Ġbasis": 3904,
      "init": 3905,
      "Ġ\\\\": 3906,
      "Ġcompared": 3907,
      "cks": 3908,
      "Ġfun": 3909,
      "ĠâĪļ(": 3910,
      "Ġinj": 3911,
      "Ġdivision": 3912,
      "rig": 3913,
      "Ġbroad": 3914,
      "Ġreceived": 3915,
      "Ġsustain": 3916,
      "Ġincreases": 3917,
      "comes": 3918,
      "ief": 3919,
      "Find": 3920,
      "Ġactual": 3921,
      "Ã©": 3922,
      "Ġcombination": 3923,
      "earch": 3924,
      "Ġneigh": 3925,
      "ĠMod": 3926,
      "Ġgoods": 3927,
      "Ġlocation": 3928,
      "Ġprograms": 3929,
      "Ġpeace": 3930,
      "aff": 3931,
      "Ġriver": 3932,
      "ugust": 3933,
      "Ġremaining": 3934,
      "Ġcurve": 3935,
      "vey": 3936,
      ")\\": 3937,
      "Ġstore": 3938,
      "itable": 3939,
      "Ġbott": 3940,
      "Ġcancer": 3941,
      "yg": 3942,
      "Ġgender": 3943,
      "Ġaud": 3944,
      "Ġhyd": 3945,
      "}(": 3946,
      "Ġdefinition": 3947,
      "`.": 3948,
      "ken": 3949,
      "Ġinequality": 3950,
      "ĠEach": 3951,
      "Ġdecisions": 3952,
      "ser": 3953,
      "Ġodd": 3954,
      "Ġfollowed": 3955,
      "ĠJewish": 3956,
      "ĠÃ·": 3957,
      "Ġhous": 3958,
      "rie": 3959,
      "Ġitems": 3960,
      ")]": 3961,
      "year": 3962,
      "Ġfather": 3963,
      "ĠArt": 3964,
      "ĠĠĠĠĠĠĠĠĠĠĠĠĠĠĠĠ": 3965,
      "Cl": 3966,
      "Ġvisual": 3967,
      "Ġetc": 3968,
      "Ġgames": 3969,
      "Ġsoon": 3970,
      "ĠDay": 3971,
      "Ġincorrect": 3972,
      "ĠQuestion": 3973,
      "Ġpercentage": 3974,
      "After": 3975,
      "ĠRel": 3976,
      "ĠEast": 3977,
      "49": 3978,
      "Ġnames": 3979,
      "Ġfederal": 3980,
      "Ġsupply": 3981,
      "hol": 3982,
      "Ġleaves": 3983,
      "AC": 3984,
      "aught": 3985,
      "Ġtheorem": 3986,
      "ĠIsrael": 3987,
      "Ġdiscovered": 3988,
      "Ġprove": 3989,
      "Ġadvant": 3990,
      "ĠAnt": 3991,
      "Ġapproaches": 3992,
      "Ġperformance": 3993,
      "Ġeducational": 3994,
      "alpha": 3995,
      "55": 3996,
      "Ġdark": 3997,
      "Ġresponsible": 3998,
      "valu": 3999,
      "Ġ70": 4000,
      "Ġassign": 4001,
      "Ġrecomm": 4002,
      "imin": 4003,
      "Ġhon": 4004,
      "roup": 4005,
      "Ġrich": 4006,
      "Ġdimens": 4007,
      "89": 4008,
      "Ġhorizon": 4009,
      "Ġgave": 4010,
      "Ġvide": 4011,
      "AB": 4012,
      "icate": 4013,
      "Ġult": 4014,
      "cal": 4015,
      "ĠHer": 4016,
      "ambda": 4017,
      "term": 4018,
      "Ġskin": 4019,
      "haps": 4020,
      "ĠGeor": 4021,
      "itation": 4022,
      "Ġincome": 4023,
      "Ġdictionary": 4024,
      "Ġdescribed": 4025,
      "encies": 4026,
      "Ġlocated": 4027,
      "Ġinternational": 4028,
      "rary": 4029,
      "ĠIdent": 4030,
      "Ġseconds": 4031,
      "force": 4032,
      "Ġ\"__": 4033,
      "itch": 4034,
      "ulum": 4035,
      "ww": 4036,
      "Ġwalk": 4037,
      "Ġadminist": 4038,
      "Ġchemical": 4039,
      "__\":": 4040,
      "ĠÎ¸": 4041,
      "Ġopportunity": 4042,
      "ĠMore": 4043,
      "Ġcustom": 4044,
      "aren": 4045,
      "Ġstarting": 4046,
      "orks": 4047,
      "Ġdict": 4048,
      "Ġbit": 4049,
      "Ġpiece": 4050,
      "ĠRome": 4051,
      "Ġlived": 4052,
      "pan": 4053,
      "rote": 4054,
      "Ġ$(": 4055,
      "Ġexc": 4056,
      "Ġatmosp": 4057,
      "Ġchanged": 4058,
      "Ġuseful": 4059,
      "Ġsaf": 4060,
      "Ġseason": 4061,
      "Ġmap": 4062,
      "user": 4063,
      "ĠAg": 4064,
      "ameters": 4065,
      "Ġwealth": 4066,
      "ĠInitialize": 4067,
      "Ġquite": 4068,
      "cip": 4069,
      "osing": 4070,
      "bl": 4071,
      "'re": 4072,
      "76": 4073,
      "Ġmatch": 4074,
      "Ġlegis": 4075,
      "ufact": 4076,
      "ĠConstitution": 4077,
      "Ġoil": 4078,
      "Ġgir": 4079,
      "Ġacad": 4080,
      "Ġsevere": 4081,
      "nal": 4082,
      "Ġdamage": 4083,
      "rant": 4084,
      "swers": 4085,
      "ĠSpanish": 4086,
      "Ġrates": 4087,
      "Ġinsect": 4088,
      "ĠReg": 4089,
      "Ġpromot": 4090,
      "ows": 4091,
      "Ġpack": 4092,
      "Ġimages": 4093,
      "Ġchoice": 4094,
      "Ġdied": 4095,
      "Ġspeech": 4096,
      "Ġrepresentation": 4097,
      "âĢĿ.": 4098,
      "Ġmemory": 4099,
      "Ġinform": 4100,
      "ĨĴ": 4101,
      "Ġplot": 4102,
      "Ġfa": 4103,
      "ĠJu": 4104,
      "Ġplaced": 4105,
      "Ġcard": 4106,
      "oration": 4107,
      "-\\": 4108,
      "igenous": 4109,
      "Ġflo": 4110,
      "Ġgot": 4111,
      "://": 4112,
      "Ġcam": 4113,
      "ĠDr": 4114,
      "Ġsquares": 4115,
      "Ġcircum": 4116,
      "Ġfair": 4117,
      "Ġworked": 4118,
      "ream": 4119,
      "fully": 4120,
      "Ġdisplay": 4121,
      "Ġpowers": 4122,
      "rab": 4123,
      "Ġmis": 4124,
      "Ġfamous": 4125,
      "can": 4126,
      "Ġrevolution": 4127,
      "Ġoutcomes": 4128,
      "Some": 4129,
      "Ġpage": 4130,
      "onic": 4131,
      "ĠDo": 4132,
      "ĠDetermine": 4133,
      "Ġstructures": 4134,
      "Ġmole": 4135,
      "Ġrapid": 4136,
      "Ġcompan": 4137,
      "Ġeggs": 4138,
      "ĠRs": 4139,
      "Ġmention": 4140,
      "ony": 4141,
      "Ġeyes": 4142,
      "inder": 4143,
      "ucle": 4144,
      "Ġagree": 4145,
      "tex": 4146,
      "iti": 4147,
      "ĠCanada": 4148,
      "ĠFact": 4149,
      "}$$": 4150,
      "ĠHistory": 4151,
      "Ġconnected": 4152,
      "ĠAugust": 4153,
      "ðĿ": 4154,
      "ĠPo": 4155,
      "Ġcomponents": 4156,
      "Ġnamed": 4157,
      "Ġadults": 4158,
      "Ġsection": 4159,
      "True": 4160,
      "Ġvoltage": 4161,
      "isms": 4162,
      "Ġsafety": 4163,
      "Ġstar": 4164,
      "vest": 4165,
      "Ġapplication": 4166,
      "Ġprobably": 4167,
      "Ġonline": 4168,
      "ager": 4169,
      "/(": 4170,
      "Ġprotection": 4171,
      "\".": 4172,
      "Ġ29": 4173,
      "`,": 4174,
      "Ġson": 4175,
      "=\\": 4176,
      "Ġstories": 4177,
      "88": 4178,
      "index": 4179,
      "Ġexperiment": 4180,
      "ĠHar": 4181,
      "EN": 4182,
      "Ġserious": 4183,
      "overy": 4184,
      "Ġep": 4185,
      "Ġple": 4186,
      "Ġallowing": 4187,
      "ĠChurch": 4188,
      "Ġcred": 4189,
      "Ġdiagn": 4190,
      "Ġbird": 4191,
      "water": 4192,
      "dt": 4193,
      "Ġwidth": 4194,
      "Ġevolution": 4195,
      "Ġmale": 4196,
      "chol": 4197,
      "Ġmajority": 4198,
      "ĠConf": 4199,
      "ĠMost": 4200,
      "Ġdemoc": 4201,
      "Ġmanagement": 4202,
      "cell": 4203,
      "eed": 4204,
      "Ġwrote": 4205,
      "Ġhimself": 4206,
      "Ġaffected": 4207,
      "Ġcosts": 4208,
      "ĠSchool": 4209,
      "fered": 4210,
      "Ġfear": 4211,
      "amic": 4212,
      "Ġtail": 4213,
      "Ġexists": 4214,
      "change": 4215,
      "ĠAccording": 4216,
      "Ġearn": 4217,
      "Ġbeaut": 4218,
      "Ġdensity": 4219,
      "Ġvary": 4220,
      "apter": 4221,
      "uild": 4222,
      "Ġeveryone": 4223,
      "Ġreb": 4224,
      "Ġpresence": 4225,
      "war": 4226,
      "ĠEduc": 4227,
      "fort": 4228,
      "roduction": 4229,
      "boxed": 4230,
      "Ġdetect": 4231,
      "Ġfast": 4232,
      "Ġearlier": 4233,
      "hand": 4234,
      "ĠTwo": 4235,
      "Ġsoldiers": 4236,
      "Ġsolar": 4237,
      "float": 4238,
      "ĠDep": 4239,
      "ashington": 4240,
      "ĠWilli": 4241,
      "Ġslavery": 4242,
      "begin": 4243,
      "ĠIts": 4244,
      "life": 4245,
      "ĠCivil": 4246,
      "ansion": 4247,
      "ĠFalse": 4248,
      "urrent": 4249,
      "ometry": 4250,
      "ography": 4251,
      "uary": 4252,
      "Ġgradu": 4253,
      "ĠJan": 4254,
      "ga": 4255,
      "Ġempty": 4256,
      "Ġnetwork": 4257,
      "ridge": 4258,
      "Ġadding": 4259,
      "Ġthousands": 4260,
      "Qu": 4261,
      "eta": 4262,
      "ĠSolve": 4263,
      "Ġintellig": 4264,
      "Ġhar": 4265,
      "igate": 4266,
      "Ġmedia": 4267,
      "inations": 4268,
      "ĠEven": 4269,
      "print": 4270,
      "ĠJapanese": 4271,
      "off": 4272,
      "Ġcand": 4273,
      "ĠPre": 4274,
      "aset": 4275,
      "Ġdiscrim": 4276,
      ".)": 4277,
      "Ġreasons": 4278,
      "ifies": 4279,
      "ext": 4280,
      "Ġoperation": 4281,
      "Ġboard": 4282,
      "Ġstyle": 4283,
      "roy": 4284,
      "Ġrelatively": 4285,
      "udd": 4286,
      "oday": 4287,
      "Ġbodies": 4288,
      "ned": 4289,
      "oice": 4290,
      "lab": 4291,
      "Ġtrack": 4292,
      "Ġinvolve": 4293,
      "Res": 4294,
      "Ġenh": 4295,
      "Ġcontinues": 4296,
      "Ġmanufact": 4297,
      "Ġcollection": 4298,
      "Problem": 4299,
      "Ġresist": 4300,
      "ĠGovern": 4301,
      "Ġquadratic": 4302,
      "Ġparty": 4303,
      "ĠRepublic": 4304,
      "aign": 4305,
      "length": 4306,
      "Ġtang": 4307,
      "ĠCourt": 4308,
      ")$.": 4309,
      "Ġâī¤": 4310,
      "ĠJes": 4311,
      "Ġweather": 4312,
      "Ġbran": 4313,
      "Ġconfidence": 4314,
      "Ġpopulations": 4315,
      "Ġdocument": 4316,
      "Ġusage": 4317,
      "Ġintroduced": 4318,
      "And": 4319,
      "hing": 4320,
      "II": 4321,
      "Ġletter": 4322,
      "yal": 4323,
      "Ġinteract": 4324,
      "Ġord": 4325,
      "46": 4326,
      "partial": 4327,
      "Ġcro": 4328,
      "model": 4329,
      "ĠJews": 4330,
      "Ġauthority": 4331,
      "quare": 4332,
      "iplying": 4333,
      "Ġmember": 4334,
      "ara": 4335,
      "42": 4336,
      "values": 4337,
      "Ġdepending": 4338,
      "Ġ%": 4339,
      "Ġupper": 4340,
      "ĠSpe": 4341,
      "47": 4342,
      "Ġexpressed": 4343,
      "Ġchance": 4344,
      "Ġmoved": 4345,
      "bf": 4346,
      "ee": 4347,
      "ingu": 4348,
      "Ġobserved": 4349,
      "Ġdead": 4350,
      "Ġpieces": 4351,
      "illing": 4352,
      "Ġfundamental": 4353,
      "Ġbinary": 4354,
      "ĠWestern": 4355,
      "ster": 4356,
      "ĠSw": 4357,
      "Ġcharacteristics": 4358,
      "Ġvoc": 4359,
      "ĠLear": 4360,
      "Ġrefers": 4361,
      "estic": 4362,
      "mission": 4363,
      "Ġroom": 4364,
      "Ġsoft": 4365,
      "ĠInst": 4366,
      "rates": 4367,
      "alities": 4368,
      "Ġconclusion": 4369,
      "step": 4370,
      "Ġfeature": 4371,
      "orders": 4372,
      "Ġdeal": 4373,
      "artment": 4374,
      "ĠâĪ«": 4375,
      "arian": 4376,
      "Ġforeign": 4377,
      "Ġindependence": 4378,
      "96": 4379,
      "acters": 4380,
      "Ġroll": 4381,
      "osis": 4382,
      "ystem": 4383,
      "Ġletters": 4384,
      "Ġmedic": 4385,
      "ection": 4386,
      "Ġweeks": 4387,
      "Step": 4388,
      "Ġserved": 4389,
      "Ġscre": 4390,
      "Ġanswers": 4391,
      "Ġtriangles": 4392,
      "Ġgoals": 4393,
      "31": 4394,
      "write": 4395,
      "ĠSum": 4396,
      "section": 4397,
      "ĠEl": 4398,
      "Ġvisit": 4399,
      "Ġgiving": 4400,
      "Ġera": 4401,
      "With": 4402,
      "].": 4403,
      "Ġwoman": 4404,
      "inst": 4405,
      "Ġemotions": 4406,
      "He": 4407,
      "ĠOct": 4408,
      "95": 4409,
      "][": 4410,
      "Ġveget": 4411,
      "ean": 4412,
      "inally": 4413,
      "Ġreceive": 4414,
      "Ġfully": 4415,
      "Ġappropriate": 4416,
      "ris": 4417,
      "Ġhot": 4418,
      "Ġversion": 4419,
      "Ġcorresponding": 4420,
      "Ġtrying": 4421,
      "Ġdescribe": 4422,
      "ĠWashington": 4423,
      "dict": 4424,
      "cil": 4425,
      "Ġeasier": 4426,
      "Data": 4427,
      "Ġperp": 4428,
      "Ġbacter": 4429,
      "Ġvers": 4430,
      "ĠSep": 4431,
      "Ġwinter": 4432,
      "Ġalone": 4433,
      "ĠRead": 4434,
      "Ġsettle": 4435,
      "Ġdeviation": 4436,
      "Ġcommonly": 4437,
      "Ġship": 4438,
      "Ġmultiplication": 4439,
      "Ġextra": 4440,
      "Ġbelong": 4441,
      "Ġsignificance": 4442,
      "Ġsuggests": 4443,
      "Ġsac": 4444,
      "Another": 4445,
      "Ġabsolute": 4446,
      "Ġeffort": 4447,
      "idents": 4448,
      "iny": 4449,
      "Ġasked": 4450,
      "Ġinterpret": 4451,
      "ĠGeneral": 4452,
      "ulated": 4453,
      "ĠThus": 4454,
      "Ġchallenge": 4455,
      "Ġshall": 4456,
      "Note": 4457,
      "more": 4458,
      "=\"": 4459,
      "Ġtim": 4460,
      "ĠHouse": 4461,
      "ĠRo": 4462,
      "Ġcircuit": 4463,
      "Ġprinciples": 4464,
      "Ġnearly": 4465,
      "Ġwaste": 4466,
      "Ġsetting": 4467,
      "na": 4468,
      "Ġtopic": 4469,
      "Ġdanger": 4470,
      "lin": 4471,
      "Ġtasks": 4472,
      "dfrac": 4473,
      "ĠTrans": 4474,
      "Ġsus": 4475,
      "Ġeffectively": 4476,
      "pass": 4477,
      "etime": 4478,
      "\\)": 4479,
      "rong": 4480,
      "Ġdiseases": 4481,
      "500": 4482,
      "ĠGre": 4483,
      "oke": 4484,
      "Ġgenerate": 4485,
      "iciency": 4486,
      "Ġ48": 4487,
      "Ġfat": 4488,
      "Ġtests": 4489,
      "Ġapplications": 4490,
      "Ġrepl": 4491,
      "Ġcycle": 4492,
      "Ġmarked": 4493,
      "rick": 4494,
      "Ġseparate": 4495,
      "Ġfuel": 4496,
      "Ġacqu": 4497,
      "Ġsounds": 4498,
      "Ġprivate": 4499,
      "rical": 4500,
      "Ġaspects": 4501,
      "Ġeating": 4502,
      "Ġprocesses": 4503,
      "Ġtuple": 4504,
      "Ġfavor": 4505,
      "issions": 4506,
      "Ġeye": 4507,
      "Ġded": 4508,
      "Ġcompletely": 4509,
      "Ġshapes": 4510,
      "dig": 4511,
      "ĠMarch": 4512,
      "Ġchanging": 4513,
      "Ġdatabase": 4514,
      "Ġpick": 4515,
      "asion": 4516,
      "aled": 4517,
      "np": 4518,
      "ĠTri": 4519,
      "iform": 4520,
      "Ġpolicies": 4521,
      "Ġperspect": 4522,
      "ota": 4523,
      "mmet": 4524,
      "Ġtoward": 4525,
      "aved": 4526,
      "Ġwave": 4527,
      "Ġworth": 4528,
      ")}": 4529,
      "Ġhighest": 4530,
      "Ġserve": 4531,
      "position": 4532,
      "Ġsignificantly": 4533,
      "Ġveh": 4534,
      "tered": 4535,
      "Ġsolid": 4536,
      "They": 4537,
      "ifically": 4538,
      "ĠPyth": 4539,
      "Ġspring": 4540,
      "iffe": 4541,
      "iar": 4542,
      "care": 4543,
      "Ġforced": 4544,
      "Ġoccurred": 4545,
      "ĠSov": 4546,
      "ett": 4547,
      "ĠIntern": 4548,
      "ressive": 4549,
      "Ġpresident": 4550,
      "des": 4551,
      "Ġmathematics": 4552,
      "Ġnumerous": 4553,
      "Ġillust": 4554,
      "Ġcoordinates": 4555,
      "Ġfoss": 4556,
      "ĠPeople": 4557,
      "Ġleave": 4558,
      "Ġreligion": 4559,
      "Ġdetermined": 4560,
      "87": 4561,
      "Re": 4562,
      "tery": 4563,
      "ĠVir": 4564,
      "elta": 4565,
      "number": 4566,
      "url": 4567,
      "urg": 4568,
      "Ġjustice": 4569,
      "ĠConst": 4570,
      "Ġconsidering": 4571,
      "Ġmachine": 4572,
      "oud": 4573,
      "Ġremained": 4574,
      "Ġmotiv": 4575,
      "peror": 4576,
      "Ġjourney": 4577,
      "Ġsigns": 4578,
      "Ġbottom": 4579,
      "Ġtransfer": 4580,
      "ball": 4581,
      "Ġexpressions": 4582,
      "Ġdu": 4583,
      "Ġrace": 4584,
      "pped": 4585,
      "43": 4586,
      "Ġreform": 4587,
      "ĠSolution": 4588,
      "Ġsolving": 4589,
      "ĠOut": 4590,
      "Ġpun": 4591,
      "ĠClass": 4592,
      "ĠJune": 4593,
      "Ġsong": 4594,
      "ithmetic": 4595,
      "--------": 4596,
      "Ġforward": 4597,
      "ours": 4598,
      "iforn": 4599,
      "Ġbank": 4600,
      "Ġinteresting": 4601,
      "Ġgreatest": 4602,
      "Ġ120": 4603,
      "Ġreduced": 4604,
      "Ġcharacters": 4605,
      "oking": 4606,
      "Ġpairs": 4607,
      "ĠBat": 4608,
      "axis": 4609,
      "plify": 4610,
      "Ġgoes": 4611,
      "ana": 4612,
      "dered": 4613,
      "Ġrare": 4614,
      "CD": 4615,
      "Ġinverse": 4616,
      "Ġimpl": 4617,
      "ĠLat": 4618,
      "Ġscen": 4619,
      "roll": 4620,
      "Ġ\\*": 4621,
      "Ġfigures": 4622,
      "Ġinnov": 4623,
      "eding": 4624,
      "Ġremoved": 4625,
      "Ġexpansion": 4626,
      "iable": 4627,
      "Ġnucle": 4628,
      "Un": 4629,
      "Ġ((": 4630,
      "Ġrational": 4631,
      "ypes": 4632,
      "AN": 4633,
      "Ġlearned": 4634,
      "amin": 4635,
      "Ġcommer": 4636,
      "rox": 4637,
      "ĠValueError": 4638,
      "antic": 4639,
      "Ġencourage": 4640,
      "rogen": 4641,
      "SE": 4642,
      "crete": 4643,
      "Ġcapacity": 4644,
      "Ġformer": 4645,
      "ĠUp": 4646,
      "Ġtroops": 4647,
      "lers": 4648,
      "Ġtan": 4649,
      "Is": 4650,
      "Ġcou": 4651,
      "Ġassist": 4652,
      "List": 4653,
      "Ġ75": 4654,
      "ĠPa": 4655,
      "icular": 4656,
      "Ġdro": 4657,
      "rors": 4658,
      "Ġcompre": 4659,
      "state": 4660,
      "Ġnative": 4661,
      "Ġsituations": 4662,
      "riculum": 4663,
      "Ġbeg": 4664,
      "Ġdecades": 4665,
      "liament": 4666,
      "Ġcounter": 4667,
      "ĠVol": 4668,
      "ords": 4669,
      "Ġinfect": 4670,
      "+\\": 4671,
      "Ġhope": 4672,
      "Ġgravity": 4673,
      "Ġlandsc": 4674,
      "oses": 4675,
      "Ġdin": 4676,
      "Ġast": 4677,
      "ĠAdditionally": 4678,
      "ĠTime": 4679,
      "Ġvill": 4680,
      "ĠSystem": 4681,
      "From": 4682,
      "Ġcold": 4683,
      "Ġcovered": 4684,
      "Ġ500": 4685,
      "Ġdry": 4686,
      "ont": 4687,
      "Ġcampaign": 4688,
      "Ġwat": 4689,
      "Ġcontroll": 4690,
      "ĠSm": 4691,
      "Ġmist": 4692,
      "Ġwanted": 4693,
      "Ġ2017": 4694,
      "Ġenter": 4695,
      "Ġpurch": 4696,
      "pril": 4697,
      "Ġreported": 4698,
      "uman": 4699,
      "ĠDict": 4700,
      "Ġbad": 4701,
      "Ġ300": 4702,
      "ĠRevolution": 4703,
      "ĠAc": 4704,
      "Ġdiverse": 4705,
      "Ġedge": 4706,
      "ifornia": 4707,
      "spe": 4708,
      "sub": 4709,
      "angular": 4710,
      "Ġisland": 4711,
      "Ġcards": 4712,
      "Ġcomponent": 4713,
      "Ġnorthern": 4714,
      "Ġslaves": 4715,
      "Ġsouthern": 4716,
      "Ġremember": 4717,
      "ĠJuly": 4718,
      "Ġitem": 4719,
      "ĠStudents": 4720,
      "ĠÂ±": 4721,
      "rupt": 4722,
      "areness": 4723,
      "hold": 4724,
      "board": 4725,
      "Ġliterature": 4726,
      "Ġoption": 4727,
      "Ġburn": 4728,
      "Ġplayer": 4729,
      "ino": 4730,
      "useum": 4731,
      "ĠJesus": 4732,
      "Ġsumm": 4733,
      "Ġos": 4734,
      "Ġcompar": 4735,
      "ĠHol": 4736,
      "semb": 4737,
      "ternal": 4738,
      "Ġsmallest": 4739,
      "41": 4740,
      "ognitive": 4741,
      "Ġcontinuous": 4742,
      "Ġisol": 4743,
      "orial": 4744,
      "Ġattract": 4745,
      "Ġinternal": 4746,
      "emy": 4747,
      "Ġprofessional": 4748,
      "Ġfeelings": 4749,
      "ĠDi": 4750,
      "Ġestimate": 4751,
      "ĠAsia": 4752,
      "ĠChildren": 4753,
      "iring": 4754,
      "Ġstrategy": 4755,
      "RE": 4756,
      "Ġteeth": 4757,
      "Ġdiameter": 4758,
      "ibly": 4759,
      "ĠExpl": 4760,
      "cm": 4761,
      "Ġscore": 4762,
      "Mod": 4763,
      "Ġprimarily": 4764,
      "Ġmeant": 4765,
      "ĠAtt": 4766,
      "Ġwidely": 4767,
      "Ġvertical": 4768,
      "68": 4769,
      "Ġclasses": 4770,
      "ĠRem": 4771,
      "Ġpatients": 4772,
      "gar": 4773,
      "Ġvideo": 4774,
      "zing": 4775,
      "dat": 4776,
      "Ġdidn": 4777,
      "Ġrectangle": 4778,
      "Ġcompanies": 4779,
      "Ġacademic": 4780,
      "rating": 4781,
      "ĠOver": 4782,
      "ributes": 4783,
      "ola": 4784,
      "Ġsentence": 4785,
      "mathbb": 4786,
      "ologists": 4787,
      "Ġdisorder": 4788,
      "Ġvalu": 4789,
      "alled": 4790,
      "Ġeverything": 4791,
      "osure": 4792,
      "Ġfoods": 4793,
      "Ġvectors": 4794,
      "igma": 4795,
      "cosystem": 4796,
      "uzz": 4797,
      "Ġrh": 4798,
      "Ġbenefit": 4799,
      "Ġlabel": 4800,
      "ware": 4801,
      "Ġfaith": 4802,
      "cest": 4803,
      "Ġocean": 4804,
      "Ġdepends": 4805,
      "ĠPal": 4806,
      "Ġatmosphere": 4807,
      "usion": 4808,
      "$$\\": 4809,
      "tee": 4810,
      "ĠHealth": 4811,
      "Ġreached": 4812,
      "Ġhorizontal": 4813,
      "iverse": 4814,
      "Ġbecoming": 4815,
      "Ġcultures": 4816,
      "Ġdefe": 4817,
      "ĠRob": 4818,
      "RL": 4819,
      "Ġhypothesis": 4820,
      "Ġadvance": 4821,
      "lambda": 4822,
      "'ll": 4823,
      "Ġanx": 4824,
      "Ġnotes": 4825,
      "ĠWilliam": 4826,
      "Ġreview": 4827,
      "Ġolder": 4828,
      "Example": 4829,
      "LE": 4830,
      "tember": 4831,
      "Ġpen": 4832,
      "Ġreturns": 4833,
      "Ġinh": 4834,
      "ham": 4835,
      "ĠCalifornia": 4836,
      "Ġkilled": 4837,
      "reci": 4838,
      "tles": 4839,
      "Ġurban": 4840,
      "Ġcoefficient": 4841,
      "Ġaxis": 4842,
      "Frame": 4843,
      "hi": 4844,
      "ilit": 4845,
      "do": 4846,
      "ander": 4847,
      "ĠExp": 4848,
      "yd": 4849,
      "izer": 4850,
      "ĠHand": 4851,
      "ilater": 4852,
      "Ġsummer": 4853,
      "Ġesc": 4854,
      "ĠPrint": 4855,
      "Ġinfection": 4856,
      "Ġperiods": 4857,
      "Ġdouble": 4858,
      "Ġtesting": 4859,
      "81": 4860,
      "Ġstone": 4861,
      "Ġastr": 4862,
      "Ġreferred": 4863,
      "Ġdestroy": 4864,
      "]):": 4865,
      "Ġstruggle": 4866,
      "Ġrein": 4867,
      "ĠCath": 4868,
      "Ġfixed": 4869,
      "Ġvital": 4870,
      "ondon": 4871,
      "Ġ?": 4872,
      "vec": 4873,
      "string": 4874,
      "Ġflood": 4875,
      "Ġcarried": 4876,
      "Ġmut": 4877,
      "iments": 4878,
      "AD": 4879,
      "Ġlesson": 4880,
      "Ġmission": 4881,
      "}^": 4882,
      "Substituting": 4883,
      "Ġchurch": 4884,
      "Ġindustrial": 4885,
      "ĠNow": 4886,
      "ĠArea": 4887,
      "uk": 4888,
      "Ġbool": 4889,
      "Ġaccurate": 4890,
      "Ġminor": 4891,
      "poses": 4892,
      "Ġsave": 4893,
      "Ġrob": 4894,
      "Ġinfluenced": 4895,
      "Ġlaun": 4896,
      "Ġvirt": 4897,
      "Ġphilosoph": 4898,
      "Ġlayer": 4899,
      "Ġsociet": 4900,
      "^{\\": 4901,
      "ube": 4902,
      "ĠID": 4903,
      "being": 4904,
      "Ġweak": 4905,
      "PI": 4906,
      "ĠSoviet": 4907,
      "Ġfasc": 4908,
      "Ġtemperatures": 4909,
      "reed": 4910,
      "Ġrelation": 4911,
      "ĠDem": 4912,
      "ĠLine": 4913,
      "ĠApril": 4914,
      "iff": 4915,
      "cember": 4916,
      "01": 4917,
      "asty": 4918,
      "78": 4919,
      "Ġmovements": 4920,
      "Ġconclud": 4921,
      "cel": 4922,
      "Ġ\\]": 4923,
      "Ġpicture": 4924,
      "Ġdivers": 4925,
      "lies": 4926,
      "Ġbuildings": 4927,
      "Ġterritory": 4928,
      "Ġproportion": 4929,
      "Ġecosystem": 4930,
      "Ġfort": 4931,
      "Ġquantity": 4932,
      "ĠSur": 4933,
      "Ġremove": 4934,
      "ĠRec": 4935,
      "Ġtru": 4936,
      "56": 4937,
      "Ġdepth": 4938,
      "Ġhabitat": 4939,
      "ĠSol": 4940,
      "placement": 4941,
      "Ġsem": 4942,
      "ded": 4943,
      "Ġhuge": 4944,
      "config": 4945,
      "Ġcollabor": 4946,
      "rations": 4947,
      "plifying": 4948,
      "Ġanything": 4949,
      "Ġgard": 4950,
      "ĠTheorem": 4951,
      "Ġprinciple": 4952,
      "Ġpan": 4953,
      "ĠIdentify": 4954,
      "ev": 4955,
      "Ġtitle": 4956,
      "Ġschol": 4957,
      "Ġagg": 4958,
      "oken": 4959,
      "Ġ,": 4960,
      "Ġgenetic": 4961,
      "Ġpromote": 4962,
      "uls": 4963,
      "Ġhelping": 4964,
      "Ġconstitution": 4965,
      "Ġhom": 4966,
      "Ġalgebra": 4967,
      "Ġsupported": 4968,
      "ober": 4969,
      "oted": 4970,
      "Ġpounds": 4971,
      "enty": 4972,
      "ĠPhil": 4973,
      "Ġdivisible": 4974,
      "aults": 4975,
      "Ġpal": 4976,
      "Ġsubstitute": 4977,
      "Ġviolence": 4978,
      "Ġcreation": 4979,
      "Ġstars": 4980,
      "ensor": 4981,
      "Ġhappen": 4982,
      "Ġ31": 4983,
      "Ġhappens": 4984,
      "ĠArmy": 4985,
      "ĠExamples": 4986,
      "ĠâĪł": 4987,
      "Ġreaction": 4988,
      "Ġprojects": 4989,
      "Ġfriend": 4990,
      "Ġcong": 4991,
      "Ġestimated": 4992,
      "Ġleadership": 4993,
      "airs": 4994,
      "ĠâĨĴ": 4995,
      "Ġprey": 4996,
      "iful": 4997,
      "Ġseven": 4998,
      "Ġadvoc": 4999,
      "ĠMars": 5000,
      "Ġideal": 5001,
      "ĠMass": 5002,
      "ancy": 5003,
      "osen": 5004,
      "Ġinvent": 5005,
      "west": 5006,
      "ĠEducation": 5007,
      "dy": 5008,
      "rier": 5009,
      "ague": 5010,
      "Ġotherwise": 5011,
      "Ġconservation": 5012,
      "ria": 5013,
      "ama": 5014,
      "ĠÎ¼": 5015,
      "ĠJanuary": 5016,
      "Field": 5017,
      "ulas": 5018,
      "riction": 5019,
      "Ġbra": 5020,
      "ĠSeptember": 5021,
      "Ġcontrast": 5022,
      "ĠWhe": 5023,
      "Ġcube": 5024,
      "Ġevaluate": 5025,
      "Ġprofit": 5026,
      "Ġconvers": 5027,
      "Ġlen": 5028,
      "Ġleader": 5029,
      "72": 5030,
      "Ġunknown": 5031,
      "Ġsymmet": 5032,
      "Ġincorpor": 5033,
      "Ġdru": 5034,
      "ĠWrite": 5035,
      "ĠMethod": 5036,
      "ĠOf": 5037,
      "Ġtruth": 5038,
      "rew": 5039,
      "Ġtold": 5040,
      "Ġpd": 5041,
      "Ġdiagon": 5042,
      "ĠScience": 5043,
      "Ġeight": 5044,
      "Ġsites": 5045,
      "Ġadult": 5046,
      "Ġlanguages": 5047,
      "Ġcompare": 5048,
      "Ġclosed": 5049,
      "ouncil": 5050,
      "Then": 5051,
      "ĠDav": 5052,
      "Ġdevice": 5053,
      "Ġmag": 5054,
      "crib": 5055,
      "Ġhearing": 5056,
      "Ġrunning": 5057,
      "Ġillness": 5058,
      "roduct": 5059,
      "Ġinterests": 5060,
      "rome": 5061,
      "river": 5062,
      "Ġadjust": 5063,
      ")`": 5064,
      "Ġvaluable": 5065,
      "Ġmagnitude": 5066,
      "anged": 5067,
      "ĠDec": 5068,
      "Ġcoming": 5069,
      "Ġequality": 5070,
      "Ġshared": 5071,
      "Ġmer": 5072,
      "clusive": 5073,
      "Ġexercise": 5074,
      "Ġconsequences": 5075,
      "Ġplaying": 5076,
      "Ġ150": 5077,
      "och": 5078,
      "Ġturned": 5079,
      "Ġanti": 5080,
      "Ġmeasured": 5081,
      "ĠSun": 5082,
      "ĠBar": 5083,
      "Ġarrange": 5084,
      "ĠLondon": 5085,
      "Ġrecognize": 5086,
      "Ġvertex": 5087,
      "98": 5088,
      "Ġiron": 5089,
      "Ġcool": 5090,
      "Ġwrong": 5091,
      "Ġsubt": 5092,
      "Ġimmig": 5093,
      "Ġrespectively": 5094,
      "Ġque": 5095,
      "Ġconversion": 5096,
      "Ġ64": 5097,
      "ĠDNA": 5098,
      "Ġvote": 5099,
      "Ġfrequently": 5100,
      "Ġcomplexity": 5101,
      "orean": 5102,
      "Ġpositions": 5103,
      "ml": 5104,
      "icks": 5105,
      "plications": 5106,
      "mitted": 5107,
      "erved": 5108,
      "Ġcolors": 5109,
      "Ġvast": 5110,
      "mathbf": 5111,
      "Des": 5112,
      "During": 5113,
      "Ġforests": 5114,
      "ĠDecember": 5115,
      "Ġfinally": 5116,
      "Ġintelligence": 5117,
      "perial": 5118,
      "Ġnumerator": 5119,
      "ĠMexico": 5120,
      "Ġheavy": 5121,
      "AL": 5122,
      "Ġbeliefs": 5123,
      "Ġbackground": 5124,
      "ronic": 5125,
      "Ġperhaps": 5126,
      "era": 5127,
      "Ġguid": 5128,
      "Ġtherapy": 5129,
      "inking": 5130,
      "igation": 5131,
      "ĠJust": 5132,
      "ĠSecond": 5133,
      "Ġextract": 5134,
      "Ġexperienced": 5135,
      "Ġdiscover": 5136,
      "uses": 5137,
      "ĠTur": 5138,
      "att": 5139,
      "Ġinsects": 5140,
      "Ġfram": 5141,
      "Ġgets": 5142,
      "IT": 5143,
      "CO": 5144,
      "aching": 5145,
      "Ġroad": 5146,
      "inks": 5147,
      "Ġpractical": 5148,
      "append": 5149,
      "wide": 5150,
      "====": 5151,
      "Ġsurvive": 5152,
      "____": 5153,
      "Ġnothing": 5154,
      "Ġnations": 5155,
      "Ġcolonial": 5156,
      "Im": 5157,
      "ancing": 5158,
      "?**": 5159,
      "anges": 5160,
      "ociation": 5161,
      "âĢĿ,": 5162,
      "Ġcombined": 5163,
      "Ġships": 5164,
      "eper": 5165,
      "asure": 5166,
      "Ġlinked": 5167,
      "Ġconv": 5168,
      "ica": 5169,
      "ĠNative": 5170,
      "Ġprefer": 5171,
      "arg": 5172,
      "Ġhomes": 5173,
      "63": 5174,
      "Ġfaced": 5175,
      "Ġslave": 5176,
      "cious": 5177,
      "ĠDist": 5178,
      "Ġlands": 5179,
      "Ġdoub": 5180,
      "57": 5181,
      "ologies": 5182,
      "che": 5183,
      "Ġyellow": 5184,
      "Ġdecided": 5185,
      "Ġshowed": 5186,
      "Ġorganization": 5187,
      "inating": 5188,
      "Ġdetails": 5189,
      "Ġcontribute": 5190,
      "essel": 5191,
      "Ġnews": 5192,
      "Ġopin": 5193,
      "astern": 5194,
      "digit": 5195,
      "Ġskill": 5196,
      "endicular": 5197,
      "Ġbaby": 5198,
      "ovember": 5199,
      "Ġpaint": 5200,
      "Ġliqu": 5201,
      "Ġsignal": 5202,
      "Ġgirls": 5203,
      "oe": 5204,
      "Ġshift": 5205,
      "dir": 5206,
      "Ġproced": 5207,
      "Ġeast": 5208,
      "Ġign": 5209,
      "ĠCity": 5210,
      "ĠNumbers": 5211,
      "Ġchallenging": 5212,
      "efore": 5213,
      "tes": 5214,
      "Ġanalyze": 5215,
      "ĠHen": 5216,
      "Ġplays": 5217,
      "ĠÎĶ": 5218,
      "atus": 5219,
      "Ġvision": 5220,
      "ĠRom": 5221,
      "Ġrepresenting": 5222,
      "ĠWork": 5223,
      "Ġadvantage": 5224,
      "ags": 5225,
      "Ar": 5226,
      "Ġpurs": 5227,
      "ifferent": 5228,
      "range": 5229,
      "ĠCommun": 5230,
      "ĠOctober": 5231,
      "temp": 5232,
      "Ġchoices": 5233,
      "Ġadvanced": 5234,
      "Ġbillion": 5235,
      "Ġ+=": 5236,
      "apping": 5237,
      "ĠSen": 5238,
      "Ġequip": 5239,
      "ilateral": 5240,
      "No": 5241,
      "xygen": 5242,
      "Ġsecurity": 5243,
      "Over": 5244,
      "bar": 5245,
      "62": 5246,
      "Ġunf": 5247,
      "idden": 5248,
      "Ġproof": 5249,
      "VID": 5250,
      "Ġmentioned": 5251,
      "tem": 5252,
      "ĠBecause": 5253,
      "Ġprot": 5254,
      "uracy": 5255,
      "ĠRa": 5256,
      "Ġpartial": 5257,
      "Ġcomprehens": 5258,
      "Ġelimin": 5259,
      "Ġcurriculum": 5260,
      "Ġphase": 5261,
      "mark": 5262,
      "Ġthick": 5263,
      "Ġspect": 5264,
      "Ġtopics": 5265,
      "ĠAustralia": 5266,
      "Ġlengths": 5267,
      "Ġvertices": 5268,
      "84": 5269,
      "Ġsurpr": 5270,
      "Ġpurposes": 5271,
      "Ġidentified": 5272,
      "ĠJames": 5273,
      "Ġmol": 5274,
      "hist": 5275,
      "ĠLa": 5276,
      "Sh": 5277,
      "ĠMuslim": 5278,
      ")*": 5279,
      "Ġmostly": 5280,
      "Ġappoint": 5281,
      "ĠPat": 5282,
      "Ġrail": 5283,
      "Ġtwice": 5284,
      "Ġiniti": 5285,
      "ĠLog": 5286,
      "Ġconsists": 5287,
      "Ġremainder": 5288,
      "Ġ400": 5289,
      "Ġleads": 5290,
      "Ġmi": 5291,
      "encing": 5292,
      "ĠApply": 5293,
      "arithm": 5294,
      "Ġreality": 5295,
      "Ġalternative": 5296,
      "Ġdigital": 5297,
      "valid": 5298,
      "rief": 5299,
      "ologist": 5300,
      "ormal": 5301,
      "Ġleaving": 5302,
      "Ġnovel": 5303,
      "Ġnest": 5304,
      "book": 5305,
      "Ġancest": 5306,
      "Ġtaught": 5307,
      "Ġpet": 5308,
      "Ġsubsequ": 5309,
      "ĠYour": 5310,
      "Ġreact": 5311,
      "Ġconqu": 5312,
      "ĠMiddle": 5313,
      "ĠThrough": 5314,
      "ĠBas": 5315,
      "Ġmaster": 5316,
      "ĠSocial": 5317,
      "Ġunivers": 5318,
      "bru": 5319,
      "imize": 5320,
      "run": 5321,
      "mathrm": 5322,
      "Ġrain": 5323,
      "Ġdomain": 5324,
      "Ġphen": 5325,
      "ĠData": 5326,
      "Pl": 5327,
      "Ġmoves": 5328,
      "phi": 5329,
      "Ġcoin": 5330,
      "Ġfarmers": 5331,
      "Ġbuy": 5332,
      "Ġassume": 5333,
      "Why": 5334,
      "Ġensuring": 5335,
      "Ġempire": 5336,
      "oin": 5337,
      "Ġexisting": 5338,
      "Ġpaid": 5339,
      "see": 5340,
      "Ġmagnetic": 5341,
      "ĠGiven": 5342,
      "Ġpatient": 5343,
      "Ġsurvival": 5344,
      "Ġraised": 5345,
      "Ġenvironments": 5346,
      "ĠMiss": 5347,
      "Ġlegacy": 5348,
      "Ġfost": 5349,
      "69": 5350,
      "Ġparticles": 5351,
      "Ind": 5352,
      "Ġshar": 5353,
      "Ġbacteria": 5354,
      "Ġdie": 5355,
      "Ġseek": 5356,
      "Ġtechnique": 5357,
      "Ġtransl": 5358,
      "Can": 5359,
      "with": 5360,
      "Ġnarr": 5361,
      "necess": 5362,
      "Ġgrid": 5363,
      "lor": 5364,
      "Ġprices": 5365,
      "Ġfalse": 5366,
      "down": 5367,
      "Ġextremely": 5368,
      "Ġnotice": 5369,
      "Ġcausing": 5370,
      "arser": 5371,
      "iance": 5372,
      "Ġid": 5373,
      "yram": 5374,
      "ails": 5375,
      "Ġowners": 5376,
      "char": 5377,
      "Ġrelevant": 5378,
      "Ġdrawing": 5379,
      "Ġrepeated": 5380,
      "Ġlessons": 5381,
      ")$,": 5382,
      "Ġspent": 5383,
      "Ġwaves": 5384,
      "Ġmob": 5385,
      "ĠWhy": 5386,
      "nic": 5387,
      "Ġmyth": 5388,
      "Ġstandards": 5389,
      "Ġdiss": 5390,
      "Ġfoundation": 5391,
      "Ġplat": 5392,
      "Ġcognitive": 5393,
      "Ġexistence": 5394,
      "since": 5395,
      "Ġdefine": 5396,
      "ĠDefaults": 5397,
      "Ġspecified": 5398,
      "Ġswe": 5399,
      "Ġroles": 5400,
      "Ġnull": 5401,
      "Ġargument": 5402,
      "Not": 5403,
      "ension": 5404,
      "ĠBra": 5405,
      "Ġ[]": 5406,
      "leq": 5407,
      "Ġbehaviors": 5408,
      "Are": 5409,
      "Ġcyl": 5410,
      "ees": 5411,
      "Ġagricultural": 5412,
      "ĠNovember": 5413,
      "ĠTurn": 5414,
      "Ġstarts": 5415,
      "ĠInstead": 5416,
      "const": 5417,
      "Ġsand": 5418,
      "Ġyourself": 5419,
      "ĠLib": 5420,
      "Ġsurrounding": 5421,
      "ĠResearch": 5422,
      "valuate": 5423,
      "IV": 5424,
      "Ġcere": 5425,
      "Ġrecognized": 5426,
      "Ġcast": 5427,
      "which": 5428,
      "Ġoffic": 5429,
      "Ġdividing": 5430,
      "ĠMath": 5431,
      "79": 5432,
      "ename": 5433,
      "Ġdespite": 5434,
      "ĠVirgin": 5435,
      "Ġchain": 5436,
      "Â³": 5437,
      "ky": 5438,
      ")}{": 5439,
      "Ġcore": 5440,
      "Ġmamm": 5441,
      "ĠYear": 5442,
      "ĠCentral": 5443,
      "Ġsufficient": 5444,
      "Ġkept": 5445,
      "otic": 5446,
      "Ġreference": 5447,
      "Ġtrust": 5448,
      "Ġimmediately": 5449,
      "osaur": 5450,
      "Ġplayers": 5451,
      "raint": 5452,
      "bruary": 5453,
      "Ġracial": 5454,
      "gu": 5455,
      "Ġoxygen": 5456,
      "Ġparameters": 5457,
      "ossible": 5458,
      "Ġcalculations": 5459,
      "Ġexposure": 5460,
      "Ġdoctor": 5461,
      "ĠGeorge": 5462,
      "ford": 5463,
      "Ġnutri": 5464,
      "Ġexhib": 5465,
      "Ġlargely": 5466,
      "related": 5467,
      "necessary": 5468,
      "Ġshowing": 5469,
      "ĠPort": 5470,
      "Ġpreviously": 5471,
      "Ġcloth": 5472,
      "Ġhair": 5473,
      "Ġmo": 5474,
      "Ġreducing": 5475,
      "Ġspiritual": 5476,
      "ailed": 5477,
      "Ġdepict": 5478,
      "Ġcontract": 5479,
      "Ġ42": 5480,
      "Ġclearly": 5481,
      "Ġapart": 5482,
      "Ġisn": 5483,
      "Ġtraditions": 5484,
      "Ġedges": 5485,
      "[\"": 5486,
      "ĠUnderstanding": 5487,
      "urally": 5488,
      "Ġwestern": 5489,
      "Ġcolonies": 5490,
      "ĠOpt": 5491,
      "Ġimmune": 5492,
      "Ġunc": 5493,
      "Ġpup": 5494,
      "ructure": 5495,
      "Ġannual": 5496,
      "Ġawareness": 5497,
      "Ġprison": 5498,
      "ĠTotal": 5499,
      "Ġfocused": 5500,
      "Ġarguments": 5501,
      "Ġfeeling": 5502,
      "isation": 5503,
      "%.": 5504,
      "ĠBoth": 5505,
      "54": 5506,
      "Ġlogging": 5507,
      "ressed": 5508,
      "Ġfif": 5509,
      "Ġmouth": 5510,
      "IC": 5511,
      "ĠExt": 5512,
      "pol": 5513,
      "Ġobtained": 5514,
      "med": 5515,
      "Ġdiscovery": 5516,
      "Ġorganizations": 5517,
      "Ġclim": 5518,
      "ena": 5519,
      "info": 5520,
      "Ġanxiety": 5521,
      "hips": 5522,
      "Ġautom": 5523,
      "rum": 5524,
      "Ġmotor": 5525,
      "Ġhtt": 5526,
      "Ġpresented": 5527,
      "Ġcandid": 5528,
      "Ġcommercial": 5529,
      "Ġaware": 5530,
      "Ġexchange": 5531,
      "Ġstatements": 5532,
      "Ġdrawn": 5533,
      "Ġchosen": 5534,
      "istry": 5535,
      "Ġhit": 5536,
      "Ġcoefficients": 5537,
      "Ġspecifically": 5538,
      "road": 5539,
      "cs": 5540,
      "rition": 5541,
      "field": 5542,
      "Ġgenerations": 5543,
      "opes": 5544,
      "Ġfelt": 5545,
      "urt": 5546,
      "ĠMy": 5547,
      "circ": 5548,
      "Ġperpendicular": 5549,
      "Ġdram": 5550,
      "Ġmassive": 5551,
      "ĠBudd": 5552,
      "Ġmainly": 5553,
      "ĠMc": 5554,
      "aded": 5555,
      "Ġoffice": 5556,
      "Ġunnecessary": 5557,
      "Ġfaster": 5558,
      "lement": 5559,
      "Ġinstruments": 5560,
      "Ġfert": 5561,
      "Ġemissions": 5562,
      "Ġassert": 5563,
      "Ġ33": 5564,
      "ping": 5565,
      "Ġtiss": 5566,
      "Ġglass": 5567,
      "ibilities": 5568,
      "Ġwatch": 5569,
      "Ġpredators": 5570,
      "Ġgrant": 5571,
      "Ġ<=": 5572,
      "Ġmomentum": 5573,
      "abul": 5574,
      "Ġslight": 5575,
      "Ġkin": 5576,
      "ĠInter": 5577,
      "52": 5578,
      "alt": 5579,
      "Ġcolumns": 5580,
      "stood": 5581,
      "Ġinstitutions": 5582,
      "Ġprotein": 5583,
      "za": 5584,
      "Ġabsor": 5585,
      "ĠRussia": 5586,
      "fil": 5587,
      ".\"\"\"": 5588,
      "ĠCOVID": 5589,
      "Ġequipment": 5590,
      "Ġimplies": 5591,
      "Ġhappy": 5592,
      "Ġuniform": 5593,
      "Ġonto": 5594,
      "Ġdifferential": 5595,
      "Ġmel": 5596,
      "Ġrewrite": 5597,
      "Ġframe": 5598,
      "Ġkn": 5599,
      "ĠHigh": 5600,
      "iate": 5601,
      "acing": 5602,
      "All": 5603,
      "ĠMary": 5604,
      "Ġformat": 5605,
      "Many": 5606,
      "omas": 5607,
      "Ġft": 5608,
      "Ġstation": 5609,
      "ĠLatin": 5610,
      "oding": 5611,
      "Ġbrother": 5612,
      "Ġfle": 5613,
      "Ġcurrently": 5614,
      "gn": 5615,
      "Ġhear": 5616,
      "Ġstim": 5617,
      "ĠPoint": 5618,
      "going": 5619,
      "ped": 5620,
      "Ġweap": 5621,
      "Ġevolved": 5622,
      "Ġmixed": 5623,
      "Ġpromin": 5624,
      "Ġgrass": 5625,
      "level": 5626,
      "Ġwebs": 5627,
      "Calcul": 5628,
      "ĠURL": 5629,
      "hetic": 5630,
      "Ġec": 5631,
      "Ġpush": 5632,
      "ĠSu": 5633,
      "Ġformation": 5634,
      "eros": 5635,
      "Ġplans": 5636,
      "ĠArch": 5637,
      "bability": 5638,
      "Ġconcerns": 5639,
      "Ġdy": 5640,
      "Ġappreci": 5641,
      "rants": 5642,
      "Ġgeneration": 5643,
      "ĠAC": 5644,
      "iling": 5645,
      "Ġdiscrimination": 5646,
      "ĠLou": 5647,
      "Ġcomfort": 5648,
      "Ġdiversity": 5649,
      "ĠIsl": 5650,
      "Ġdiscussion": 5651,
      "ĠOnce": 5652,
      "Ġlandscape": 5653,
      "ĠImp": 5654,
      "Ġcry": 5655,
      "Ġflight": 5656,
      "ĠCatholic": 5657,
      "amil": 5658,
      "Ġabilities": 5659,
      "Ġlik": 5660,
      "Ġshell": 5661,
      "Ġlimits": 5662,
      "ĠUK": 5663,
      "Ġincreasingly": 5664,
      "Ġplanning": 5665,
      "ĠJud": 5666,
      "Ġdiag": 5667,
      "bed": 5668,
      "Ġreturned": 5669,
      "Ġpoet": 5670,
      "Ġalt": 5671,
      "Ġpand": 5672,
      "Ġsubjects": 5673,
      "tra": 5674,
      "Ġphenomen": 5675,
      "Ġguide": 5676,
      "86": 5677,
      "Ġwalls": 5678,
      "ĠIr": 5679,
      "Ġartists": 5680,
      "ĠSpain": 5681,
      "Ġready": 5682,
      "ĠAlex": 5683,
      "Ġparties": 5684,
      "Ġmoral": 5685,
      "Ġcrops": 5686,
      "rice": 5687,
      "house": 5688,
      "ED": 5689,
      "Ġneighb": 5690,
      "ĠConvert": 5691,
      "Ġhundreds": 5692,
      "Ġoffers": 5693,
      "Ġvaccine": 5694,
      "([": 5695,
      "iders": 5696,
      "riage": 5697,
      "Ġstock": 5698,
      "Although": 5699,
      "oul": 5700,
      "ĠRights": 5701,
      "Ġpros": 5702,
      "ourage": 5703,
      "oper": 5704,
      "Ġpossess": 5705,
      "Ġaffects": 5706,
      "Ġjoint": 5707,
      "Ġsought": 5708,
      "ether": 5709,
      "ĠSam": 5710,
      "Ġengineering": 5711,
      "inomial": 5712,
      "():": 5713,
      "Ġcommunicate": 5714,
      "Ġfloor": 5715,
      "ĠSan": 5716,
      "Ġindeed": 5717,
      "Ġarchitecture": 5718,
      "Ġindicates": 5719,
      "Ġspot": 5720,
      "ĠMultiply": 5721,
      "Ġresponsibility": 5722,
      "ĠPress": 5723,
      "ĠMount": 5724,
      "Ġtreated": 5725,
      "Ġhappened": 5726,
      "ĠWomen": 5727,
      "ĠMa": 5728,
      "icated": 5729,
      "Ġmetal": 5730,
      "Ġ37": 5731,
      "Ġtangent": 5732,
      "Number": 5733,
      "gram": 5734,
      "Ġtrac": 5735,
      "ĠProper": 5736,
      "ĠIsland": 5737,
      "ĠStand": 5738,
      "ĠKe": 5739,
      "aran": 5740,
      "ĠHenry": 5741,
      "Ġefficiency": 5742,
      "Ġfresh": 5743,
      "ĠDespite": 5744,
      "ĠFebruary": 5745,
      "Ġinfinite": 5746,
      "ĠException": 5747,
      "Ġresource": 5748,
      "Ġdimensions": 5749,
      "rian": 5750,
      "ĠSimplify": 5751,
      "ĠSer": 5752,
      "Ġintegration": 5753,
      "abet": 5754,
      "61": 5755,
      "abits": 5756,
      "Ġinstruction": 5757,
      "cast": 5758,
      "Ġclosely": 5759,
      "Ġcorrectly": 5760,
      "ĠAlso": 5761,
      "ĠItaly": 5762,
      "EM": 5763,
      "ĠMor": 5764,
      "ĠLearning": 5765,
      "Ġscenari": 5766,
      "rows": 5767,
      "Ġdepression": 5768,
      "ĠPers": 5769,
      "ille": 5770,
      "Ġtouch": 5771,
      "aint": 5772,
      "())": 5773,
      "Ġrecently": 5774,
      "pected": 5775,
      "Ġdevices": 5776,
      "Ġ55": 5777,
      "Ġhighlight": 5778,
      "Ġformulas": 5779,
      "Ġgeometric": 5780,
      "Ġcompound": 5781,
      "Ġtribes": 5782,
      "Ġinvestment": 5783,
      "istan": 5784,
      "Ġencount": 5785,
      "ificial": 5786,
      "Ġexposed": 5787,
      "relation": 5788,
      "ĠVari": 5789,
      "Ġextended": 5790,
      "ervice": 5791,
      "la": 5792,
      "Ġflat": 5793,
      "Where": 5794,
      "According": 5795,
      "ternatively": 5796,
      "eria": 5797,
      "Ġdomestic": 5798,
      "Ġmissing": 5799,
      "Ġsamples": 5800,
      "9999": 5801,
      "ĠWhich": 5802,
      "cipl": 5803,
      "Ġphr": 5804,
      "Ġrecords": 5805,
      "Ġexternal": 5806,
      "ĠRef": 5807,
      "ĠQue": 5808,
      "Ġamounts": 5809,
      "ĠDevelop": 5810,
      "ipped": 5811,
      "Ġdepos": 5812,
      "endment": 5813,
      "iveness": 5814,
      "Ġdut": 5815,
      "ugh": 5816,
      "Ġacting": 5817,
      "Ġarithmetic": 5818,
      "Ġutil": 5819,
      "ĠGra": 5820,
      "Ġlegisl": 5821,
      "Ġsexual": 5822,
      "Ġuns": 5823,
      "Ġdoll": 5824,
      "Ġimpacts": 5825,
      "Ġastronom": 5826,
      "Ġln": 5827,
      "ĠMulti": 5828,
      "ographic": 5829,
      "venue": 5830,
      "oples": 5831,
      "works": 5832,
      "Ġfruit": 5833,
      "IS": 5834,
      "ret": 5835,
      "83": 5836,
      "Ġthoughts": 5837,
      "Ġages": 5838,
      "itage": 5839,
      "cipal": 5840,
      "Ġfacts": 5841,
      "Ġresil": 5842,
      "Ġultimately": 5843,
      "DE": 5844,
      "essage": 5845,
      "Ġperspective": 5846,
      "Ġseeds": 5847,
      "Ġimproved": 5848,
      "ĠWhite": 5849,
      "Ġobservations": 5850,
      "tempor": 5851,
      "ocal": 5852,
      "Ġdataset": 5853,
      "ĠArab": 5854,
      "ĠAny": 5855,
      "Ġ2000": 5856,
      "Ġarrived": 5857,
      "Ġlegs": 5858,
      "iant": 5859,
      "itness": 5860,
      "process": 5861,
      "ek": 5862,
      "enses": 5863,
      "urthermore": 5864,
      "Ġacts": 5865,
      "abulary": 5866,
      "ĠSupp": 5867,
      "Ġgovernments": 5868,
      "Ġcompleted": 5869,
      "Ġagriculture": 5870,
      "gment": 5871,
      "Ġ//": 5872,
      "ules": 5873,
      "ulner": 5874,
      "Ġuniverse": 5875,
      "Ġvessel": 5876,
      "Ġnor": 5877,
      "rices": 5878,
      "no": 5879,
      "Ġhandle": 5880,
      "amma": 5881,
      ")/(": 5882,
      "rol": 5883,
      "acific": 5884,
      "Ġsegment": 5885,
      "Ġsecret": 5886,
      "Ġlearners": 5887,
      "Ġtried": 5888,
      "aker": 5889,
      "92": 5890,
      "Ġremark": 5891,
      "Ġinterested": 5892,
      "ishing": 5893,
      "Ġended": 5894,
      "Ġequals": 5895,
      "ferences": 5896,
      "Ġinner": 5897,
      "Ġstated": 5898,
      "object": 5899,
      "Ġappearance": 5900,
      "Ġfilled": 5901,
      "Ġbelief": 5902,
      "icit": 5903,
      "plate": 5904,
      "Ġgrade": 5905,
      "||": 5906,
      "intercept": 5907,
      "Ġkilomet": 5908,
      "ya": 5909,
      "Simplifying": 5910,
      "cription": 5911,
      "Ġlun": 5912,
      "ĠTem": 5913,
      "Expl": 5914,
      "Ġsplit": 5915,
      "Ġrecorded": 5916,
      "Ġperimeter": 5917,
      "Ġmode": 5918,
      "ĠSea": 5919,
      "ĠPark": 5920,
      "Ġperformed": 5921,
      "Ġplatform": 5922,
      "ieval": 5923,
      "ĠAtl": 5924,
      "Ġlies": 5925,
      "Ġdescription": 5926,
      "Ġgrand": 5927,
      "Se": 5928,
      "Ġtorch": 5929,
      "ĠâĢ¦": 5930,
      "Ġcombinations": 5931,
      "ĠAut": 5932,
      "Ġspaces": 5933,
      "Ġhealthcare": 5934,
      "Ġrotation": 5935,
      "ĠBattle": 5936,
      "Ġrespond": 5937,
      "DataFrame": 5938,
      "Mult": 5939,
      "Ġautism": 5940,
      "Ġderived": 5941,
      "ĠInternational": 5942,
      "Ġpi": 5943,
      "Ġholds": 5944,
      "Ġ34": 5945,
      "Ġreject": 5946,
      "train": 5947,
      "Ġtransition": 5948,
      "irds": 5949,
      "Ġformal": 5950,
      "Ġgrew": 5951,
      "Ġshif": 5952,
      "iced": 5953,
      "arter": 5954,
      "Ġfro": 5955,
      "Ġinvolving": 5956,
      "Ġmultiplying": 5957,
      "ĠJer": 5958,
      "Ġdistances": 5959,
      "ĠAnother": 5960,
      "Ġfailed": 5961,
      "ket": 5962,
      "Ġblocks": 5963,
      "Ġsuc": 5964,
      "Ġphysics": 5965,
      "rat": 5966,
      "Ġ49": 5967,
      "error": 5968,
      "Ġrout": 5969,
      "Ġerrors": 5970,
      "Ġpig": 5971,
      "ĠCommon": 5972,
      "Ġmaintaining": 5973,
      "rons": 5974,
      "71": 5975,
      "Ġmoon": 5976,
      "Ġvoice": 5977,
      "Ġproposed": 5978,
      "lete": 5979,
      "ĠGovernment": 5980,
      "Ġstaff": 5981,
      "Ġviews": 5982,
      "Ġbehaviour": 5983,
      "Ġconducted": 5984,
      "ca": 5985,
      "Ġnodes": 5986,
      "ĠEvery": 5987,
      "Ġwindow": 5988,
      "ĠWhether": 5989,
      "Ġhosp": 5990,
      "ĠCharles": 5991,
      "then": 5992,
      "ĠSte": 5993,
      "Ġtransformation": 5994,
      "}}$": 5995,
      "ircraft": 5996,
      "Ġmm": 5997,
      "Ġgall": 5998,
      "approx": 5999,
      "ĠVirginia": 6000,
      "Ġing": 6001,
      "icip": 6002,
      "Ġmeeting": 6003,
      "Ġ@": 6004,
      "SD": 6005,
      "comm": 6006,
      "Ġfluid": 6007,
      "Ġgun": 6008,
      "Ġreleased": 6009,
      "Ġce": 6010,
      "Ġrough": 6011,
      "Ġprecise": 6012,
      "cons": 6013,
      "73": 6014,
      "ĠLin": 6015,
      "start": 6016,
      "Ġfill": 6017,
      "ching": 6018,
      "Ġradio": 6019,
      "aped": 6020,
      "eles": 6021,
      "Ġaccuracy": 6022,
      "ĠIndians": 6023,
      "ĠReturn": 6024,
      "ĠOld": 6025,
      "Ġcubic": 6026,
      "ĠAge": 6027,
      "mu": 6028,
      "Ġadopted": 6029,
      "Ġdetailed": 6030,
      "Ġinstrument": 6031,
      "Ġmanner": 6032,
      "ĠNav": 6033,
      "fl": 6034,
      "HD": 6035,
      "bles": 6036,
      "Ġfaces": 6037,
      "Ġclient": 6038,
      "Ġspend": 6039,
      "Ġindicate": 6040,
      "Ġconsumption": 6041,
      "Ġcoins": 6042,
      "Ġmillions": 6043,
      "lowing": 6044,
      "Ġemail": 6045,
      "Ġliquid": 6046,
      "Ġcircles": 6047,
      "eline": 6048,
      "Ġpolitics": 6049,
      "ĠOur": 6050,
      "lease": 6051,
      "Ġacid": 6052,
      "orage": 6053,
      "Ġordered": 6054,
      "Ġsphere": 6055,
      "'.": 6056,
      "ET": 6057,
      "win": 6058,
      "ortunately": 6059,
      "Ġintersection": 6060,
      "cript": 6061,
      "output": 6062,
      "Ġbegins": 6063,
      "Ġdecline": 6064,
      "ĠTreat": 6065,
      "Ġthousand": 6066,
      "Ġrows": 6067,
      "Ġunderstood": 6068,
      "plot": 6069,
      "Ġsolved": 6070,
      "ship": 6071,
      "Ġmusical": 6072,
      "Ġdescribes": 6073,
      "Ġbreath": 6074,
      "Ġfighting": 6075,
      "Ġvia": 6076,
      "Ġscholars": 6077,
      "verty": 6078,
      "Ġplastic": 6079,
      "RO": 6080,
      "erest": 6081,
      "Ġdeeper": 6082,
      "Ġpoverty": 6083,
      "Ġcoal": 6084,
      "pat": 6085,
      "Ġhouses": 6086,
      "Ġgal": 6087,
      "Ġbright": 6088,
      "ĠBay": 6089,
      "ĠCa": 6090,
      "Ġ190": 6091,
      "Ġexcess": 6092,
      "Ġhabitats": 6093,
      "Ġfib": 6094,
      "ĠRussian": 6095,
      "bine": 6096,
      "Ġvulner": 6097,
      "code": 6098,
      "ĠBel": 6099,
      "Ġ-\\": 6100,
      "beta": 6101,
      "onds": 6102,
      "Ġcareer": 6103,
      "ĠHind": 6104,
      "ete": 6105,
      "Ġoffered": 6106,
      "Ġcars": 6107,
      "Ġcot": 6108,
      "ij": 6109,
      "Ġnoted": 6110,
      "ribution": 6111,
      "ĠProv": 6112,
      "aks": 6113,
      "ĠNaz": 6114,
      "ĠKey": 6115,
      "Ġselected": 6116,
      "args": 6117,
      "uous": 6118,
      "Ġhorse": 6119,
      "Ġheard": 6120,
      "ura": 6121,
      "ĠEst": 6122,
      "Ġcalculating": 6123,
      "Ġsymbols": 6124,
      "Ġstudied": 6125,
      "Ġcraft": 6126,
      "Americ": 6127,
      "Ġsucceed": 6128,
      "Ġdecrease": 6129,
      "ĠParty": 6130,
      "ĠPlan": 6131,
      "Ġupd": 6132,
      "Ġnumerical": 6133,
      "Ġvictim": 6134,
      "ðĿĳ": 6135,
      "59": 6136,
      "Ġconcentration": 6137,
      "Ġaccepted": 6138,
      "gra": 6139,
      "Ġsend": 6140,
      "Ġcapable": 6141,
      "Ġboys": 6142,
      "ĠSup": 6143,
      "ĠPacific": 6144,
      "Ġlogarithm": 6145,
      "Ġmedian": 6146,
      "Î±": 6147,
      "yles": 6148,
      "rus": 6149,
      "Ġfossil": 6150,
      "Ġtrend": 6151,
      "Ġregarding": 6152,
      "thon": 6153,
      "Ġjobs": 6154,
      "Ġaid": 6155,
      "trans": 6156,
      "ructions": 6157,
      "âĢĻ.": 6158,
      "acent": 6159,
      "Ġdogs": 6160,
      "Ġcontributions": 6161,
      "fit": 6162,
      "ĠItal": 6163,
      "org": 6164,
      "ald": 6165,
      "hors": 6166,
      "Ġrisks": 6167,
      "Ġprompt": 6168,
      "Ġneut": 6169,
      "Ġturns": 6170,
      "ĠToday": 6171,
      "liest": 6172,
      "Ġtank": 6173,
      "Ġengaging": 6174,
      "Ġconfirm": 6175,
      "Ġhunting": 6176,
      "Ġbed": 6177,
      "Ġchart": 6178,
      "Ġdistingu": 6179,
      "orest": 6180,
      "Ġcreatures": 6181,
      "Ġarchae": 6182,
      "Ġcloser": 6183,
      "ilon": 6184,
      "Ġwhom": 6185,
      "Ġsettings": 6186,
      "ĠGreen": 6187,
      "Ġachieved": 6188,
      "ĠMean": 6189,
      "Ġkeeping": 6190,
      "Ġelectricity": 6191,
      "Ġinitially": 6192,
      "Ġyield": 6193,
      "58": 6194,
      "Ġfascinating": 6195,
      "Ġwire": 6196,
      "Ġgather": 6197,
      "node": 6198,
      "ĠConfed": 6199,
      "pread": 6200,
      "inction": 6201,
      "ĠOb": 6202,
      "Ġfailure": 6203,
      "Ġ72": 6204,
      "itudes": 6205,
      "Ġloop": 6206,
      "unk": 6207,
      "Ġfindings": 6208,
      "Ġfriction": 6209,
      "Ġoptional": 6210,
      "ellect": 6211,
      "ux": 6212,
      "Ġstudying": 6213,
      "Ġexplanation": 6214,
      "Ġdirectory": 6215,
      "Ġeigen": 6216,
      "ooth": 6217,
      "Ġgained": 6218,
      "ĠBible": 6219,
      "ĠHel": 6220,
      "Ġcris": 6221,
      "df": 6222,
      "stream": 6223,
      "Ġdisorders": 6224,
      "Ġpainting": 6225,
      "Ġmeasurement": 6226,
      "Ġresulted": 6227,
      "ĠLouis": 6228,
      "Ġsummary": 6229,
      "Ġsell": 6230,
      "ĠSquare": 6231,
      "rip": 6232,
      "Ġexcell": 6233,
      "Ġpassword": 6234,
      "Ġritual": 6235,
      "Ġchildhood": 6236,
      "bin": 6237,
      "Ġsuitable": 6238,
      "ĠLoad": 6239,
      "Ġ2020": 6240,
      "apers": 6241,
      "annel": 6242,
      "à¤": 6243,
      "ĠDepartment": 6244,
      "Ġtow": 6245,
      "ĠInstitute": 6246,
      "edia": 6247,
      "Ġtrigon": 6248,
      "Ġdesired": 6249,
      "Ġdependent": 6250,
      "well": 6251,
      "ĠMark": 6252,
      "Ġarc": 6253,
      "Ġwarn": 6254,
      "ĠÎ±": 6255,
      "ulf": 6256,
      "ĠLeg": 6257,
      "Ġvariance": 6258,
      "ĠPythag": 6259,
      "points": 6260,
      "estions": 6261,
      "Ġcontributed": 6262,
      "âĪĤ": 6263,
      "Ġ39": 6264,
      "Ġmultipl": 6265,
      "Ġgenerated": 6266,
      "gl": 6267,
      "Ġbusinesses": 6268,
      "Ġrapidly": 6269,
      "Ġmilk": 6270,
      "Ġanyone": 6271,
      "Ġprepar": 6272,
      "Ġelev": 6273,
      "Ġpollution": 6274,
      "Div": 6275,
      "AP": 6276,
      "Ġsuccessfully": 6277,
      "secutive": 6278,
      "ĠNor": 6279,
      "Ġprofound": 6280,
      "Ġimpossible": 6281,
      "Ġtrial": 6282,
      "uing": 6283,
      "AM": 6284,
      "Ġfought": 6285,
      "rust": 6286,
      "aughter": 6287,
      "Ġelection": 6288,
      "Ġlogic": 6289,
      "Ġquot": 6290,
      "ocol": 6291,
      "rich": 6292,
      "Ġnuclear": 6293,
      "ĠDavid": 6294,
      "map": 6295,
      "Ġconfiguration": 6296,
      "flow": 6297,
      "mas": 6298,
      "Solving": 6299,
      "Ġcapture": 6300,
      "++": 6301,
      "74": 6302,
      "Ġsports": 6303,
      "Ġfamiliar": 6304,
      "Ġprepared": 6305,
      "Ġoutcome": 6306,
      "orrow": 6307,
      "ango": 6308,
      "Ġmountain": 6309,
      "ĠOff": 6310,
      "ĠComput": 6311,
      "Ġdrop": 6312,
      "Ġpolyg": 6313,
      "ĠCarol": 6314,
      "Ġsnow": 6315,
      "ycl": 6316,
      "ained": 6317,
      "akers": 6318,
      "Ġcircular": 6319,
      "ilarly": 6320,
      "Ġreign": 6321,
      "Ġdefault": 6322,
      "Ġshel": 6323,
      "idespread": 6324,
      "Ġbeautiful": 6325,
      "ĠKh": 6326,
      "rd": 6327,
      "Ġethnic": 6328,
      "82": 6329,
      "ĠHandle": 6330,
      "Cons": 6331,
      ".\")": 6332,
      "Ġdifficulty": 6333,
      "Ġhero": 6334,
      "ĠSpace": 6335,
      "ĠSl": 6336,
      "ups": 6337,
      "Ġstages": 6338,
      "imeters": 6339,
      "Ġprofession": 6340,
      "Ġhyper": 6341,
      "archy": 6342,
      "pm": 6343,
      "Ġpolice": 6344,
      "Ġdial": 6345,
      "Ġsimplified": 6346,
      "Ġjoined": 6347,
      "ĠMil": 6348,
      "vision": 6349,
      "Ġorganized": 6350,
      "arsh": 6351,
      "ache": 6352,
      "oose": 6353,
      "ĠMart": 6354,
      "Ġoptim": 6355,
      "aper": 6356,
      "New": 6357,
      "len": 6358,
      "ĠBet": 6359,
      "ector": 6360,
      "tion": 6361,
      "Ġunion": 6362,
      "Ġstorm": 6363,
      "Ġfine": 6364,
      "Ġfly": 6365,
      "ĠDraw": 6366,
      "Ġbees": 6367,
      "Ġroyal": 6368,
      "Ġflex": 6369,
      "Ġtexts": 6370,
      "ĠThomas": 6371,
      "ĠPower": 6372,
      "Ġshaped": 6373,
      "atural": 6374,
      "sembly": 6375,
      "Ġappeared": 6376,
      "Ġscores": 6377,
      "Ġassessment": 6378,
      "Ġperce": 6379,
      "Ġcreative": 6380,
      "ĠTex": 6381,
      "orter": 6382,
      "Ġamb": 6383,
      "orses": 6384,
      "Ġ65": 6385,
      "bmatrix": 6386,
      "Ġofficials": 6387,
      "Ġhabits": 6388,
      "Ġreplaced": 6389,
      "ĠCompany": 6390,
      "Ġproportional": 6391,
      "Ġinfected": 6392,
      "Ġperman": 6393,
      "ĠInf": 6394,
      "imensional": 6395,
      "Ġtraveled": 6396,
      "Ġdemocracy": 6397,
      "nam": 6398,
      "Ġserves": 6399,
      "ername": 6400,
      ".**": 6401,
      "Ġrivers": 6402,
      "iability": 6403,
      "Ġtele": 6404,
      "Ġtransportation": 6405,
      "Ġdangerous": 6406,
      "ht": 6407,
      "Ġexplained": 6408,
      "Ġring": 6409,
      "ava": 6410,
      "vironment": 6411,
      "Ġsimplifies": 6412,
      "Ġwife": 6413,
      "Ġtaxes": 6414,
      "ampl": 6415,
      "Ġsugar": 6416,
      "ias": 6417,
      "Ġstret": 6418,
      "Ġupdate": 6419,
      "Ġrecip": 6420,
      "Ġkinetic": 6421,
      "ĠBCE": 6422,
      "âģ": 6423,
      "Equ": 6424,
      "ishes": 6425,
      "Ġapplying": 6426,
      "Ġic": 6427,
      "Ġmarks": 6428,
      "Ġaircraft": 6429,
      "Ġcharacterized": 6430,
      "ĠSupreme": 6431,
      "âĢ¢": 6432,
      "Ġsaying": 6433,
      "istical": 6434,
      "Ġwidespread": 6435,
      "Ġpeoples": 6436,
      "alysis": 6437,
      "Ġclar": 6438,
      "ditional": 6439,
      "exp": 6440,
      "Ġorbit": 6441,
      "Ġwaters": 6442,
      "Ġverb": 6443,
      "Ġintended": 6444,
      "Ġconstructed": 6445,
      "Ġcritic": 6446,
      "OT": 6447,
      "ĠSouthern": 6448,
      "Ġsuggested": 6449,
      "ĠStart": 6450,
      "Ġrank": 6451,
      "but": 6452,
      "Ġprocessing": 6453,
      "ĠMal": 6454,
      "Ġcrisis": 6455,
      "long": 6456,
      "Ġends": 6457,
      "van": 6458,
      "Ġcircumst": 6459,
      "ira": 6460,
      "osaurs": 6461,
      "Ġcatch": 6462,
      "Ġheads": 6463,
      "Ġpassing": 6464,
      "Per": 6465,
      "writ": 6466,
      "ĠSch": 6467,
      "Ġlooked": 6468,
      "ĠComple": 6469,
      "Ġtall": 6470,
      "{(": 6471,
      "Ġgods": 6472,
      "Ġconnections": 6473,
      "ĠKingdom": 6474,
      "53": 6475,
      "Ġconsistent": 6476,
      "App": 6477,
      "urance": 6478,
      "isc": 6479,
      "ĠLord": 6480,
      "Ġvocabulary": 6481,
      "Ġflowers": 6482,
      "ĠParliament": 6483,
      "Ġphilosophy": 6484,
      "ĠBen": 6485,
      "ĠGa": 6486,
      "Ġtechnologies": 6487,
      "Sum": 6488,
      "ĠDemoc": 6489,
      "Ġenhance": 6490,
      "ĠCenter": 6491,
      "Ġfemales": 6492,
      "Ph": 6493,
      "Ġradiation": 6494,
      "nce": 6495,
      "Ġhelpful": 6496,
      "ishment": 6497,
      "Ġintellect": 6498,
      "Ġballs": 6499,
      "Ġcontempor": 6500,
      "Ġdrive": 6501,
      "vals": 6502,
      "Ġconstraint": 6503,
      "utch": 6504,
      "ractions": 6505,
      "Ġdestroyed": 6506,
      "Ġwet": 6507,
      "ĠMove": 6508,
      "Ġbud": 6509,
      "ĠDyn": 6510,
      "De": 6511,
      "Ġmix": 6512,
      "ato": 6513,
      "Ġdeclared": 6514,
      "Ġlabels": 6515,
      "Ġplt": 6516,
      "Ġunlike": 6517,
      "Ġrelease": 6518,
      "Ġperm": 6519,
      "Ġfourth": 6520,
      "ĠCirc": 6521,
      "Ġmales": 6522,
      "Ġtyping": 6523,
      "ctic": 6524,
      "using": 6525,
      "ĠCouncil": 6526,
      "Ġcreates": 6527,
      "Ġjournal": 6528,
      "Ġcredit": 6529,
      "Ġplanets": 6530,
      "Ġemerged": 6531,
      "Col": 6532,
      "Ġentirely": 6533,
      "Ġexplains": 6534,
      "Ġrequirements": 6535,
      "{-": 6536,
      "lines": 6537,
      "Ġprominent": 6538,
      "ĠNorthern": 6539,
      "cules": 6540,
      "ĠPrime": 6541,
      "coln": 6542,
      "Ġrecognition": 6543,
      "Ġvictory": 6544,
      "Ġeastern": 6545,
      "Ġdebate": 6546,
      "ION": 6547,
      "Ġsustainable": 6548,
      "Ġweigh": 6549,
      "Ġprotected": 6550,
      "Ġenemy": 6551,
      "ait": 6552,
      "ĠRich": 6553,
      "ĠBer": 6554,
      "Ġlaid": 6555,
      "Ġintersect": 6556,
      "Ġsecure": 6557,
      "Ġinteractions": 6558,
      "Ġrural": 6559,
      "Alternatively": 6560,
      "rime": 6561,
      "Ġ\\,": 6562,
      "Ġjoin": 6563,
      "Ġstick": 6564,
      "teen": 6565,
      "Ġdemonstrate": 6566,
      "Ġroute": 6567,
      "Gen": 6568,
      "ĠSociety": 6569,
      "ras": 6570,
      "Ġsurvey": 6571,
      "Ġfounded": 6572,
      "oyal": 6573,
      "Ġdiagonal": 6574,
      "Ġelected": 6575,
      "Ġtick": 6576,
      "Ġsession": 6577,
      "Ġpul": 6578,
      "Ġâī¥": 6579,
      "ĠCur": 6580,
      "Ġcaptured": 6581,
      "Ġcategory": 6582,
      "vis": 6583,
      "band": 6584,
      "Ġ!": 6585,
      "Ġslightly": 6586,
      "Ġswim": 6587,
      "Ġkinds": 6588,
      "En": 6589,
      "aur": 6590,
      "Ġpuzz": 6591,
      "ĠGraph": 6592,
      "Ġcontrolled": 6593,
      "Ġmere": 6594,
      "ĠChe": 6595,
      "Ġearliest": 6596,
      "Ġdivisors": 6597,
      "itz": 6598,
      "ĠIntroduction": 6599,
      "Ġsyn": 6600,
      "python": 6601,
      "pers": 6602,
      "ĠToy": 6603,
      "Ã¡": 6604,
      "ifier": 6605,
      "Ġaccompl": 6606,
      "ĠWater": 6607,
      "Ġ56": 6608,
      "Ġnutrients": 6609,
      "itational": 6610,
      "Ġfacilit": 6611,
      "Ġrecommend": 6612,
      "Ġimperial": 6613,
      "rem": 6614,
      "imation": 6615,
      "cies": 6616,
      "ĠSk": 6617,
      "Ġwitness": 6618,
      "Ġfilter": 6619,
      "Ġquery": 6620,
      "ĠIndigenous": 6621,
      "ses": 6622,
      "Ġscreen": 6623,
      "Ġnegot": 6624,
      "ĠEarly": 6625,
      "rium": 6626,
      "Ġkill": 6627,
      "51": 6628,
      "Ġregression": 6629,
      "Ġcalls": 6630,
      "Ġstatistics": 6631,
      "Ġsubs": 6632,
      "Ġ44": 6633,
      "âĪ«": 6634,
      "Ġinterior": 6635,
      "Ġextent": 6636,
      "lay": 6637,
      "issance": 6638,
      "Ġceremon": 6639,
      "kg": 6640,
      "Ġgene": 6641,
      "Ġ38": 6642,
      "Ġgreatly": 6643,
      "ĠFunctions": 6644,
      "Ġparticle": 6645,
      "}_{": 6646,
      "making": 6647,
      "Ġspeaking": 6648,
      "Ġenab": 6649,
      "ĠDivide": 6650,
      "ĠPract": 6651,
      "Total": 6652,
      "insett": 6653,
      "Ġattrib": 6654,
      "uilding": 6655,
      "ilib": 6656,
      "elled": 6657,
      "ĠFin": 6658,
      "'ve": 6659,
      "\\\\": 6660,
      "Ġlose": 6661,
      "utation": 6662,
      "net": 6663,
      "Ġtal": 6664,
      "93": 6665,
      "eli": 6666,
      "Ġfruits": 6667,
      "anguage": 6668,
      "Ġmort": 6669,
      "Ġbranch": 6670,
      "Ġvib": 6671,
      "Ġgarden": 6672,
      "ago": 6673,
      "Ġminute": 6674,
      "Ġknew": 6675,
      "Ġdenote": 6676,
      "cor": 6677,
      "Ġtour": 6678,
      "aste": 6679,
      "Î»": 6680,
      "neg": 6681,
      "Ġsocieties": 6682,
      "ĠRobert": 6683,
      "Ġsacr": 6684,
      "ros": 6685,
      "Ġbond": 6686,
      "insettia": 6687,
      "ĠCE": 6688,
      "db": 6689,
      "Despite": 6690,
      "active": 6691,
      "Ġobvious": 6692,
      "eps": 6693,
      "root": 6694,
      "Ġabol": 6695,
      "Ġvolcan": 6696,
      "Be": 6697,
      "Ġstream": 6698,
      "ĠÏĥ": 6699,
      "ĠEgyptian": 6700,
      "Ġmedium": 6701,
      "Ġabund": 6702,
      "Ġcollected": 6703,
      "rency": 6704,
      "Ġcultiv": 6705,
      "orical": 6706,
      "Ġhonor": 6707,
      "02": 6708,
      "().": 6709,
      "ĠFederal": 6710,
      "ĠLike": 6711,
      "?âĢĿ": 6712,
      "Ġreserv": 6713,
      "Ġeveryday": 6714,
      "Ġconsecutive": 6715,
      "Ġongoing": 6716,
      "ĠNewton": 6717,
      "Ġfeedback": 6718,
      "Ġwonder": 6719,
      "ĠPoinsettia": 6720,
      "SA": 6721,
      "body": 6722,
      "Ġexception": 6723,
      "Ġmanip": 6724,
      "Ġlooks": 6725,
      "orted": 6726,
      "Ġproperly": 6727,
      "]]": 6728,
      "Ġtempor": 6729,
      "Ġopened": 6730,
      "xture": 6731,
      "oral": 6732,
      "ĠMuseum": 6733,
      "Ġalign": 6734,
      "Ġclock": 6735,
      "Ġsupporting": 6736,
      "ĠTexas": 6737,
      "Ġschem": 6738,
      "Ġbrown": 6739,
      "Ġacknow": 6740,
      "ĠCD": 6741,
      "reland": 6742,
      "Ġ$$": 6743,
      "atically": 6744,
      "Ġmur": 6745,
      "create": 6746,
      "Ġpregn": 6747,
      "conomic": 6748,
      "ĠAttributes": 6749,
      "Ġexponential": 6750,
      "ĠRomans": 6751,
      "Ġemployees": 6752,
      "gent": 6753,
      "Ġmeat": 6754,
      "nes": 6755,
      "riers": 6756,
      "Ġbrief": 6757,
      "rastructure": 6758,
      "Ġgenes": 6759,
      "ipping": 6760,
      "ĠHaw": 6761,
      "Ġvisible": 6762,
      "yramid": 6763,
      "CT": 6764,
      "ĠTechn": 6765,
      "Ġprincipal": 6766,
      "oked": 6767,
      "bert": 6768,
      "Ġtrou": 6769,
      "ounced": 6770,
      "That": 6771,
      "Ġfinite": 6772,
      "Tensor": 6773,
      "Ġholid": 6774,
      "Ġlayers": 6775,
      "HE": 6776,
      "Ġvolunt": 6777,
      "CM": 6778,
      "pping": 6779,
      "Ġsales": 6780,
      "essor": 6781,
      "ordinate": 6782,
      "Ġparticipate": 6783,
      "Ġkid": 6784,
      "ework": 6785,
      "Ġstanding": 6786,
      "ĠBab": 6787,
      "Ġplate": 6788,
      "Ġangular": 6789,
      "pen": 6790,
      "Ġinfinity": 6791,
      "Ġexpert": 6792,
      "ĠEastern": 6793,
      "ĠItalian": 6794,
      "appe": 6795,
      "ashion": 6796,
      "uits": 6797,
      "Ġcolony": 6798,
      "Ġpupils": 6799,
      "Ġban": 6800,
      "Ġ54": 6801,
      "Question": 6802,
      "Ġescape": 6803,
      "Ġtraum": 6804,
      "ocation": 6805,
      "Ġnecessarily": 6806,
      "jection": 6807,
      "Ġcarefully": 6808,
      ")=": 6809,
      "Ġregularly": 6810,
      "Ġlisten": 6811,
      "Ġmarriage": 6812,
      "Ġfeeding": 6813,
      "Ġpotentially": 6814,
      "ptions": 6815,
      "omega": 6816,
      "result": 6817,
      "ĠPlay": 6818,
      "ĠSat": 6819,
      "Ġrocks": 6820,
      "Ġcourts": 6821,
      "Model": 6822,
      "Ġmanaged": 6823,
      "Ġinteraction": 6824,
      "faces": 6825,
      "Ġquantities": 6826,
      "Ġantib": 6827,
      "Ġtun": 6828,
      "pred": 6829,
      "Ġsentences": 6830,
      "Ġdistributed": 6831,
      "Ġatom": 6832,
      "Ġneuro": 6833,
      "message": 6834,
      "rays": 6835,
      "Ġ52": 6836,
      "world": 6837,
      "Ġunable": 6838,
      "ĠOper": 6839,
      "iration": 6840,
      "Ġcomposition": 6841,
      "Ġentry": 6842,
      "Ġpull": 6843,
      "ĠIter": 6844,
      "Ġproved": 6845,
      "Ġsynt": 6846,
      "join": 6847,
      "Ġincred": 6848,
      "Ġportion": 6849,
      "Ġmeasuring": 6850,
      "olf": 6851,
      "Ġattacks": 6852,
      "ulating": 6853,
      "Ġexperiments": 6854,
      "orous": 6855,
      "Ġrely": 6856,
      "inated": 6857,
      "Ġpron": 6858,
      "Ġreaders": 6859,
      "Ġ41": 6860,
      "Ġfing": 6861,
      "ĠContin": 6862,
      "ĠIreland": 6863,
      "Ġprepare": 6864,
      "Ġtypical": 6865,
      "ilibrium": 6866,
      "Ġsigned": 6867,
      "ĠLincoln": 6868,
      "ĠToyota": 6869,
      "Ġindigenous": 6870,
      "score": 6871,
      "ĠVer": 6872,
      "08": 6873,
      "Ġcircumstances": 6874,
      "aration": 6875,
      "ĠFort": 6876,
      "Ġsector": 6877,
      "Ġaltern": 6878,
      "ĠConsider": 6879,
      "ĠST": 6880,
      "Ġboundaries": 6881,
      "request": 6882,
      "00000000": 6883,
      "arest": 6884,
      "Ġtells": 6885,
      "Ġcart": 6886,
      "97": 6887,
      "Ġgeometry": 6888,
      "ĠNations": 6889,
      "ĠOptional": 6890,
      "Ġdesire": 6891,
      "Ġstability": 6892,
      "ders": 6893,
      "jango": 6894,
      "Ġpolar": 6895,
      "rep": 6896,
      "Ġsen": 6897,
      "oric": 6898,
      "Ġneighbor": 6899,
      "Ġcorner": 6900,
      "ingly": 6901,
      "Ġapparent": 6902,
      "Ġhydrogen": 6903,
      "Ġbones": 6904,
      "ida": 6905,
      "ĠâĪĪ": 6906,
      "Ġstorage": 6907,
      "More": 6908,
      "Ġtiny": 6909,
      "\"]": 6910,
      "Ġrecommended": 6911,
      "hered": 6912,
      "Ġwebsite": 6913,
      "weight": 6914,
      "ĠColumb": 6915,
      "Ġlov": 6916,
      "Ġlocations": 6917,
      "Ġdisplacement": 6918,
      "Ġencouraged": 6919,
      "Ġresidents": 6920,
      "Ġ(\\": 6921,
      "Ġnutrition": 6922,
      "Ġske": 6923,
      "Ġterritories": 6924,
      "Ġinsights": 6925,
      "htt": 6926,
      "Ġdisabilities": 6927,
      "cohol": 6928,
      "Ġearthqu": 6929,
      "Te": 6930,
      "Ġprobabilities": 6931,
      "ĠUnder": 6932,
      "Ġrenew": 6933,
      "Ġdiscussed": 6934,
      "ĠIrish": 6935,
      "Ġ1960": 6936,
      "Ġtables": 6937,
      "Ġcylinder": 6938,
      "Ġsed": 6939,
      "ĠADHD": 6940,
      "function": 6941,
      "Ġinterpretation": 6942,
      "ĠSal": 6943,
      "Ġoriginally": 6944,
      "Ġbreeding": 6945,
      "ĠParis": 6946,
      "Ġremarkable": 6947,
      "oxide": 6948,
      "Key": 6949,
      "Ġpiv": 6950,
      "ĠElect": 6951,
      "Ġpil": 6952,
      "itan": 6953,
      "ĠPaul": 6954,
      "Ġpersons": 6955,
      "Ġexperts": 6956,
      "usal": 6957,
      "}^{\\": 6958,
      "Ġborder": 6959,
      "kes": 6960,
      "Ġquart": 6961,
      "Ġspirit": 6962,
      "Ġemperor": 6963,
      "Ġwants": 6964,
      "Ġcats": 6965,
      "Ġarms": 6966,
      "Ġnine": 6967,
      "Ġseed": 6968,
      "ĠCounty": 6969,
      "Ġstands": 6970,
      "ĠSolving": 6971,
      "Ġdifficulties": 6972,
      "Ġ(âĪļ": 6973,
      "ĠFormula": 6974,
      "Ġclaims": 6975,
      "Ġsatisfy": 6976,
      "Ġdiagram": 6977,
      "Ġbroken": 6978,
      "rics": 6979,
      "Ġtalking": 6980,
      "www": 6981,
      "Ġharvest": 6982,
      "Subtract": 6983,
      "Ġ95": 6984,
      "apes": 6985,
      "Ġeducators": 6986,
      "Ġexpanded": 6987,
      "burg": 6988,
      "ĠBase": 6989,
      "ĠÎ»": 6990,
      "Ġislands": 6991,
      "Ġ$$\\": 6992,
      "Ġresilience": 6993,
      "}+": 6994,
      "ushed": 6995,
      "Ġadministration": 6996,
      "Ġslowly": 6997,
      "Ġstrict": 6998,
      "Ġpret": 6999,
      "ĠDon": 7000,
      "ĠOh": 7001,
      "ĠLake": 7002,
      "Ġclin": 7003,
      "berg": 7004,
      "ĠMain": 7005,
      "alley": 7006,
      "Ġwasn": 7007,
      "Ġinhabit": 7008,
      "Ġcompetition": 7009,
      "ĠGold": 7010,
      "Ġindicating": 7011,
      "Ġbomb": 7012,
      "Ġindustr": 7013,
      "Ġindustries": 7014,
      "Ġcolour": 7015,
      "Ġproducing": 7016,
      "dimensional": 7017,
      "group": 7018,
      "Ġimproving": 7019,
      "Ġpromoting": 7020,
      "Ġsoftware": 7021,
      "Ġmedicine": 7022,
      "Ġadapted": 7023,
      "fol": 7024,
      "ĠUN": 7025,
      "Ġhole": 7026,
      "Ġcongru": 7027,
      "Ġgradually": 7028,
      "ka": 7029,
      "Ġsan": 7030,
      "Ġnotation": 7031,
      "Ġturning": 7032,
      "Ġcounting": 7033,
      "ĠDel": 7034,
      "Ġdefend": 7035,
      "Ġthin": 7036,
      "Ġhop": 7037,
      "Ġinfrastructure": 7038,
      "icians": 7039,
      "Ġcharacteristic": 7040,
      "post": 7041,
      "Ġclothing": 7042,
      "Ġaccounts": 7043,
      "ĠDou": 7044,
      "ĠZe": 7045,
      "ho": 7046,
      "Ġinfections": 7047,
      "06": 7048,
      "Ġfell": 7049,
      "Ġstored": 7050,
      "connect": 7051,
      "Ġintroduction": 7052,
      "ĠHit": 7053,
      "Ġlifest": 7054,
      "Ġprofessor": 7055,
      "Ġboy": 7056,
      "Ġobl": 7057,
      "opy": 7058,
      "1000": 7059,
      "Ġfiles": 7060,
      "Ġfirm": 7061,
      "Ġvehicle": 7062,
      "bi": 7063,
      "04": 7064,
      "Ġweights": 7065,
      "ifications": 7066,
      "Ġintervention": 7067,
      "Ġpassage": 7068,
      "otes": 7069,
      "Ġusers": 7070,
      "Ġaqu": 7071,
      "Ġextensive": 7072,
      "sigma": 7073,
      "Ġnarrow": 7074,
      "erty": 7075,
      "Ġhorses": 7076,
      "Ġsettlement": 7077,
      "Ġmarine": 7078,
      "ĠColle": 7079,
      "Char": 7080,
      "Ġscript": 7081,
      "Ġauthors": 7082,
      "Ġsky": 7083,
      "Ġfewer": 7084,
      "Most": 7085,
      "plicated": 7086,
      "Ġworldwide": 7087,
      "Ġdesert": 7088,
      "ĠLand": 7089,
      "Ġmedieval": 7090,
      "Ġcomparison": 7091,
      "Ġpartners": 7092,
      "Ġreports": 7093,
      "agues": 7094,
      "Ġregardless": 7095,
      "Ġstable": 7096,
      "Ġdecor": 7097,
      "hism": 7098,
      ")^{": 7099,
      "ĠFound": 7100,
      "ĠEvaluate": 7101,
      "ĠAN": 7102,
      "Ġobjective": 7103,
      "Ġexploration": 7104,
      "ĠAncient": 7105,
      "Ġguaran": 7106,
      "Ġsheet": 7107,
      "Time": 7108,
      "Ġmolecules": 7109,
      "Ġcentre": 7110,
      "400": 7111,
      "Ġadjacent": 7112,
      "ĠDifferent": 7113,
      "Ġvit": 7114,
      ")))": 7115,
      "Ġmir": 7116,
      "Ġtheories": 7117,
      "Ġheritage": 7118,
      "Ġcopy": 7119,
      "Ġuncertain": 7120,
      "Ġdiff": 7121,
      "Ġrecurs": 7122,
      "Ġgalax": 7123,
      "ĠPythagorean": 7124,
      "ĠJose": 7125,
      "ĠMax": 7126,
      "olla": 7127,
      "Ġsalt": 7128,
      "Ġengaged": 7129,
      "Ġpersist": 7130,
      "Ġdecide": 7131,
      "Ġbullying": 7132,
      "Ġouter": 7133,
      "ĠThree": 7134,
      "Ġmeasurements": 7135,
      "Ġfest": 7136,
      "roc": 7137,
      "Ġparticipants": 7138,
      "Supp": 7139,
      "ĠFactor": 7140,
      "athers": 7141,
      "Ġcash": 7142,
      "she": 7143,
      "94": 7144,
      "Ġdiscipl": 7145,
      "ĠSuch": 7146,
      "Ġpra": 7147,
      "Ġstyles": 7148,
      "ĠLife": 7149,
      "alar": 7150,
      "Ġasking": 7151,
      "Ġsick": 7152,
      "Ġcalculator": 7153,
      "Ġchapter": 7154,
      "roke": 7155,
      "Ġelectrical": 7156,
      "Ġsubstance": 7157,
      "Ġmigration": 7158,
      "models": 7159,
      "Ġment": 7160,
      "Ġpossibility": 7161,
      "Ġimmediate": 7162,
      "ĠAir": 7163,
      "Ġpark": 7164,
      "Ġagreement": 7165,
      "Ġvs": 7166,
      "ĠProf": 7167,
      "bul": 7168,
      "Ġseeking": 7169,
      "Sp": 7170,
      "ĠIII": 7171,
      "Ġstrengthen": 7172,
      "Ġcomposed": 7173,
      "Ġod": 7174,
      "Ġcubes": 7175,
      "Ġhus": 7176,
      "BC": 7177,
      "Ġdestruction": 7178,
      "ĠChristianity": 7179,
      "Ġru": 7180,
      "ĠCub": 7181,
      "Ġdebt": 7182,
      "Ġexceed": 7183,
      "inant": 7184,
      "Ġasks": 7185,
      "Ġopinion": 7186,
      "Ġexcellent": 7187,
      "Ġplus": 7188,
      "Ġgap": 7189,
      "ighter": 7190,
      "ĠCult": 7191,
      "ĠIndepend": 7192,
      "Ġvulnerable": 7193,
      "$=": 7194,
      "Ġsizes": 7195,
      "Ġobserve": 7196,
      "Ġauthorities": 7197,
      "ĠHuman": 7198,
      "Ġgram": 7199,
      "Ġcelebrated": 7200,
      "vari": 7201,
      "andon": 7202,
      "ĠInteg": 7203,
      ")**:": 7204,
      "ĠMad": 7205,
      "Ġvillage": 7206,
      "iations": 7207,
      "Ġ2019": 7208,
      "otion": 7209,
      "Ġartificial": 7210,
      "Ġconflicts": 7211,
      "Ġwriter": 7212,
      "ĠMo": 7213,
      "Ġsav": 7214,
      "Ġ600": 7215,
      "*(": 7216,
      "uler": 7217,
      "ĠGal": 7218,
      "Ġorganisms": 7219,
      "Ġwings": 7220,
      "ĠGreece": 7221,
      "Ġinflation": 7222,
      "Ġconcerned": 7223,
      "Ġclassical": 7224,
      "Ġcollege": 7225,
      "Ġmonit": 7226,
      "ĠQuestions": 7227,
      "Ġfilm": 7228,
      "Ġoffering": 7229,
      "Ġcontemporary": 7230,
      "Ġcomment": 7231,
      "Ġreplace": 7232,
      "Ġtension": 7233,
      "Ġexplo": 7234,
      "ado": 7235,
      "ĠPerform": 7236,
      "draw": 7237,
      "Ġsignals": 7238,
      "Ġprogramming": 7239,
      "Ġbeauty": 7240,
      "den": 7241,
      "Ġequally": 7242,
      "tical": 7243,
      "Ġboundary": 7244,
      "Ġbridge": 7245,
      "Ġinspired": 7246,
      "Ġentered": 7247,
      "Ġinformed": 7248,
      "ĠUpdate": 7249,
      "Ġ250": 7250,
      "ibl": 7251,
      "Ġlegislation": 7252,
      "wood": 7253,
      "rightarrow": 7254,
      "what": 7255,
      "Ġsight": 7256,
      "Ġsecondary": 7257,
      "aws": 7258,
      "Ġtrained": 7259,
      "Ġnaturally": 7260,
      "Ġarticles": 7261,
      "ĠFinding": 7262,
      "Ġgravitational": 7263,
      "Ġguess": 7264,
      "ĠAv": 7265,
      "âĢĻ,": 7266,
      "Ġband": 7267,
      "ĠScot": 7268,
      "PS": 7269,
      "Ġrig": 7270,
      "Ġcreativity": 7271,
      "ĠMich": 7272,
      "Ġintellectual": 7273,
      "instance": 7274,
      "ĠPhys": 7275,
      "Ġvehicles": 7276,
      "Ġdispl": 7277,
      "idget": 7278,
      "Ġwars": 7279,
      "ĠNAS": 7280,
      "Ġcivilization": 7281,
      "Ġelif": 7282,
      "cis": 7283,
      "Ġmatters": 7284,
      "erals": 7285,
      "dden": 7286,
      "Ġcorrelation": 7287,
      "Ġguidance": 7288,
      "ĠCanadian": 7289,
      "Ġintervals": 7290,
      "ĠMoon": 7291,
      "cluding": 7292,
      "Ġwel": 7293,
      "Ġsatell": 7294,
      "Ġ--": 7295,
      "Ġruled": 7296,
      "Ġrefuge": 7297,
      "Ġpoem": 7298,
      "Ġ..": 7299,
      "amps": 7300,
      "eff": 7301,
      "Â°)": 7302,
      "Ġpure": 7303,
      "Ġpayment": 7304,
      "Ġwilling": 7305,
      "Ġmachines": 7306,
      "Ġyounger": 7307,
      "Ġargued": 7308,
      "SV": 7309,
      "Ġbread": 7310,
      "Ġcompl": 7311,
      "osion": 7312,
      "Ġsubstant": 7313,
      "Ġagreed": 7314,
      "Ġgrams": 7315,
      "ĠPrin": 7316,
      "ien": 7317,
      "Ġdates": 7318,
      "stone": 7319,
      "ĠMac": 7320,
      "ĠMag": 7321,
      "Ġrestrict": 7322,
      "Ġdeeply": 7323,
      "ĠRaises": 7324,
      "inition": 7325,
      "gence": 7326,
      "Ġheavily": 7327,
      "Ġtruly": 7328,
      "Ġran": 7329,
      "nter": 7330,
      "Ġmarg": 7331,
      "Ġpasses": 7332,
      "table": 7333,
      "ĠLinear": 7334,
      "uct": 7335,
      "Ġtact": 7336,
      "ĠVen": 7337,
      "hent": 7338,
      "125": 7339,
      "Ġsettlers": 7340,
      "Ġtissue": 7341,
      "Ġtemple": 7342,
      ",\\": 7343,
      "Ġobst": 7344,
      "Ġaudience": 7345,
      "Ġboost": 7346,
      "culpt": 7347,
      "teenth": 7348,
      "Ġdirections": 7349,
      "Stud": 7350,
      "Ġfacing": 7351,
      "Ġchief": 7352,
      "Our": 7353,
      "top": 7354,
      "Ġtowns": 7355,
      "Ġfarming": 7356,
      "Ġmessages": 7357,
      "ĠBre": 7358,
      "Area": 7359,
      "Ġcrop": 7360,
      "Ġconcrete": 7361,
      "Ġsuf": 7362,
      "Ġsubsequent": 7363,
      "Ġsuffering": 7364,
      "ĠCap": 7365,
      "Ġweb": 7366,
      "ĠImport": 7367,
      "opt": 7368,
      "ĠFrank": 7369,
      "Ġtoler": 7370,
      "Ġreasoning": 7371,
      "ĠStat": 7372,
      "Ġimplications": 7373,
      "Ġrevenue": 7374,
      "nel": 7375,
      "Ġstack": 7376,
      "Ġabandon": 7377,
      "Exp": 7378,
      "Ġyouth": 7379,
      "ein": 7380,
      "%,": 7381,
      "Ġsmooth": 7382,
      "Ġselection": 7383,
      "Ġkingdom": 7384,
      "Ġnearby": 7385,
      "Ġsharing": 7386,
      "Ġimplemented": 7387,
      "Ġbow": 7388,
      "Ġshaping": 7389,
      "chers": 7390,
      "ĠCode": 7391,
      "Ġclust": 7392,
      "Ġ2015": 7393,
      "Ġsubtraction": 7394,
      "Ġensl": 7395,
      "ĠTake": 7396,
      "amics": 7397,
      "ndrome": 7398,
      "Ġintegr": 7399,
      "Ġsudden": 7400,
      "Ġmaps": 7401,
      "Ġproceed": 7402,
      "Ġimplementation": 7403,
      "Ġbanks": 7404,
      "ulus": 7405,
      "Ġeliminate": 7406,
      "Ġ360": 7407,
      "Ġsorted": 7408,
      "ny": 7409,
      "cers": 7410,
      "Two": 7411,
      "SI": 7412,
      "total": 7413,
      "Ġproduces": 7414,
      "Ġmammals": 7415,
      "stract": 7416,
      "Ġgrown": 7417,
      "Ġdisput": 7418,
      "direct": 7419,
      "Fact": 7420,
      "Ġdesigns": 7421,
      "Other": 7422,
      "Ġnoise": 7423,
      "Ġwinning": 7424,
      "^\\": 7425,
      "Ġorganic": 7426,
      "Ġcontained": 7427,
      "ĠType": 7428,
      "Ġreduction": 7429,
      "ĠNASA": 7430,
      "uts": 7431,
      "Ġcategories": 7432,
      "Ġnone": 7433,
      "Ġwheel": 7434,
      "Ġwhereas": 7435,
      "rec": 7436,
      "Ġradical": 7437,
      "Ġqual": 7438,
      "Ġweapons": 7439,
      "ĠDevelopment": 7440,
      "Ġassistance": 7441,
      "Ġ1970": 7442,
      "Ġsupplies": 7443,
      "uther": 7444,
      "Ġcenters": 7445,
      "Bl": 7446,
      "Ġlie": 7447,
      "acci": 7448,
      "ĠProbability": 7449,
      "Ġestablishment": 7450,
      "ĠÎ²": 7451,
      "ĠCorolla": 7452,
      "Ġkilometers": 7453,
      "Ġlatter": 7454,
      "ester": 7455,
      "Ġeru": 7456,
      "Ġmorning": 7457,
      "Ġow": 7458,
      "Ġcoordinate": 7459,
      "Ġtrials": 7460,
      "Ġinvestig": 7461,
      "igure": 7462,
      "300": 7463,
      "isters": 7464,
      "label": 7465,
      "hr": 7466,
      "Ġhousehold": 7467,
      ")^(": 7468,
      "Ġneither": 7469,
      "ĠRoyal": 7470,
      "Ġlasting": 7471,
      "anda": 7472,
      "ĠCle": 7473,
      "while": 7474,
      "Ġorigins": 7475,
      "ĠEquations": 7476,
      "Ġbattery": 7477,
      "Ġbot": 7478,
      "Ġhousing": 7479,
      "CH": 7480,
      "Ġ2016": 7481,
      "alls": 7482,
      "iated": 7483,
      "Ġthrive": 7484,
      "oma": 7485,
      "Ġcertainly": 7486,
      "Ġdedicated": 7487,
      "ada": 7488,
      "Ġcontrovers": 7489,
      "Ġemployment": 7490,
      "craft": 7491,
      "ĠAtlantic": 7492,
      "Ġafford": 7493,
      "Ġalcohol": 7494,
      "Ġmoles": 7495,
      "Ġsail": 7496,
      "atever": 7497,
      "BT": 7498,
      "antly": 7499,
      "Ġdriving": 7500,
      "Ġseeing": 7501,
      "Ġpictures": 7502,
      "ĠDan": 7503,
      "Ïī": 7504,
      "rine": 7505,
      "Ġ1990": 7506,
      "ĠShow": 7507,
      "Ġ99": 7508,
      "Node": 7509,
      "iled": 7510,
      "ĠEnergy": 7511,
      "Ġexpensive": 7512,
      "Ġ!=": 7513,
      "Ġpossibly": 7514,
      "enuse": 7515,
      "Ġsections": 7516,
      "ĠLong": 7517,
      "ĠProject": 7518,
      "Ġfashion": 7519,
      "Ġnotable": 7520,
      "{{": 7521,
      "Ġlistening": 7522,
      "ĠKnow": 7523,
      "Ġdoor": 7524,
      "Ġattempts": 7525,
      "Ġexplicit": 7526,
      "American": 7527,
      "ĠModel": 7528,
      "last": 7529,
      "];": 7530,
      "organ": 7531,
      "Ġdefense": 7532,
      "ropical": 7533,
      "Ġexert": 7534,
      "Ġaren": 7535,
      "cribed": 7536,
      "Ġsteel": 7537,
      "scale": 7538,
      "Ġboat": 7539,
      "Dict": 7540,
      "Ġaccum": 7541,
      "Ġcomprehensive": 7542,
      "fish": 7543,
      "ĠCollege": 7544,
      "Ġcombat": 7545,
      "api": 7546,
      "Ġtox": 7547,
      "Ġ{\\": 7548,
      "Ġpeers": 7549,
      "isp": 7550,
      "Ġbeneficial": 7551,
      "ĠRad": 7552,
      "elines": 7553,
      "Ġtrigonometric": 7554,
      "ocket": 7555,
      "Ġholes": 7556,
      "cher": 7557,
      "Ġclaimed": 7558,
      "Ġparameter": 7559,
      "ĠÂ£": 7560,
      "solving": 7561,
      "nderstanding": 7562,
      "ĠSing": 7563,
      "nection": 7564,
      "Ġmatrices": 7565,
      "ĠHave": 7566,
      "Ġ2018": 7567,
      "ĠOtt": 7568,
      "ĠOnly": 7569,
      "Ġbudget": 7570,
      "Ġadministr": 7571,
      "Ġnormally": 7572,
      "Ġofficers": 7573,
      "ĠVict": 7574,
      "Ġintense": 7575,
      "âĢĺ": 7576,
      "ĠBook": 7577,
      "Ġemployed": 7578,
      "Ġbear": 7579,
      "Ġwildlife": 7580,
      "Ġattend": 7581,
      "Ġrevealed": 7582,
      "Ġhidden": 7583,
      "regation": 7584,
      "Ġ2010": 7585,
      "Ġequilibrium": 7586,
      "asp": 7587,
      "Ġorb": 7588,
      "Ġvisited": 7589,
      "Ġ43": 7590,
      "ĠLim": 7591,
      "zero": 7592,
      "split": 7593,
      "Ġleaf": 7594,
      "Ġoutbre": 7595,
      "abs": 7596,
      "Ġreverse": 7597,
      "Ġbranches": 7598,
      "Ġhttps": 7599,
      "\\]": 7600,
      "oo": 7601,
      "Ġreward": 7602,
      "Ġwear": 7603,
      "akistan": 7604,
      "Ġfur": 7605,
      "ounded": 7606,
      "Ġconverted": 7607,
      "ĠSign": 7608,
      "isher": 7609,
      "Ġbalanced": 7610,
      "ville": 7611,
      "Ġaimed": 7612,
      "ĠForce": 7613,
      "Ġcontrad": 7614,
      "Ġmanufacturing": 7615,
      "ĠDivision": 7616,
      "ĠĠĠĠĠ": 7617,
      "Ġorient": 7618,
      "Ġworship": 7619,
      "ĠCarolina": 7620,
      "Ġthemes": 7621,
      "bing": 7622,
      "Ġinstructions": 7623,
      "Ġpray": 7624,
      "Ġdisappe": 7625,
      "Ġmerch": 7626,
      "Ġruns": 7627,
      "enaissance": 7628,
      "Ġraw": 7629,
      "ĠPost": 7630,
      "Ġexpectations": 7631,
      "Ġrid": 7632,
      "ÎĶ": 7633,
      "Ġparser": 7634,
      "erving": 7635,
      "Ġecosystems": 7636,
      "Ġtherm": 7637,
      "ĠCommission": 7638,
      "Ġsole": 7639,
      "Ġprev": 7640,
      "ĠRun": 7641,
      "operation": 7642,
      "ĠFinally": 7643,
      "Ġbone": 7644,
      "Ġadvice": 7645,
      "ĠOrgan": 7646,
      "Ġcommitment": 7647,
      "IM": 7648,
      "$:": 7649,
      "Ġreflected": 7650,
      "Ġcovers": 7651,
      "ĠCalculating": 7652,
      "Ġuniversal": 7653,
      "Ġconj": 7654,
      "Ġtwenty": 7655,
      "ĠGl": 7656,
      "Ġsongs": 7657,
      "Ġdioxide": 7658,
      "Ġobservation": 7659,
      "Ġdelay": 7660,
      "Ġnearest": 7661,
      "Ġmuscle": 7662,
      "Ġexped": 7663,
      "Ġflour": 7664,
      "ĠAsk": 7665,
      "91": 7666,
      "Explanation": 7667,
      "Ġreinforce": 7668,
      "Ġrub": 7669,
      "Ġclosest": 7670,
      "abil": 7671,
      "ĠMont": 7672,
      "Ġwarming": 7673,
      "Do": 7674,
      "03": 7675,
      "Ġregulations": 7676,
      "Ġjump": 7677,
      "heast": 7678,
      "parse": 7679,
      "ĠProcess": 7680,
      "ini": 7681,
      "Ġpool": 7682,
      "ĠIterate": 7683,
      "Ġnewsp": 7684,
      "Ġrising": 7685,
      "Ġmanufacture": 7686,
      "shape": 7687,
      "arents": 7688,
      "Ġcompute": 7689,
      "heses": 7690,
      "Ġremind": 7691,
      "asters": 7692,
      "ĠFol": 7693,
      "iginal": 7694,
      "Ġthreats": 7695,
      "aud": 7696,
      "Ġdenoted": 7697,
      "Ġinstitution": 7698,
      "Ġdense": 7699,
      "ĠAmendment": 7700,
      "Ġoptimal": 7701,
      "Ġplease": 7702,
      "Ġ]": 7703,
      "client": 7704,
      "first": 7705,
      "Ġpip": 7706,
      "ĠValley": 7707,
      "Ġreflection": 7708,
      "ĠSenate": 7709,
      "Ġiter": 7710,
      "Ġdiagnosis": 7711,
      "ĠBi": 7712,
      "ultane": 7713,
      "Ġgranted": 7714,
      "onacci": 7715,
      "random": 7716,
      "Ġpermanent": 7717,
      "ĠViet": 7718,
      "UT": 7719,
      "ĠFour": 7720,
      "Ġfacilities": 7721,
      "Ġviruses": 7722,
      "ĠCost": 7723,
      "Ġpoetry": 7724,
      "ĠTw": 7725,
      "Ġ2021": 7726,
      "quit": 7727,
      "ĠVolume": 7728,
      "endar": 7729,
      "bes": 7730,
      "Ġpredicted": 7731,
      "Ġsilver": 7732,
      "Ġboxes": 7733,
      "ĠOcean": 7734,
      "ĠDutch": 7735,
      "Ġalgorithms": 7736,
      "ventions": 7737,
      "ĠOutput": 7738,
      "ĠStandard": 7739,
      "Ġpandemic": 7740,
      "Ġlowest": 7741,
      "Overall": 7742,
      "current": 7743,
      "Ġcav": 7744,
      "Ġsculpt": 7745,
      "ĠProgram": 7746,
      "Ġopposed": 7747,
      "umps": 7748,
      "Ġtreatments": 7749,
      "achers": 7750,
      "Ġdetermining": 7751,
      "Ġvariation": 7752,
      "Ġsequences": 7753,
      "Ġpaths": 7754,
      "Ġnarrative": 7755,
      "Ġdinosaurs": 7756,
      "Ġdivine": 7757,
      "Ġbias": 7758,
      "Finally": 7759,
      "}_": 7760,
      "Once": 7761,
      "inte": 7762,
      "title": 7763,
      "Ġconstants": 7764,
      "throp": 7765,
      "Ġabuse": 7766,
      "Ġflag": 7767,
      "ĠThose": 7768,
      "Ġnumpy": 7769,
      "Ġholding": 7770,
      "geq": 7771,
      "oons": 7772,
      "Ġlaunched": 7773,
      "Ġmultiplied": 7774,
      "lar": 7775,
      "Ġproteins": 7776,
      "False": 7777,
      "velength": 7778,
      "Ġserver": 7779,
      "Ġfocusing": 7780,
      "Ġunus": 7781,
      "ns": 7782,
      "Ġaccurately": 7783,
      "Ġtreaty": 7784,
      "Or": 7785,
      "Ġlists": 7786,
      "eer": 7787,
      "Ġattached": 7788,
      "ĠDu": 7789,
      "agers": 7790,
      "Ġconclude": 7791,
      "ĠHT": 7792,
      "Ġopening": 7793,
      "'d": 7794,
      "Ġinsert": 7795,
      "Ġlifestyle": 7796,
      "ĠSmith": 7797,
      "base": 7798,
      "Ġsusp": 7799,
      "Ġtraff": 7800,
      "Calculate": 7801,
      "Ġknowing": 7802,
      "cap": 7803,
      "Ġbigger": 7804,
      "EL": 7805,
      "Ġexploring": 7806,
      "called": 7807,
      "ĠRepresent": 7808,
      "Ġpeak": 7809,
      "Ġspending": 7810,
      "Ġsharp": 7811,
      "ĠPan": 7812,
      "ĠJour": 7813,
      "Ġ1980": 7814,
      "Ġinclusive": 7815,
      "ĠPenn": 7816,
      "ĠEquation": 7817,
      "Ġdeliver": 7818,
      "Ġbinomial": 7819,
      "umes": 7820,
      "Ġconversation": 7821,
      "Ġdynamic": 7822,
      "ĠRenaissance": 7823,
      "Ġdiscount": 7824,
      "numbers": 7825,
      "ĠScient": 7826,
      "Ġju": 7827,
      "ĠSubtract": 7828,
      "ĠPalest": 7829,
      "Ġexisted": 7830,
      "Ġorders": 7831,
      "Ġcycl": 7832,
      "Ġharmful": 7833,
      "Ġsurfaces": 7834,
      "eteenth": 7835,
      "Ġartistic": 7836,
      "ĠAssociation": 7837,
      "Ġparticipation": 7838,
      "roph": 7839,
      "Ġnin": 7840,
      "ĠEmperor": 7841,
      "Ġinvasion": 7842,
      "Ġdaughter": 7843,
      "ogue": 7844,
      "Ġinher": 7845,
      "Ġstronger": 7846,
      "inity": 7847,
      "Ġcrew": 7848,
      "edy": 7849,
      "ĠKore": 7850,
      "Ġarts": 7851,
      "Ġsteam": 7852,
      "Ġunderlying": 7853,
      "CC": 7854,
      "ogram": 7855,
      "Ġtf": 7856,
      "Ġviewed": 7857,
      "Ġatoms": 7858,
      "ÃĹ": 7859,
      "ua": 7860,
      "arly": 7861,
      "html": 7862,
      "Ġ1950": 7863,
      "ician": 7864,
      "ĠPortug": 7865,
      "Ġsuffered": 7866,
      "ĠBank": 7867,
      "Ġpsychological": 7868,
      "names": 7869,
      "Ġinfluential": 7870,
      "Even": 7871,
      "Ġconsult": 7872,
      "erior": 7873,
      "Ġroads": 7874,
      "ented": 7875,
      "div": 7876,
      "free": 7877,
      "antine": 7878,
      "Ġdeaths": 7879,
      "SS": 7880,
      "Ġquarter": 7881,
      "ĠNeg": 7882,
      "Ġbases": 7883,
      "Ġtips": 7884,
      "kin": 7885,
      "elihood": 7886,
      "_{\\": 7887,
      "hav": 7888,
      "sl": 7889,
      "Ġlogical": 7890,
      "Ġphenomenon": 7891,
      "ĠPakistan": 7892,
      "Ġvegetation": 7893,
      "Ġoldest": 7894,
      "Ġfactorization": 7895,
      "Ġmixture": 7896,
      "ael": 7897,
      "Ġbiological": 7898,
      "Ġdemonstrated": 7899,
      "olves": 7900,
      "Ġprocedure": 7901,
      "Ġconstantly": 7902,
      "Ġmos": 7903,
      "sm": 7904,
      "Ġmeaningful": 7905,
      "Ġegg": 7906,
      "rag": 7907,
      "ona": 7908,
      "ĠTor": 7909,
      "ĠScott": 7910,
      "Ġtoken": 7911,
      "Ġfab": 7912,
      "ogether": 7913,
      "oded": 7914,
      "Ġ1920": 7915,
      "itis": 7916,
      "ĠGroup": 7917,
      "Ġfalls": 7918,
      "ML": 7919,
      "Ġresponses": 7920,
      "Ġdust": 7921,
      "frame": 7922,
      "lib": 7923,
      "Ġsampl": 7924,
      "Ġnavigate": 7925,
      "Ġframework": 7926,
      "json": 7927,
      "plom": 7928,
      "born": 7929,
      "zil": 7930,
      "Ġsatisfies": 7931,
      "Ġmarried": 7932,
      "Ġ2014": 7933,
      "Ġstatistical": 7934,
      "ĠPublic": 7935,
      "Ġaccessible": 7936,
      "Ġtraits": 7937,
      "Ġpreced": 7938,
      "ĠYet": 7939,
      "Consider": 7940,
      "ums": 7941,
      "Ġswitch": 7942,
      "Ġliteracy": 7943,
      "Ġadds": 7944,
      "Ġpoly": 7945,
      "Ġexecutive": 7946,
      "Ġsubstantial": 7947,
      "Ġtons": 7948,
      "fortunately": 7949,
      "Ġflows": 7950,
      "Ġoverw": 7951,
      "icing": 7952,
      "status": 7953,
      "}.": 7954,
      "ĠHitler": 7955,
      "Ġprem": 7956,
      "ĠAlexander": 7957,
      "Ġstem": 7958,
      "Ġappointed": 7959,
      "ĠChristmas": 7960,
      "ĠNon": 7961,
      "ĠRule": 7962,
      "Ġreader": 7963,
      "Ġpurchase": 7964,
      "Ġenable": 7965,
      "Ġissued": 7966,
      "ĠMes": 7967,
      "Ġphone": 7968,
      "Ġshop": 7969,
      "Ġcomputers": 7970,
      "Ġruler": 7971,
      "Ġcommunic": 7972,
      "Ġroutine": 7973,
      "Ġovercome": 7974,
      "host": 7975,
      "Ġrectangular": 7976,
      "Ġblog": 7977,
      "epsilon": 7978,
      "Ġnetworks": 7979,
      "etch": 7980,
      "UN": 7981,
      "Ġdefinite": 7982,
      "Ġexponent": 7983,
      "Ġhence": 7984,
      "Ġsupports": 7985,
      "09": 7986,
      "rooms": 7987,
      "Ġsine": 7988,
      "Ġstones": 7989,
      "Ġsubstitution": 7990,
      "Ġstrategic": 7991,
      "ook": 7992,
      "ifference": 7993,
      "Ġdimension": 7994,
      "Solve": 7995,
      "ffe": 7996,
      "ĠPri": 7997,
      "Ġinsight": 7998,
      "Ġgraphs": 7999,
      "Ġdance": 8000,
      "aming": 8001,
      "Ġcarrying": 8002,
      "Ġbag": 8003,
      "Ġdecade": 8004,
      "Ġloyal": 8005,
      "Ġcoastal": 8006,
      "Ġbiggest": 8007,
      "Ġoperator": 8008,
      "product": 8009,
      "ĠService": 8010,
      "Ġoccupied": 8011,
      "othe": 8012,
      "Ġdrag": 8013,
      "alid": 8014,
      "ĠJoseph": 8015,
      "Ġchemicals": 8016,
      "ĠMoreover": 8017,
      "ĠTreaty": 8018,
      "Ġtested": 8019,
      "Ġdrug": 8020,
      "ĠâĪĴ": 8021,
      "Ġimmun": 8022,
      "Ġrememb": 8023,
      "ĠReview": 8024,
      "Ġdominant": 8025,
      "Ġcurrency": 8026,
      "Ġdisrupt": 8027,
      "Ġunless": 8028,
      "ĠThough": 8029,
      "Ġroughly": 8030,
      "ensus": 8031,
      "Ġdrugs": 8032,
      "Ġcommission": 8033,
      "Ġopposition": 8034,
      "person": 8035,
      "Ġnewly": 8036,
      "Ġreactions": 8037,
      "}}\\": 8038,
      "eless": 8039,
      "Ġsymmetry": 8040,
      "Ġprofessionals": 8041,
      "Ġwriters": 8042,
      "Ġstead": 8043,
      "Ġsensitive": 8044,
      "olt": 8045,
      "ĠSqu": 8046,
      "SON": 8047,
      "Ġautonom": 8048,
      "Ġ\\)": 8049,
      "ala": 8050,
      "zen": 8051,
      "Ġflying": 8052,
      "reshold": 8053,
      "assert": 8054,
      "gery": 8055,
      "det": 8056,
      "Ġdriven": 8057,
      "ĠUs": 8058,
      "ĠBur": 8059,
      "acu": 8060,
      "Ġtransmission": 8061,
      "ĠFrancis": 8062,
      "atter": 8063,
      "ĠPath": 8064,
      "Ġsubset": 8065,
      "Ġhappening": 8066,
      "Ġparab": 8067,
      "ĠFurthermore": 8068,
      "Type": 8069,
      "opol": 8070,
      "Ġseemed": 8071,
      "Ġpolygon": 8072,
      "claim": 8073,
      "fare": 8074,
      "}-": 8075,
      "onia": 8076,
      "Ġdocuments": 8077,
      "Ġseparated": 8078,
      "Ġcharges": 8079,
      "Ġactively": 8080,
      "Ġtrip": 8081,
      "pmatrix": 8082,
      "ogen": 8083,
      "itors": 8084,
      "ĠABC": 8085,
      "inate": 8086,
      "Ġpropos": 8087,
      "Ġelectron": 8088,
      "cope": 8089,
      "Ġartist": 8090,
      "Ġmarginal": 8091,
      "ibonacci": 8092,
      "Ġcouple": 8093,
      "Ġempath": 8094,
      "Ġvessels": 8095,
      "Read": 8096,
      "ellion": 8097,
      ".âĢĻ": 8098,
      "Ġcup": 8099,
      "eem": 8100,
      "ĠBrown": 8101,
      "Ġinfant": 8102,
      "keys": 8103,
      "Ġborrow": 8104,
      "Pe": 8105,
      "Ġserving": 8106,
      ")|": 8107,
      "delta": 8108,
      "Set": 8109,
      "Ġoccasion": 8110,
      "ĠProperties": 8111,
      "Ġlosses": 8112,
      "ĠEv": 8113,
      "CF": 8114,
      "rypt": 8115,
      "ĠAcad": 8116,
      "Ġdevast": 8117,
      "Ġphrase": 8118,
      "ployment": 8119,
      "oto": 8120,
      "Ġdistrict": 8121,
      "ponse": 8122,
      "Ġcolleagues": 8123,
      "ING": 8124,
      "irty": 8125,
      "ĠWhere": 8126,
      "Ġremote": 8127,
      "Ġdrinking": 8128,
      "Ġbroader": 8129,
      "ciences": 8130,
      "Ġnit": 8131,
      "Ġsettled": 8132,
      "Ġrod": 8133,
      "Ġexercises": 8134,
      "Ġspan": 8135,
      "Ġselling": 8136,
      "Ġcond": 8137,
      "itical": 8138,
      "Ġcutting": 8139,
      "Ġpredictions": 8140,
      "Ġunity": 8141,
      "Ġsovere": 8142,
      "Ġessentially": 8143,
      "Use": 8144,
      "Ġcoun": 8145,
      "Ġelections": 8146,
      "ĠDynasty": 8147,
      "Ġbatch": 8148,
      "Ġmeter": 8149,
      "Ġgrad": 8150,
      "Ġarrest": 8151,
      "Ġregional": 8152,
      "Ġforming": 8153,
      "car": 8154,
      "Ġreaching": 8155,
      "fix": 8156,
      "Ġdatetime": 8157,
      "Ġbabies": 8158,
      "dule": 8159,
      "Ġvegetables": 8160,
      "Ġstrike": 8161,
      "ĠWrit": 8162,
      "Ġcomplement": 8163,
      "ĠTriangle": 8164,
      "Ġlinks": 8165,
      "Ġtensor": 8166,
      "lights": 8167,
      ")!": 8168,
      "ittle": 8169,
      "IL": 8170,
      "ĠMathemat": 8171,
      "Ġliterary": 8172,
      "Ġroutes": 8173,
      "Ġdemocratic": 8174,
      "Ġcompass": 8175,
      "PA": 8176,
      "ĠAPI": 8177,
      "amily": 8178,
      "Ġrefused": 8179,
      "Ġ81": 8180,
      "ĠEnvironment": 8181,
      "zed": 8182,
      "Ġeleph": 8183,
      "ĠAbout": 8184,
      "Ġaccommod": 8185,
      "07": 8186,
      "Ġmodule": 8187,
      "ading": 8188,
      "item": 8189,
      "Ġglac": 8190,
      "olds": 8191,
      "column": 8192,
      "Ġcharged": 8193,
      "ĠRat": 8194,
      "Ġexamine": 8195,
      "Ġfunding": 8196,
      "Ġchick": 8197,
      "UM": 8198,
      "hematic": 8199,
      "Ġmuscles": 8200,
      "Ġcomplicated": 8201,
      "ĠProblems": 8202,
      "Ġprosper": 8203,
      "Ġemergency": 8204,
      "Ġscene": 8205,
      "Ġlibrary": 8206,
      "apse": 8207,
      "âĪĴ": 8208,
      "eger": 8209,
      "Cont": 8210,
      "Ġregarded": 8211,
      "Ġtooth": 8212,
      "Ġdot": 8213,
      "everal": 8214,
      "ocial": 8215,
      "page": 8216,
      "ĠBefore": 8217,
      "Ġmanif": 8218,
      "Ġadequ": 8219,
      "Next": 8220,
      "Ġhospital": 8221,
      "ĠVis": 8222,
      "Ġ46": 8223,
      "Ġahead": 8224,
      "Ġcommitted": 8225,
      "Ġstrings": 8226,
      "Ġpump": 8227,
      "Ġath": 8228,
      "ĠGenerate": 8229,
      "Ġdollars": 8230,
      "Ġsemi": 8231,
      "Ass": 8232,
      "ograms": 8233,
      "Ġrequests": 8234,
      "ki": 8235,
      "Ġdefeat": 8236,
      "ĠWood": 8237,
      "ĠMr": 8238,
      "Hist": 8239,
      "Ġhier": 8240,
      "Ġpages": 8241,
      "ĠInitializes": 8242,
      "Ġfulf": 8243,
      "Delta": 8244,
      "Ġzeros": 8245,
      "Ġemphasis": 8246,
      "Ġholiday": 8247,
      "ĠMexican": 8248,
      "Ġ110": 8249,
      "Äģ": 8250,
      "Ġbringing": 8251,
      "ĠBig": 8252,
      "Ġampl": 8253,
      "Ġsimultane": 8254,
      "Ġworse": 8255,
      "forward": 8256,
      "Ġcomposite": 8257,
      "Ġdemands": 8258,
      "ponent": 8259,
      "ĠRetrie": 8260,
      "Ġconfident": 8261,
      "Ġargue": 8262,
      "wa": 8263,
      "Ġdiver": 8264,
      "Ġhusband": 8265,
      "Ġassigned": 8266,
      "Ġprotest": 8267,
      "Ġnurs": 8268,
      "mol": 8269,
      "\\),": 8270,
      "century": 8271,
      "ĠGood": 8272,
      "Ġdice": 8273,
      "Ġadvantages": 8274,
      "Ġbits": 8275,
      "eries": 8276,
      "ĠDen": 8277,
      "Ġemotion": 8278,
      "next": 8279,
      "Ġcongruent": 8280,
      "ĠExerc": 8281,
      "ĠFlor": 8282,
      "sey": 8283,
      "Ġoverwhel": 8284,
      "Ġcrime": 8285,
      "Le": 8286,
      "Ġidentifying": 8287,
      "method": 8288,
      "Ġbattles": 8289,
      "ĠBetween": 8290,
      "uh": 8291,
      "edge": 8292,
      "Ġimmigrants": 8293,
      "Ġjson": 8294,
      "ĠVik": 8295,
      "Ġshorter": 8296,
      "Ġgiant": 8297,
      "Ġdistinctive": 8298,
      "Ġinfl": 8299,
      "Ġwalking": 8300,
      "Ġdrink": 8301,
      "Ġpreserve": 8302,
      "jective": 8303,
      "Ġethical": 8304,
      "Ġtravels": 8305,
      "ĠBill": 8306,
      "issipp": 8307,
      "uity": 8308,
      "ĠLength": 8309,
      "Ġancestors": 8310,
      "Ġcareful": 8311,
      "wind": 8312,
      "Ġmarkets": 8313,
      "ĠHIV": 8314,
      "Ġmountains": 8315,
      "Ġlisted": 8316,
      "DP": 8317,
      "Ġdt": 8318,
      "Ġtechnical": 8319,
      "mm": 8320,
      "Ġlake": 8321,
      "Ġscenario": 8322,
      "ĠAz": 8323,
      "Ġshot": 8324,
      "irus": 8325,
      "ĠSud": 8326,
      "Out": 8327,
      "ĠTree": 8328,
      "lobal": 8329,
      "ĠGeorg": 8330,
      "Ġenth": 8331,
      "Ġdealing": 8332,
      "Ġbeings": 8333,
      "sim": 8334,
      "ĠPop": 8335,
      "ĠHindu": 8336,
      "600": 8337,
      "Ġenslaved": 8338,
      "Ġfever": 8339,
      "'),": 8340,
      "LO": 8341,
      "Ġpaintings": 8342,
      "Ġreflects": 8343,
      "that": 8344,
      "Ġwavelength": 8345,
      "hedule": 8346,
      "ĠDev": 8347,
      "ĠGermans": 8348,
      "Ġil": 8349,
      "Ġderivatives": 8350,
      "Â°.": 8351,
      "Ġfrequent": 8352,
      "Ġthreatened": 8353,
      "Ġcentimeters": 8354,
      "Today": 8355,
      "Ġmechanism": 8356,
      "reet": 8357,
      "Ġargs": 8358,
      "oston": 8359,
      "ĠWithout": 8360,
      "Ġma": 8361,
      "Ġmasses": 8362,
      "just": 8363,
      "Ġcrow": 8364,
      "Ġoun": 8365,
      "Ġspin": 8366,
      "Additionally": 8367,
      "Ġcotton": 8368,
      "Ġreaches": 8369,
      "Ġtransformed": 8370,
      "anta": 8371,
      "Ġoccurring": 8372,
      "Ġretrie": 8373,
      "Ġdecreases": 8374,
      "irt": 8375,
      "}=": 8376,
      "ĠAcc": 8377,
      "ĠAnalysis": 8378,
      "Ġfertil": 8379,
      "Ġcontinent": 8380,
      "Ġ2012": 8381,
      "ĠJeff": 8382,
      "Ġ2011": 8383,
      "ĠExtract": 8384,
      "ĠColor": 8385,
      "ĠPass": 8386,
      "iture": 8387,
      "ĠFood": 8388,
      "Ġguard": 8389,
      "Ġthread": 8390,
      "Ġpasseng": 8391,
      "Ġmaintained": 8392,
      "Ġ2013": 8393,
      "Ġjudge": 8394,
      "Ġ63": 8395,
      "ĠOrder": 8396,
      "Ġinstall": 8397,
      "ĠYes": 8398,
      "Ġchronic": 8399,
      "ĠCommit": 8400,
      "Ġteams": 8401,
      "Ġlots": 8402,
      "Ġ2022": 8403,
      "Ġharsh": 8404,
      "Ġrhyth": 8405,
      "lets": 8406,
      "Ġhistorians": 8407,
      "ĠĠĠĠĠĠĠĠĠĠĠĠĠĠĠĠĠĠĠĠĠĠĠ": 8408,
      "Ġalgebraic": 8409,
      "Ġmotivation": 8410,
      "Ġvaccines": 8411,
      "Ġmoist": 8412,
      "aked": 8413,
      "ĠQueen": 8414,
      "abeth": 8415,
      "Ġvaries": 8416,
      "ðĿĲ": 8417,
      "ĠInterest": 8418,
      "Ġprohib": 8419,
      "Ġcomfortable": 8420,
      "RI": 8421,
      "ussian": 8422,
      "mic": 8423,
      "Ġgone": 8424,
      "ĠChristians": 8425,
      "ĠWell": 8426,
      "Ġoperating": 8427,
      "Ġ47": 8428,
      "ĠSimilarly": 8429,
      "wargs": 8430,
      "ĠHan": 8431,
      "Ġcone": 8432,
      "ranging": 8433,
      "Ġconscious": 8434,
      "Ġachievement": 8435,
      "ĠAnaly": 8436,
      "Ġcorpor": 8437,
      "Ġcombine": 8438,
      "rowing": 8439,
      "Divide": 8440,
      "anding": 8441,
      "(),": 8442,
      "Ġratios": 8443,
      "Ġroof": 8444,
      "Ġell": 8445,
      "Ġrecycl": 8446,
      "Ġhex": 8447,
      "Ġquotient": 8448,
      "Ġreliable": 8449,
      "Ġbreaking": 8450,
      "Ġupdated": 8451,
      "Ġspecialized": 8452,
      "Ġtherap": 8453,
      "ĠExpress": 8454,
      "such": 8455,
      "ĠJac": 8456,
      "umer": 8457,
      "Ġcelebrate": 8458,
      "Ġchoosing": 8459,
      "ĠBro": 8460,
      "Ġgar": 8461,
      "ĠTer": 8462,
      "Ġlic": 8463,
      "Ġloan": 8464,
      "ĠTuple": 8465,
      "ĠPlot": 8466,
      "[:": 8467,
      "Ġdb": 8468,
      "Co": 8469,
      "Ġ85": 8470,
      "Ġdivisor": 8471,
      "Am": 8472,
      "Ġmask": 8473,
      "TP": 8474,
      "Ġproven": 8475,
      "....": 8476,
      "imental": 8477,
      "Ġdifferently": 8478,
      "esar": 8479,
      "Ġworkshe": 8480,
      "ĠProduct": 8481,
      "Ġvoting": 8482,
      "AG": 8483,
      "Ġbreast": 8484,
      "Ġastero": 8485,
      "achus": 8486,
      "var": 8487,
      "Ġsupposed": 8488,
      "pack": 8489,
      "ĠComplex": 8490,
      "irs": 8491,
      "ĠLuther": 8492,
      "Ġresid": 8493,
      "Ġvent": 8494,
      "ql": 8495,
      "Ġmood": 8496,
      "di": 8497,
      "Ġdiplom": 8498,
      "Ġengagement": 8499,
      "Ġdepart": 8500,
      "\"{": 8501,
      "Ġdisability": 8502,
      "ĠExper": 8503,
      "ĠProtest": 8504,
      "Ġdriver": 8505,
      "itative": 8506,
      "Ġalle": 8507,
      "Ġclassified": 8508,
      "Ġcircumference": 8509,
      "Ġdecay": 8510,
      "herent": 8511,
      "Ġkings": 8512,
      "atom": 8513,
      "Ġhumanity": 8514,
      "ĠMississipp": 8515,
      "ĠLess": 8516,
      "Ġtheme": 8517,
      "Ġhypotenuse": 8518,
      "âĤĤ": 8519,
      "Thus": 8520,
      "120": 8521,
      "Ġremoving": 8522,
      "ĠVictor": 8523,
      "800": 8524,
      "Ġrecovery": 8525,
      "Ġmanaging": 8526,
      "Ġmit": 8527,
      "Ġintroduce": 8528,
      "Ġdjango": 8529,
      "Ġprinting": 8530,
      "Ġdefeated": 8531,
      "Ġdiscussions": 8532,
      "Ġracism": 8533,
      "case": 8534,
      "Ġcopper": 8535,
      "Ġminim": 8536,
      "clude": 8537,
      "icy": 8538,
      "Ġearned": 8539,
      "ĠKorea": 8540,
      "ĠNazi": 8541,
      "ÃŃ": 8542,
      "Ġestimates": 8543,
      "Ġthanks": 8544,
      "usalem": 8545,
      "Ġlens": 8546,
      "ĠBrazil": 8547,
      "Ġrulers": 8548,
      "find": 8549,
      "theless": 8550,
      "under": 8551,
      "Ġsquared": 8552,
      "Ġsnakes": 8553,
      "Ġrecognizing": 8554,
      "Ġidentical": 8555,
      "contin": 8556,
      "ĠPi": 8557,
      "power": 8558,
      "Ġcompr": 8559,
      "Ġteen": 8560,
      "Ġconstraints": 8561,
      "Ġcollaboration": 8562,
      "Ġoral": 8563,
      "Form": 8564,
      "Ġrender": 8565,
      "Ġrevers": 8566,
      "opher": 8567,
      "Ġcrim": 8568,
      "ranean": 8569,
      "Ġresolution": 8570,
      "Ġcandidate": 8571,
      "Ġrituals": 8572,
      "Ġinert": 8573,
      "Ġintensity": 8574,
      "ĠChild": 8575,
      "oured": 8576,
      "requency": 8577,
      "Ġwider": 8578,
      "HO": 8579,
      "Ġassumed": 8580,
      "annels": 8581,
      "Ġtub": 8582,
      "Ġdiffer": 8583,
      "urches": 8584,
      "hyd": 8585,
      "Ġdeer": 8586,
      "Ġ51": 8587,
      "iah": 8588,
      "width": 8589,
      "Ġputting": 8590,
      "Ġneutral": 8591,
      "ĠIN": 8592,
      "umin": 8593,
      "izabeth": 8594,
      "Add": 8595,
      "Ġ1930": 8596,
      "US": 8597,
      "Ġestablishing": 8598,
      "Ġdf": 8599,
      "csv": 8600,
      "ĠScotland": 8601,
      "Ġ$|": 8602,
      "esh": 8603,
      "Ġelectrons": 8604,
      "Ġoverl": 8605,
      "Ġpreval": 8606,
      "response": 8607,
      "Ã¼": 8608,
      "ĠMong": 8609,
      "Ġintric": 8610,
      "Ġarbit": 8611,
      "Ġfeathers": 8612,
      "ĠModern": 8613,
      "acles": 8614,
      "Ġchannel": 8615,
      "Ġcomparing": 8616,
      "advant": 8617,
      "Ġspectrum": 8618,
      "Ġdynasty": 8619,
      "Ġcv": 8620,
      "Ġwarri": 8621,
      "Ġversions": 8622,
      "Ġdirected": 8623,
      "Ġhoney": 8624,
      "Ġwait": 8625,
      "linear": 8626,
      "Ġconsumer": 8627,
      "shaped": 8628,
      "Ġeld": 8629,
      "ĠCurrent": 8630,
      "ested": 8631,
      "Ġevident": 8632,
      "Ġinfluences": 8633,
      "Ġmechanical": 8634,
      "ustom": 8635,
      "roach": 8636,
      "Ġmuseum": 8637,
      "ths": 8638,
      "Ġdistur": 8639,
      "Ġfishing": 8640,
      "Ġmodified": 8641,
      "Ġsuffer": 8642,
      "Ġtum": 8643,
      "ĠLab": 8644,
      "Ġasc": 8645,
      "plo": 8646,
      "Ġprotecting": 8647,
      "Reg": 8648,
      "Ġplanned": 8649,
      "ĠCat": 8650,
      "Ġpartner": 8651,
      "Ġarrival": 8652,
      "Ġsnake": 8653,
      "Ġcircul": 8654,
      "UL": 8655,
      "Ġextend": 8656,
      "Ġconve": 8657,
      "Ġinputs": 8658,
      "Ġalph": 8659,
      "phone": 8660,
      "lt": 8661,
      "ĠJul": 8662,
      "Ġdoubt": 8663,
      "Ġenforce": 8664,
      "ĠDistance": 8665,
      "ĠDisc": 8666,
      "Ġ$-": 8667,
      "Ġcleaned": 8668,
      "Ġilleg": 8669,
      "ĠDecl": 8670,
      "Ġtraffic": 8671,
      "ĠMill": 8672,
      "->": 8673,
      "ĠRichard": 8674,
      "Man": 8675,
      "Ġenorm": 8676,
      "Ġliters": 8677,
      "Ġquadr": 8678,
      "'],": 8679,
      "Ġvaried": 8680,
      "Ġnorms": 8681,
      "Ġphon": 8682,
      "Ġduty": 8683,
      "ĠâĪĳ": 8684,
      "Ġhaz": 8685,
      "Ġamaz": 8686,
      "Ġfocuses": 8687,
      "ĠDig": 8688,
      "cover": 8689,
      "Ġinnovation": 8690,
      "ĠPractice": 8691,
      "rot": 8692,
      "Ġbarriers": 8693,
      "content": 8694,
      "ady": 8695,
      "real": 8696,
      "Ġpossibilities": 8697,
      "itory": 8698,
      "Ġclot": 8699,
      "Suppose": 8700,
      "Ġconstitutional": 8701,
      "ceptions": 8702,
      "Test": 8703,
      "ĠJerusalem": 8704,
      "Ġlikelihood": 8705,
      "ĠChapter": 8706,
      "Ġpropag": 8707,
      "otics": 8708,
      "Ġ800": 8709,
      "Ġtraveling": 8710,
      "Ġsyndrome": 8711,
      "Ġbreathing": 8712,
      "Ġmonthly": 8713,
      "Ġadoles": 8714,
      "loor": 8715,
      "Ab": 8716,
      "Ġcollective": 8717,
      "athered": 8718,
      "Ġbonds": 8719,
      "ĠYoung": 8720,
      "ĠChange": 8721,
      "pace": 8722,
      "dr": 8723,
      "Understanding": 8724,
      "Ġzone": 8725,
      "ilation": 8726,
      "ĠRh": 8727,
      "ĠNature": 8728,
      "etts": 8729,
      "sts": 8730,
      "Ġsuperior": 8731,
      "ĠCast": 8732,
      "Ġneighborhood": 8733,
      "========": 8734,
      "pop": 8735,
      "ker": 8736,
      "PO": 8737,
      "Ġpin": 8738,
      "ĠChic": 8739,
      "gging": 8740,
      "rog": 8741,
      "Ġfires": 8742,
      "learn": 8743,
      "Ġanalyzing": 8744,
      "Ġprovin": 8745,
      "Ġourselves": 8746,
      "Ġdecom": 8747,
      "Ġmatches": 8748,
      "Ġqueue": 8749,
      "Ġtrading": 8750,
      "Ġintent": 8751,
      "ĠMartin": 8752,
      "mult": 8753,
      "Mat": 8754,
      "Ġmining": 8755,
      "Ġinequalities": 8756,
      "Ġstere": 8757,
      "ivered": 8758,
      "Ġsubtracting": 8759,
      "ounce": 8760,
      "Ġreceiving": 8761,
      "bool": 8762,
      "Ġpeas": 8763,
      "Ġ2008": 8764,
      "Ġfunds": 8765,
      "plete": 8766,
      "ĠBoston": 8767,
      "Ġempathy": 8768,
      "Ġexperiencing": 8769,
      "ĠWall": 8770,
      "Ġ>=": 8771,
      "Ġentertain": 8772,
      "ĠBasic": 8773,
      "mid": 8774,
      "Ġ...,": 8775,
      "ĠExcel": 8776,
      "Ġlatest": 8777,
      "ĠDoes": 8778,
      "Ġsmell": 8779,
      "Ġarranged": 8780,
      "ĠGreeks": 8781,
      "Ġnerv": 8782,
      "items": 8783,
      "Î¼": 8784,
      "ĠPeter": 8785,
      "cup": 8786,
      "ocked": 8787,
      "Ġpit": 8788,
      "Ġconsume": 8789,
      "Ġcriminal": 8790,
      "icity": 8791,
      "Ġadm": 8792,
      "ventional": 8793,
      "ĠMinister": 8794,
      "ĠFlorida": 8795,
      "ENT": 8796,
      "Ġrabb": 8797,
      "Ġstatic": 8798,
      "ĠMississippi": 8799,
      "Ġteles": 8800,
      "normal": 8801,
      "Ġportray": 8802,
      "ĠWho": 8803,
      "ĠÏī": 8804,
      "Ġinjury": 8805,
      "Ġbroke": 8806,
      "Ġarmed": 8807,
      "Ġ1800": 8808,
      "Ġconven": 8809,
      "ĠMet": 8810,
      "Ġconsumers": 8811,
      "ĠâĪ«[": 8812,
      "Ã¶": 8813,
      "Ġmerc": 8814,
      "Ġoutdo": 8815,
      "ĠAsian": 8816,
      "Ġlimitations": 8817,
      "ĠEnc": 8818,
      "Ġmas": 8819,
      "eping": 8820,
      "Ġintegrate": 8821,
      "reating": 8822,
      "ĠPython": 8823,
      "Ġelabor": 8824,
      "ĠHome": 8825,
      "Ġregist": 8826,
      "Ġmetric": 8827,
      "ĠAustralian": 8828,
      "/âĪĤ": 8829,
      "etary": 8830,
      "adow": 8831,
      "illa": 8832,
      "Ġpunishment": 8833,
      "Ġensures": 8834,
      "ĠSwed": 8835,
      "Ġfossils": 8836,
      "tenance": 8837,
      "ani": 8838,
      "ĠMen": 8839,
      "Ġsensory": 8840,
      "ften": 8841,
      "Ġbee": 8842,
      "Ġending": 8843,
      "Ġ66": 8844,
      "Ġinspire": 8845,
      "Line": 8846,
      "vin": 8847,
      "ĠMem": 8848,
      "Through": 8849,
      "ympt": 8850,
      "Which": 8851,
      "Ġspoken": 8852,
      "directory": 8853,
      "uan": 8854,
      "Ġsevent": 8855,
      "brew": 8856,
      "target": 8857,
      "password": 8858,
      "ĠHa": 8859,
      "Def": 8860,
      "ĠDer": 8861,
      "Ġconvey": 8862,
      "Ġreforms": 8863,
      "Ġordinary": 8864,
      "ctu": 8865,
      "gans": 8866,
      "Ġperforming": 8867,
      "umental": 8868,
      "mean": 8869,
      "ividing": 8870,
      "TH": 8871,
      "teries": 8872,
      "Ġphotos": 8873,
      "igned": 8874,
      "ruption": 8875,
      "pow": 8876,
      "mn": 8877,
      "Ġ96": 8878,
      "Ġimagine": 8879,
      "acts": 8880,
      "Ġneck": 8881,
      "Ġdescript": 8882,
      "PR": 8883,
      "Ġhighlights": 8884,
      "ĠIslam": 8885,
      "coordinate": 8886,
      "Ġreson": 8887,
      "allow": 8888,
      "Ġwarfare": 8889,
      "Ġlogger": 8890,
      "ĠMah": 8891,
      "ita": 8892,
      "ĠIndependence": 8893,
      "Ġcamera": 8894,
      "Ġvictims": 8895,
      "wing": 8896,
      "ĠAnswer": 8897,
      "fulness": 8898,
      "Ġrelate": 8899,
      "vas": 8900,
      "ackson": 8901,
      "Ġfinds": 8902,
      "ivals": 8903,
      "Ġmeal": 8904,
      "Ġwhatever": 8905,
      "Ïĥ": 8906,
      "ĠExplain": 8907,
      "isdom": 8908,
      "Ġgases": 8909,
      "Ġ{}": 8910,
      "}{(": 8911,
      "ĠAlgorithm": 8912,
      "Ġmirror": 8913,
      "ĠLu": 8914,
      "Ġtrouble": 8915,
      "ĠHom": 8916,
      "ĠSometimes": 8917,
      "achusetts": 8918,
      "Ġpretty": 8919,
      "Ġalongside": 8920,
      "Ġowner": 8921,
      "ĠIslamic": 8922,
      "Ġalter": 8923,
      "Ġimprovement": 8924,
      "âĤģ": 8925,
      "Ġsport": 8926,
      ")+": 8927,
      "Pol": 8928,
      "Ġbutter": 8929,
      "negative": 8930,
      "Ġbears": 8931,
      "Ġgreenhouse": 8932,
      "ĠEdward": 8933,
      "lan": 8934,
      "Ġtoys": 8935,
      "ĠNorm": 8936,
      "ĠColon": 8937,
      "Ġcontributing": 8938,
      "iii": 8939,
      "IF": 8940,
      "Ġexplan": 8941,
      "Ġunusual": 8942,
      "ĠArctic": 8943,
      "Ġparliament": 8944,
      "onal": 8945,
      "Ġprecision": 8946,
      "Rep": 8947,
      "aska": 8948,
      "Ġrestric": 8949,
      "Ġfalling": 8950,
      "Ġencouraging": 8951,
      "Ġpreserved": 8952,
      "Ġaims": 8953,
      "Ġcas": 8954,
      "Ġcovering": 8955,
      "Ġembed": 8956,
      "Ġadvent": 8957,
      "Ġcollision": 8958,
      "Ġburied": 8959,
      "Ġsunlight": 8960,
      "ĠFibonacci": 8961,
      "Ġcriteria": 8962,
      "Ã³": 8963,
      "Class": 8964,
      "Ġhal": 8965,
      "Ġefficiently": 8966,
      "Ġfrust": 8967,
      "Ġ[(": 8968,
      "irth": 8969,
      "Ġsacred": 8970,
      "ĠEnd": 8971,
      "Ġinterview": 8972,
      "Ġ125": 8973,
      "Ġperception": 8974,
      "Ġplates": 8975,
      "Ġauthent": 8976,
      "Pr": 8977,
      "Ġisolated": 8978,
      "Ġprivile": 8979,
      "Ġfellow": 8980,
      "Ġduration": 8981,
      "Ġreinfor": 8982,
      "ĠIncre": 8983,
      "Ġgrows": 8984,
      "Ge": 8985,
      "Ġattempted": 8986,
      "ĠLar": 8987,
      "Ġcaught": 8988,
      "Yes": 8989,
      "Ġdelivered": 8990,
      "omor": 8991,
      "erge": 8992,
      "Ġapproximate": 8993,
      "ĠNa": 8994,
      "Part": 8995,
      "Ġspeeds": 8996,
      "Ġmyst": 8997,
      "Ġrelax": 8998,
      "ĠMuslims": 8999,
      "ĠSequ": 9000,
      "âĪļ(": 9001,
      "ĠWorks": 9002,
      "Ġpersonality": 9003,
      "Ġthor": 9004,
      "Ġburning": 9005,
      "rational": 9006,
      "Ġlongest": 9007,
      "iterranean": 9008,
      "Ġdraft": 9009,
      "Ġingred": 9010,
      "Ġtropical": 9011,
      "Ġfavorite": 9012,
      "rend": 9013,
      "oths": 9014,
      "''": 9015,
      "elfare": 9016,
      "Ġloved": 9017,
      "Ġtribe": 9018,
      "Ġreduces": 9019,
      "Ġextension": 9020,
      "Ġmand": 9021,
      "ami": 9022,
      "Ġfifth": 9023,
      "ĠPur": 9024,
      "Ġassociation": 9025,
      "Ġcosine": 9026,
      "Ġmild": 9027,
      "Â·": 9028,
      "Ġcattle": 9029,
      "IR": 9030,
      "Ġexceptions": 9031,
      "Ġprisoners": 9032,
      "ĠJournal": 9033,
      "MS": 9034,
      "Ġreminder": 9035,
      "Ġtemplate": 9036,
      "Ġtrauma": 9037,
      "Ġcalendar": 9038,
      "Each": 9039,
      "Ġrose": 9040,
      "Ġbought": 9041,
      "Ġyields": 9042,
      "ĠPoland": 9043,
      "ora": 9044,
      "Ġinstruct": 9045,
      "Ġdys": 9046,
      "Ġidentities": 9047,
      "ĠAmong": 9048,
      "azz": 9049,
      "Ġurl": 9050,
      "oices": 9051,
      "ĠEth": 9052,
      "iana": 9053,
      "Ġessay": 9054,
      "Ġknows": 9055,
      "ĠNet": 9056,
      "Ġdrought": 9057,
      "Ġseat": 9058,
      "Ġscientist": 9059,
      "token": 9060,
      "Ġhur": 9061,
      "rage": 9062,
      "Ġalive": 9063,
      "oven": 9064,
      "non": 9065,
      "ĠPeriod": 9066,
      "ĠHor": 9067,
      "Ġfu": 9068,
      "kl": 9069,
      "gers": 9070,
      "Ġconsiderable": 9071,
      "Ġmerely": 9072,
      "coming": 9073,
      "Rear": 9074,
      "Ġreprodu": 9075,
      "ĠPen": 9076,
      "Ġpipe": 9077,
      "Ġchose": 9078,
      "Ġxy": 9079,
      "Ġlosing": 9080,
      "cycl": 9081,
      "Ġwooden": 9082,
      "words": 9083,
      "ĠSn": 9084,
      "Ġsurgery": 9085,
      "Ġblank": 9086,
      "Ġmovie": 9087,
      "inson": 9088,
      "Ġforg": 9089,
      "ĠNavy": 9090,
      "Children": 9091,
      "ĠLeague": 9092,
      "Ġnom": 9093,
      "ĠCamb": 9094,
      "Ġoppon": 9095,
      "ĠInput": 9096,
      "Ġtemporary": 9097,
      "Ġchamb": 9098,
      "ĠMassachusetts": 9099,
      "dev": 9100,
      "ĠMediterranean": 9101,
      "ette": 9102,
      "essions": 9103,
      "Ġavailability": 9104,
      "vania": 9105,
      "Ġsampling": 9106,
      "ĠElizabeth": 9107,
      "IG": 9108,
      "Ġachievements": 9109,
      "Ġverify": 9110,
      "Ġmonitor": 9111,
      "xi": 9112,
      "Ġchances": 9113,
      "Ġmultiples": 9114,
      "Art": 9115,
      "ĠWild": 9116,
      "ĠOpen": 9117,
      "filename": 9118,
      "Ġprimes": 9119,
      "mun": 9120,
      "ĠIndust": 9121,
      "Ġshut": 9122,
      "Ġrepet": 9123,
      "Ġsurprising": 9124,
      "Ġcompens": 9125,
      "Ġhistoric": 9126,
      "Ġpuzzle": 9127,
      "ĠArist": 9128,
      "jud": 9129,
      "irrel": 9130,
      "Ġconfusion": 9131,
      "adel": 9132,
      "comp": 9133,
      "Ġperceived": 9134,
      "big": 9135,
      "Ġcook": 9136,
      "anned": 9137,
      "ĠJSON": 9138,
      "Ġstrongly": 9139,
      "Ġsocietal": 9140,
      "Ġrepeat": 9141,
      "abin": 9142,
      "distance": 9143,
      "Ġtit": 9144,
      "Ġcandidates": 9145,
      "Ġ2009": 9146,
      "ĠEle": 9147,
      "Ġlabour": 9148,
      "Ġfrag": 9149,
      "Ġcourses": 9150,
      "ceans": 9151,
      "ĠLabor": 9152,
      "Ġgirl": 9153,
      "Ġextinction": 9154,
      "iblical": 9155,
      "ĠHam": 9156,
      "ĠHoly": 9157,
      "Ġattacked": 9158,
      "Ġoperate": 9159,
      "ĠPot": 9160,
      "Ġprocedures": 9161,
      "tally": 9162,
      "Ġencl": 9163,
      "Ġviolent": 9164,
      "Ġpreventing": 9165,
      "Ġ53": 9166,
      "cot": 9167,
      "iratory": 9168,
      "color": 9169,
      "Dis": 9170,
      "ĠLanguage": 9171,
      "Ġchrom": 9172,
      "ĠFractions": 9173,
      "bur": 9174,
      "Ġderive": 9175,
      "150": 9176,
      "Ġpyramid": 9177,
      "su": 9178,
      "Ġexponents": 9179,
      "Ġodds": 9180,
      "ographical": 9181,
      "ĠLater": 9182,
      "ĠÐ": 9183,
      "har": 9184,
      "Ġfrequencies": 9185,
      "Ġabsence": 9186,
      "osh": 9187,
      "Ġjur": 9188,
      "ogle": 9189,
      "Ġdivides": 9190,
      "Ġtechnological": 9191,
      "Ġepis": 9192,
      "pez": 9193,
      "Ġexcav": 9194,
      "Ġillustrate": 9195,
[...]
